{
  "version": "1.0",
  "truncation": null,
  "padding": null,
  "added_tokens": [
    {
      "id": 0,
      "content": "[PAD]",
      "single_word": false,
      "lstrip": false,
      "rstrip": false,
      "normalized": false,
      "special": true
    },
    {
      "id": 1,
      "content": "[UNK]",
      "single_word": false,
      "lstrip": false,
      "rstrip": false,
      "normalized": false,
      "special": true
    },
    {
      "id": 2,
      "content": "[CLS]",
      "single_word": false,
      "lstrip": false,
      "rstrip": false,
      "normalized": false,
      "special": true
    },
    {
      "id": 3,
      "content": "[SEP]",
      "single_word": false,
      "lstrip": false,
      "rstrip": false,
      "normalized": false,
      "special": true
    },
    {
      "id": 4,
      "content": "[MASK]",
      "single_word": false,
      "lstrip": false,
      "rstrip": false,
      "normalized": false,
      "special": true
    }
  ],
  "normalizer": {
    "type": "Sequence",
    "normalizers": [
      {
        "type": "NFD"
      },
      {
        "type": "StripAccents"
      },
      {
        "type": "Lowercase"
      }
    ]
  },
  "pre_tokenizer": {
    "type": "BertPreTokenizer"
  },
  "post_processor": {
    "type": "TemplateProcessing",
    "single": [
      {
        "SpecialToken": {
          "id": "[CLS]",
          "type_id": 0
        }
      },
      {
        "Sequence": {
          "id": "A",
          "type_id": 0
        }
      },
      {
        "SpecialToken": {
          "id": "[SEP]",
          "type_id": 0
        }
      }
    ],
    "pair": [
      {
        "SpecialToken": {
          "id": "[CLS]",
          "type_id": 0
        }
      },
      {
        "Sequence": {
          "id": "A",
          "type_id": 0
        }
      },
      {
        "SpecialToken": {
          "id": "[SEP]",
          "type_id": 0
        }
      },
      {
        "Sequence": {
          "id": "B",
          "type_id": 0
        }
      },
      {
        "SpecialToken": {
          "id": "[SEP]",
          "type_id": 0
        }
      }
    ],
    "special_tokens": {
      "[CLS]": {
        "id": "[CLS]",
        "ids": [
          2
        ],
        "tokens": [
          "[CLS]"
        ]
      },
      "[SEP]": {
        "id": "[SEP]",
        "ids": [
          3
        ],
        "tokens": [
          "[SEP]"
        ]
      }
    }
  },
  "decoder": null,
  "model": {
    "type": "WordPiece",
    "unk_token": "[UNK]",
    "continuing_subword_prefix": "##",
    "max_input_chars_per_word": 100,
    "vocab": {
      "[PAD]": 0,
      "[UNK]": 1,
      "[CLS]": 2,
      "[SEP]": 3,
      "[MASK]": 4,
      "!": 5,
      "\"": 6,
      "#": 7,
      "$": 8,
      "%": 9,
      "&": 10,
      "'": 11,
      "(": 12,
      ")": 13,
      "*": 14,
      "+": 15,
      ",": 16,
      "-": 17,
      ".": 18,
      "/": 19,
      "0": 20,
      "1": 21,
      "2": 22,
      "3": 23,
      "4": 24,
      "5": 25,
      "6": 26,
      "7": 27,
      "8": 28,
      "9": 29,
      ":": 30,
      ";": 31,
      "<": 32,
      "=": 33,
      ">": 34,
      "?": 35,
      "@": 36,
      "[": 37,
      "\\": 38,
      "]": 39,
      "^": 40,
      "_": 41,
      "a": 42,
      "b": 43,
      "c": 44,
      "d": 45,
      "e": 46,
      "f": 47,
      "g": 48,
      "h": 49,
      "i": 50,
      "j": 51,
      "k": 52,
      "l": 53,
      "m": 54,
      "n": 55,
      "o": 56,
      "p": 57,
      "q": 58,
      "r": 59,
      "s": 60,
      "t": 61,
      "u": 62,
      "v": 63,
      "w": 64,
      "x": 65,
      "y": 66,
      "z": 67,
      "{": 68,
      "|": 69,
      "}": 70,
      "~": 71,
      "¦": 72,
      "©": 73,
      "®": 74,
      "°": 75,
      "·": 76,
      "º": 77,
      "ø": 78,
      "α": 79,
      "β": 80,
      "γ": 81,
      "δ": 82,
      "ε": 83,
      "θ": 84,
      "λ": 85,
      "μ": 86,
      "π": 87,
      "σ": 88,
      "φ": 89,
      "ω": 90,
      "а": 91,
      "в": 92,
      "и": 93,
      "н": 94,
      "с": 95,
      "෍": 96,
      "​": 97,
      "‍": 98,
      "–": 99,
      "—": 100,
      "’": 101,
      "“": 102,
      "”": 103,
      "•": 104,
      "…": 105,
      "ℎ": 106,
      "™": 107,
      "→": 108,
      "−": 109,
      "∴": 110,
      "≤": 111,
      "≥": 112,
      "⌈": 113,
      "⌉": 114,
      "⌊": 115,
      "⌋": 116,
      "─": 117,
      "═": 118,
      "▀": 119,
      "▄": 120,
      "█": 121,
      "░": 122,
      "▒": 123,
      "▓": 124,
      "■": 125,
      "□": 126,
      "▪": 127,
      "▬": 128,
      "▶": 129,
      "►": 130,
      "○": 131,
      "●": 132,
      "◕": 133,
      "★": 134,
      "☆": 135,
      "☒": 136,
      "☺": 137,
      "♂": 138,
      "♡": 139,
      "♥": 140,
      "♦": 141,
      "♪": 142,
      "♫": 143,
      "♬": 144,
      "✅": 145,
      "✓": 146,
      "✔": 147,
      "✨": 148,
      "❤": 149,
      "⠀": 150,
      "ツ": 151,
      "": 152,
      "": 153,
      "": 154,
      "𝑂": 155,
      "𝑘": 156,
      "𝑛": 157,
      "🇸": 158,
      "🇺": 159,
      "🍆": 160,
      "🎃": 161,
      "🎵": 162,
      "🎶": 163,
      "🏻": 164,
      "👀": 165,
      "👉": 166,
      "👌": 167,
      "👍": 168,
      "👏": 169,
      "💀": 170,
      "💕": 171,
      "💖": 172,
      "💜": 173,
      "💦": 174,
      "💩": 175,
      "💪": 176,
      "💯": 177,
      "💰": 178,
      "🔥": 179,
      "🗿": 180,
      "😀": 181,
      "😁": 182,
      "😂": 183,
      "😃": 184,
      "😄": 185,
      "😅": 186,
      "😆": 187,
      "😈": 188,
      "😉": 189,
      "😊": 190,
      "😋": 191,
      "😍": 192,
      "😎": 193,
      "😏": 194,
      "😐": 195,
      "😒": 196,
      "😔": 197,
      "😘": 198,
      "😛": 199,
      "😜": 200,
      "😞": 201,
      "😡": 202,
      "😢": 203,
      "😤": 204,
      "😩": 205,
      "😫": 206,
      "😬": 207,
      "😭": 208,
      "😱": 209,
      "😳": 210,
      "🙂": 211,
      "🙃": 212,
      "🙄": 213,
      "🙏": 214,
      "🚨": 215,
      "🤔": 216,
      "🤗": 217,
      "🤣": 218,
      "🤤": 219,
      "🤷": 220,
      "##0": 221,
      "##e": 222,
      "##c": 223,
      "##o": 224,
      "##d": 225,
      "##r": 226,
      "##v": 227,
      "##n": 228,
      "##s": 229,
      "##t": 230,
      "##a": 231,
      "##i": 232,
      "##l": 233,
      "##b": 234,
      "##u": 235,
      "##z": 236,
      "##y": 237,
      "##m": 238,
      "##p": 239,
      "##h": 240,
      "##g": 241,
      "##k": 242,
      "##w": 243,
      "##5": 244,
      "##f": 245,
      "##x": 246,
      "##2": 247,
      "##q": 248,
      "##j": 249,
      "##4": 250,
      "##7": 251,
      "##1": 252,
      "##8": 253,
      "##9": 254,
      "##3": 255,
      "##6": 256,
      "##‍": 257,
      "##♂": 258,
      "##𝑘": 259,
      "##𝑛": 260,
      "##а": 261,
      "##🏻": 262,
      "##​": 263,
      "##ℎ": 264,
      "##🇸": 265,
      "##𝑂": 266,
      "##er": 267,
      "##in": 268,
      "##at": 269,
      "th": 270,
      "##es": 271,
      "##or": 272,
      "##nt": 273,
      "##on": 274,
      "the": 275,
      "##st": 276,
      "##ed": 277,
      "##re": 278,
      "##le": 279,
      "##it": 280,
      "##nd": 281,
      "##ic": 282,
      "##al": 283,
      "##ing": 284,
      "##od": 285,
      "##ion": 286,
      "##ra": 287,
      "##me": 288,
      "st": 289,
      "to": 290,
      "##ct": 291,
      "##ar": 292,
      "##ou": 293,
      "of": 294,
      "re": 295,
      "in": 296,
      "##mp": 297,
      "##ode": 298,
      "##ac": 299,
      "ne": 300,
      "##as": 301,
      "##an": 302,
      "##ro": 303,
      "##ist": 304,
      "int": 305,
      "##en": 306,
      "##is": 307,
      "node": 308,
      "ar": 309,
      "##ue": 310,
      "co": 311,
      "is": 312,
      "##ut": 313,
      "##et": 314,
      "##ata": 315,
      "##ur": 316,
      "##ation": 317,
      "and": 318,
      "##ll": 319,
      "it": 320,
      "an": 321,
      "ad": 322,
      "data": 323,
      "##ray": 324,
      "for": 325,
      "##mple": 326,
      "##ment": 327,
      "wh": 328,
      "list": 329,
      "##ve": 330,
      "##ot": 331,
      "array": 332,
      "##em": 333,
      "##ly": 334,
      "str": 335,
      "##ce": 336,
      "##ig": 337,
      "ex": 338,
      "##uct": 339,
      "##ver": 340,
      "##ch": 341,
      "##ad": 342,
      "##ity": 343,
      "##ow": 344,
      "##ect": 345,
      "##ith": 346,
      "pr": 347,
      "##id": 348,
      "##se": 349,
      "new": 350,
      "##ass": 351,
      "##il": 352,
      "##int": 353,
      "##ex": 354,
      "or": 355,
      "cl": 356,
      "if": 357,
      "##ack": 358,
      "struct": 359,
      "pro": 360,
      "lin": 361,
      "po": 362,
      "be": 363,
      "##ub": 364,
      "##ure": 365,
      "class": 366,
      "##ir": 367,
      "##per": 368,
      "al": 369,
      "##xt": 370,
      "##ent": 371,
      "next": 372,
      "se": 373,
      "tre": 374,
      "on": 375,
      "ind": 376,
      "de": 377,
      "##est": 378,
      "##iz": 379,
      "##lic": 380,
      "add": 381,
      "we": 382,
      "so": 383,
      "##pe": 384,
      "he": 385,
      "##ge": 386,
      "##ort": 387,
      "out": 388,
      "con": 389,
      "link": 390,
      "##ime": 391,
      "##ble": 392,
      "##th": 393,
      "##ap": 394,
      "index": 395,
      "ch": 396,
      "##if": 397,
      "nu": 398,
      "stack": 399,
      "you": 400,
      "as": 401,
      "##ate": 402,
      "that": 403,
      "not": 404,
      "##ul": 405,
      "##ess": 406,
      "tree": 407,
      "linked": 408,
      "time": 409,
      "pub": 410,
      "public": 411,
      "##ach": 412,
      "are": 413,
      "us": 414,
      "##av": 415,
      "##am": 416,
      "can": 417,
      "##bj": 418,
      "##urn": 419,
      "##ert": 420,
      "##ithm": 421,
      "##ize": 422,
      "ret": 423,
      "##fer": 424,
      "##gor": 425,
      "##alue": 426,
      "##lement": 427,
      "return": 428,
      "algor": 429,
      "algorithm": 430,
      "structure": 431,
      "##ant": 432,
      "obj": 433,
      "comple": 434,
      "do": 435,
      "element": 436,
      "##ay": 437,
      "size": 438,
      "##iv": 439,
      "##ers": 440,
      "at": 441,
      "fro": 442,
      "##ore": 443,
      "##ere": 444,
      "##oo": 445,
      "##ations": 446,
      "this": 447,
      "##us": 448,
      "##ld": 449,
      "##arch": 450,
      "value": 451,
      "##atic": 452,
      "oper": 453,
      "jav": 454,
      "##igh": 455,
      "ty": 456,
      "##our": 457,
      "print": 458,
      "##ik": 459,
      "imple": 460,
      "some": 461,
      "que": 462,
      "##fs": 463,
      "pa": 464,
      "complex": 465,
      "from": 466,
      "head": 467,
      "##mo": 468,
      "##list": 469,
      "##ie": 470,
      "##ast": 471,
      "##ions": 472,
      "implement": 473,
      "tra": 474,
      "sy": 475,
      "adj": 476,
      "##un": 477,
      "what": 478,
      "iter": 479,
      "object": 480,
      "##ia": 481,
      "exp": 482,
      "le": 483,
      "get": 484,
      "java": 485,
      "##eth": 486,
      "##age": 487,
      "##im": 488,
      "null": 489,
      "with": 490,
      "##der": 491,
      "search": 492,
      "##pp": 493,
      "##yn": 494,
      "item": 495,
      "complexity": 496,
      "##ator": 497,
      "sh": 498,
      "pre": 499,
      "wor": 500,
      "##vers": 501,
      "ta": 502,
      "ma": 503,
      "##amic": 504,
      "dyn": 505,
      "##ive": 506,
      "dynamic": 507,
      "##ger": 508,
      "static": 509,
      "##oid": 510,
      "all": 511,
      "ins": 512,
      "##irst": 513,
      "##qu": 514,
      "gra": 515,
      "##ip": 516,
      "##ures": 517,
      "first": 518,
      "##mm": 519,
      "##put": 520,
      "##erf": 521,
      "remo": 522,
      "big": 523,
      "##stem": 524,
      "point": 525,
      "en": 526,
      "system": 527,
      "##ight": 528,
      "need": 529,
      "inte": 530,
      "exa": 531,
      "void": 532,
      "un": 533,
      "##ck": 534,
      "each": 535,
      "vis": 536,
      "##mb": 537,
      "##ial": 538,
      "comp": 539,
      "insert": 540,
      "##ph": 541,
      "##and": 542,
      "10": 543,
      "structures": 544,
      "refer": 545,
      "has": 546,
      "##gra": 547,
      "arraylist": 548,
      "##aly": 549,
      "use": 550,
      "how": 551,
      "analy": 552,
      "##ill": 553,
      "iterator": 554,
      "##pt": 555,
      "##ary": 556,
      "visit": 557,
      "integer": 558,
      "##odes": 559,
      "##apac": 560,
      "by": 561,
      "##ase": 562,
      "##apacity": 563,
      "##ty": 564,
      "queue": 565,
      "ro": 566,
      "##rent": 567,
      "##ence": 568,
      "##ace": 569,
      "##ild": 570,
      "set": 571,
      "nodes": 572,
      "##ine": 573,
      "##sis": 574,
      "cur": 575,
      "##all": 576,
      "res": 577,
      "arrays": 578,
      "qu": 579,
      "analysis": 580,
      "up": 581,
      "##art": 582,
      "top": 583,
      "##ous": 584,
      "##cc": 585,
      "inst": 586,
      "meth": 587,
      "progra": 588,
      "method": 589,
      "typ": 590,
      "##oc": 591,
      "remove": 592,
      "code": 593,
      "##ally": 594,
      "prev": 595,
      "order": 596,
      "##ory": 597,
      "ha": 598,
      "dou": 599,
      "su": 600,
      "operations": 601,
      "##data": 602,
      "no": 603,
      "##row": 604,
      "app": 605,
      "##ated": 606,
      "##ener": 607,
      "##orm": 608,
      "graph": 609,
      "##ance": 610,
      "example": 611,
      "##ies": 612,
      "mem": 613,
      "##ound": 614,
      "##ike": 615,
      "memory": 616,
      "elementdata": 617,
      "any": 618,
      "one": 619,
      "##cl": 620,
      "travers": 621,
      "##tt": 622,
      "work": 623,
      "ab": 624,
      "child": 625,
      "##ile": 626,
      "string": 627,
      "more": 628,
      "##mber": 629,
      "##ust": 630,
      "have": 631,
      "##ard": 632,
      "root": 633,
      "##capacity": 634,
      "implementation": 635,
      "##ter": 636,
      "##lo": 637,
      "like": 638,
      "bfs": 639,
      "##ath": 640,
      "visited": 641,
      "using": 642,
      "end": 643,
      "case": 644,
      "##out": 645,
      "##ction": 646,
      "##ep": 647,
      "##ition": 648,
      "##ould": 649,
      "##te": 650,
      "acc": 651,
      "traversal": 652,
      "##ln": 653,
      "sour": 654,
      "const": 655,
      "println": 656,
      "##cept": 657,
      "will": 658,
      "sp": 659,
      "##ics": 660,
      "arr": 661,
      "spe": 662,
      "last": 663,
      "##les": 664,
      "perf": 665,
      "dis": 666,
      "und": 667,
      "##iew": 668,
      "##ning": 669,
      "over": 670,
      "##node": 671,
      "##ff": 672,
      "gener": 673,
      "ed": 674,
      "##ab": 675,
      "sort": 676,
      "##ain": 677,
      "##ib": 678,
      "##ame": 679,
      "dif": 680,
      "##co": 681,
      "##enc": 682,
      "source": 683,
      "##ues": 684,
      "##ress": 685,
      "boo": 686,
      "var": 687,
      "used": 688,
      "##view": 689,
      "lists": 690,
      "mo": 691,
      "##able": 692,
      "cre": 693,
      "spec": 694,
      "number": 695,
      "types": 696,
      "##ther": 697,
      "##mpty": 698,
      "output": 699,
      "##ult": 700,
      "dfs": 701,
      "##ract": 702,
      "##inary": 703,
      "##ek": 704,
      "wik": 705,
      "##ner": 706,
      "##erm": 707,
      "algorithms": 708,
      "imp": 709,
      "##ich": 710,
      "pos": 711,
      "vert": 712,
      "where": 713,
      "type": 714,
      "call": 715,
      "items": 716,
      "binary": 717,
      "your": 718,
      "there": 719,
      "##ior": 720,
      "##ire": 721,
      "##ind": 722,
      "when": 723,
      "fun": 724,
      "def": 725,
      "access": 726,
      "other": 727,
      "des": 728,
      "##00": 729,
      "reference": 730,
      "##ating": 731,
      "perform": 732,
      "bound": 733,
      "my": 734,
      "##ges": 735,
      "##ious": 736,
      "##que": 737,
      "loo": 738,
      "appro": 739,
      "constant": 740,
      "operation": 741,
      "tr": 742,
      "which": 743,
      "##eck": 744,
      "##ke": 745,
      "newnode": 746,
      "differ": 747,
      "para": 748,
      "prior": 749,
      "te": 750,
      "##ical": 751,
      "htt": 752,
      "http": 753,
      "ass": 754,
      "giv": 755,
      "rep": 756,
      "##ient": 757,
      "##ud": 758,
      "input": 759,
      "##ings": 760,
      "##ush": 761,
      "cons": 762,
      "##pend": 763,
      "varia": 764,
      "given": 765,
      "only": 766,
      "cs": 767,
      "sing": 768,
      "pointer": 769,
      "##low": 770,
      "ke": 771,
      "review": 772,
      "tw": 773,
      "cont": 774,
      "trees": 775,
      "##ree": 776,
      "##lean": 777,
      "bas": 778,
      "##ount": 779,
      "specif": 780,
      "quest": 781,
      "##met": 782,
      "eff": 783,
      "heap": 784,
      "sub": 785,
      "go": 786,
      "boolean": 787,
      "##gh": 788,
      "##res": 789,
      "##oth": 790,
      "push": 791,
      "program": 792,
      "double": 793,
      "##um": 794,
      "fo": 795,
      "rec": 796,
      "curr": 797,
      "lo": 798,
      "##are": 799,
      "queues": 800,
      "##ft": 801,
      "##ular": 802,
      "el": 803,
      "pe": 804,
      "grow": 805,
      "same": 806,
      "me": 807,
      "##ong": 808,
      "comm": 809,
      "inner": 810,
      "space": 811,
      "then": 812,
      "notation": 813,
      "20": 814,
      "run": 815,
      "requ": 816,
      "current": 817,
      "##ates": 818,
      "min": 819,
      "parent": 820,
      "function": 821,
      "lect": 822,
      "mid": 823,
      "why": 824,
      "vs": 825,
      "##ice": 826,
      "##ected": 827,
      "##ested": 828,
      "programm": 829,
      "##ruct": 830,
      "##ite": 831,
      "##ices": 832,
      "part": 833,
      "create": 834,
      "##cr": 835,
      "priv": 836,
      "lecture": 837,
      "##ren": 838,
      "line": 839,
      "##con": 840,
      "private": 841,
      "stor": 842,
      "defin": 843,
      "two": 844,
      "##ark": 845,
      "##itive": 846,
      "store": 847,
      "tail": 848,
      "n2": 849,
      "##ign": 850,
      "import": 851,
      "under": 852,
      "##ick": 853,
      "##ough": 854,
      "man": 855,
      "but": 856,
      "##lle": 857,
      "##resent": 858,
      "im": 859,
      "##llow": 860,
      "##ese": 861,
      "questions": 862,
      "represent": 863,
      "##ext": 864,
      "cost": 865,
      "##ans": 866,
      "##irc": 867,
      "follow": 868,
      "effic": 869,
      "circ": 870,
      "##meters": 871,
      "si": 872,
      "about": 873,
      "parameters": 874,
      "##os": 875,
      "dele": 876,
      "##om": 877,
      "doub": 878,
      "##blem": 879,
      "loc": 880,
      "##erface": 881,
      "##ix": 882,
      "problem": 883,
      "sc": 884,
      "these": 885,
      "##op": 886,
      "vertices": 887,
      "am": 888,
      "let": 889,
      "org": 890,
      "ap": 891,
      "different": 892,
      "approach": 893,
      "##urs": 894,
      "does": 895,
      "equ": 896,
      "empty": 897,
      "n0": 898,
      "##ol": 899,
      "##ield": 900,
      "com": 901,
      "aver": 902,
      "##vel": 903,
      "dep": 904,
      "interface": 905,
      "##queue": 906,
      "##anc": 907,
      "id": 908,
      "##af": 909,
      "det": 910,
      "find": 911,
      "instance": 912,
      "pl": 913,
      "stacks": 914,
      "insertion": 915,
      "singly": 916,
      "circular": 917,
      "##ities": 918,
      "else": 919,
      "mod": 920,
      "##ide": 921,
      "right": 922,
      "should": 923,
      "file": 924,
      "##py": 925,
      "children": 926,
      "generics": 927,
      "priority": 928,
      "programming": 929,
      "image": 930,
      "doubly": 931,
      "average": 932,
      "iterators": 933,
      "##ception": 934,
      "term": 935,
      "##read": 936,
      "##gin": 937,
      "comput": 938,
      "##eight": 939,
      "equal": 940,
      "field": 941,
      "##ange": 942,
      "left": 943,
      "##ens": 944,
      "specific": 945,
      "old": 946,
      "##ang": 947,
      "classes": 948,
      "level": 949,
      "pop": 950,
      "##irect": 951,
      "worst": 952,
      "max": 953,
      "main": 954,
      "sol": 955,
      "arg": 956,
      "step": 957,
      "##order": 958,
      "start": 959,
      "see": 960,
      "make": 961,
      "##ks": 962,
      "would": 963,
      "##fore": 964,
      "common": 965,
      "way": 966,
      "##act": 967,
      "fix": 968,
      "##nected": 969,
      "export": 970,
      "want": 971,
      "rel": 972,
      "##very": 973,
      "log": 974,
      "##ater": 975,
      "##its": 976,
      "##ict": 977,
      "previous": 978,
      "its": 979,
      "while": 980,
      "low": 981,
      "##ject": 982,
      "tak": 983,
      "may": 984,
      "##10": 985,
      "##edia": 986,
      "##tra": 987,
      "##class": 988,
      "cour": 989,
      "##dle": 990,
      "##ish": 991,
      "loop": 992,
      "requir": 993,
      "position": 994,
      "##oday": 995,
      "outer": 996,
      "##bles": 997,
      "efficient": 998,
      "depth": 999,
      "##ipedia": 1000,
      "wiki": 1001,
      "wikipedia": 1002,
      "cast": 1003,
      "elements": 1004,
      "just": 1005,
      "path": 1006,
      "##ern": 1007,
      "##ency": 1008,
      "cor": 1009,
      "than": 1010,
      "init": 1011,
      "back": 1012,
      "##ail": 1013,
      "begin": 1014,
      "recurs": 1015,
      "middle": 1016,
      "mark": 1017,
      "paper": 1018,
      "remov": 1019,
      "works": 1020,
      "peek": 1021,
      "initial": 1022,
      "today": 1023,
      "##ments": 1024,
      "##inal": 1025,
      "seth": 1026,
      "adjac": 1027,
      "called": 1028,
      "mincapacity": 1029,
      "setheight": 1030,
      "check": 1031,
      "every": 1032,
      "temp": 1033,
      "##ink": 1034,
      "##we": 1035,
      "##thing": 1036,
      "instruct": 1037,
      "##eng": 1038,
      "bet": 1039,
      "gm": 1040,
      "sv": 1041,
      "##ized": 1042,
      "variable": 1043,
      "address": 1044,
      "upper": 1045,
      "post": 1046,
      "##bo": 1047,
      "nested": 1048,
      "things": 1049,
      "##array": 1050,
      "points": 1051,
      "following": 1052,
      "svg": 1053,
      "##so": 1054,
      "long": 1055,
      "inf": 1056,
      "true": 1057,
      "##one": 1058,
      "into": 1059,
      "er": 1060,
      "here": 1061,
      "descr": 1062,
      "##ces": 1063,
      "thr": 1064,
      "##ifi": 1065,
      "local": 1066,
      "both": 1067,
      "##ord": 1068,
      "methods": 1069,
      "##log": 1070,
      "important": 1071,
      "course": 1072,
      "##value": 1073,
      "##ually": 1074,
      "constants": 1075,
      "read": 1076,
      "append": 1077,
      "act": 1078,
      "hasn": 1079,
      "leng": 1080,
      "##uch": 1081,
      "length": 1082,
      "project": 1083,
      "##ason": 1084,
      "key": 1085,
      "##ry": 1086,
      "##io": 1087,
      "##ym": 1088,
      "stud": 1089,
      "concept": 1090,
      "et": 1091,
      "delet": 1092,
      "lg": 1093,
      "also": 1094,
      "through": 1095,
      "takes": 1096,
      "graphs": 1097,
      "kn": 1098,
      "ru": 1099,
      "war": 1100,
      "##ag": 1101,
      "##line": 1102,
      "hasnext": 1103,
      "##ead": 1104,
      "best": 1105,
      "##cre": 1106,
      "form": 1107,
      "pred": 1108,
      "##ose": 1109,
      "express": 1110,
      "##check": 1111,
      "sl": 1112,
      "val": 1113,
      "##ors": 1114,
      "applic": 1115,
      "##of": 1116,
      "short": 1117,
      "##ically": 1118,
      "colle": 1119,
      "describ": 1120,
      "ver": 1121,
      "ise": 1122,
      "adding": 1123,
      "needed": 1124,
      "running": 1125,
      "prim": 1126,
      "disc": 1127,
      "isempty": 1128,
      "##au": 1129,
      "##za": 1130,
      "err": 1131,
      "math": 1132,
      "##abil": 1133,
      "##way": 1134,
      "prov": 1135,
      "edu": 1136,
      "thro": 1137,
      "adv": 1138,
      "table": 1139,
      "bread": 1140,
      "##ases": 1141,
      "##ides": 1142,
      "args": 1143,
      "##ution": 1144,
      "##own": 1145,
      "pract": 1146,
      "##stand": 1147,
      "##ise": 1148,
      "expl": 1149,
      "good": 1150,
      "capacity": 1151,
      "##ttle": 1152,
      "etc": 1153,
      "variables": 1154,
      "throttle": 1155,
      "breadth": 1156,
      "newcapacity": 1157,
      "100": 1158,
      "gmu": 1159,
      "##cess": 1160,
      "##ful": 1161,
      "##ents": 1162,
      "grad": 1163,
      "mach": 1164,
      "##onym": 1165,
      "mult": 1166,
      "white": 1167,
      "copy": 1168,
      "##ider": 1169,
      "##uss": 1170,
      "##iple": 1171,
      "##onymous": 1172,
      "result": 1173,
      "##anced": 1174,
      "cs3": 1175,
      "before": 1176,
      "##iaz": 1177,
      "move": 1178,
      "lower": 1179,
      "upd": 1180,
      "af": 1181,
      "ev": 1182,
      "complete": 1183,
      "most": 1184,
      "machine": 1185,
      "piaz": 1186,
      "performance": 1187,
      "piazza": 1188,
      "##25": 1189,
      "##el": 1190,
      "##ak": 1191,
      "##ull": 1192,
      "##verse": 1193,
      "decl": 1194,
      "car": 1195,
      "deg": 1196,
      "##type": 1197,
      "abst": 1198,
      "quick": 1199,
      "know": 1200,
      "br": 1201,
      "##estine": 1202,
      "hash": 1203,
      "understand": 1204,
      "abstract": 1205,
      "##mples": 1206,
      "leaf": 1207,
      "amort": 1208,
      "##ween": 1209,
      "linear": 1210,
      "expression": 1211,
      "##mpl": 1212,
      "below": 1213,
      "without": 1214,
      "examples": 1215,
      "such": 1216,
      "vertex": 1217,
      "fields": 1218,
      "between": 1219,
      "primitive": 1220,
      "lar": 1221,
      "adt": 1222,
      "2025": 1223,
      "##rect": 1224,
      "sch": 1225,
      "ho": 1226,
      "partic": 1227,
      "ide": 1228,
      "ge": 1229,
      "##ared": 1230,
      "##app": 1231,
      "##board": 1232,
      "fact": 1233,
      "##ug": 1234,
      "predict": 1235,
      "cy": 1236,
      "##orial": 1237,
      "front": 1238,
      "after": 1239,
      "##ga": 1240,
      "warm": 1241,
      "discuss": 1242,
      "anonymous": 1243,
      "correct": 1244,
      "fr": 1245,
      "compil": 1246,
      "ht": 1247,
      "high": 1248,
      "convers": 1249,
      "alloc": 1250,
      "##ernal": 1251,
      "cs310": 1252,
      "keep": 1253,
      "simple": 1254,
      "bl": 1255,
      "##itt": 1256,
      "resour": 1257,
      "amortized": 1258,
      "much": 1259,
      "range": 1260,
      "collection": 1261,
      "2n": 1262,
      "##ify": 1263,
      "traverse": 1264,
      "edges": 1265,
      "terms": 1266,
      "equals": 1267,
      "casting": 1268,
      "very": 1269,
      "non": 1270,
      "ut": 1271,
      "enqueue": 1272,
      "cha": 1273,
      "count": 1274,
      "##lp": 1275,
      "##iss": 1276,
      "prob": 1277,
      "##cond": 1278,
      "must": 1279,
      "##ved": 1280,
      "put": 1281,
      "contain": 1282,
      "throw": 1283,
      "eas": 1284,
      "##usse": 1285,
      "##imit": 1286,
      "lang": 1287,
      "##ns": 1288,
      "extra": 1289,
      "##alk": 1290,
      "##ematic": 1291,
      "consider": 1292,
      "##olog": 1293,
      "##ian": 1294,
      "allow": 1295,
      "##ences": 1296,
      "later": 1297,
      "##ran": 1298,
      "proper": 1299,
      "mathematic": 1300,
      "ac": 1301,
      "per": 1302,
      "##ization": 1303,
      "height": 1304,
      "instead": 1305,
      "computer": 1306,
      "error": 1307,
      "iterable": 1308,
      "sw": 1309,
      "yes": 1310,
      "##pport": 1311,
      "t2": 1312,
      "##ages": 1313,
      "usually": 1314,
      "means": 1315,
      "adjacent": 1316,
      "deletion": 1317,
      "whiteboard": 1318,
      "resources": 1319,
      "##ual": 1320,
      "bad": 1321,
      "##uc": 1322,
      "down": 1323,
      "##ative": 1324,
      "tot": 1325,
      "##ector": 1326,
      "ens": 1327,
      "lot": 1328,
      "opt": 1329,
      "##atch": 1330,
      "##imes": 1331,
      "activ": 1332,
      "doc": 1333,
      "practice": 1334,
      "incre": 1335,
      "help": 1336,
      "cod": 1337,
      "##itions": 1338,
      "process": 1339,
      "lif": 1340,
      "##ta": 1341,
      "total": 1342,
      "ome": 1343,
      "##ri": 1344,
      "second": 1345,
      "summ": 1346,
      "basic": 1347,
      "storage": 1348,
      "detail": 1349,
      "util": 1350,
      "##ward": 1351,
      "modifi": 1352,
      "connected": 1353,
      "positive": 1354,
      "vector": 1355,
      "searching": 1356,
      "problems": 1357,
      "applications": 1358,
      "coding": 1359,
      "omega": 1360,
      "hu": 1361,
      "dequeue": 1362,
      "rangecheck": 1363,
      "hand": 1364,
      "web": 1365,
      "##ours": 1366,
      "bal": 1367,
      "wr": 1368,
      "##ling": 1369,
      "##ml": 1370,
      "bu": 1371,
      "pack": 1372,
      "fast": 1373,
      "neigh": 1374,
      "##exception": 1375,
      "neighb": 1376,
      "dur": 1377,
      "flo": 1378,
      "##rod": 1379,
      "lear": 1380,
      "those": 1381,
      "simpl": 1382,
      "limit": 1383,
      "##ne": 1384,
      "##side": 1385,
      "exe": 1386,
      "##fits": 1387,
      "##orge": 1388,
      "##member": 1389,
      "easy": 1390,
      "sem": 1391,
      "##ways": 1392,
      "remember": 1393,
      "##irected": 1394,
      "h1": 1395,
      "##tree": 1396,
      "##aps": 1397,
      "hours": 1398,
      "##cle": 1399,
      "##ctions": 1400,
      "implemented": 1401,
      "references": 1402,
      "byte": 1403,
      "sets": 1404,
      "basics": 1405,
      "exporter": 1406,
      "requires": 1407,
      "describes": 1408,
      "highest": 1409,
      "mathematical": 1410,
      "summary": 1411,
      "details": 1412,
      "##search": 1413,
      "mylist": 1414,
      "myclass": 1415,
      "##ester": 1416,
      "exception": 1417,
      "sep": 1418,
      "##ream": 1419,
      "off": 1420,
      "##ability": 1421,
      "##ivers": 1422,
      "inter": 1423,
      "implements": 1424,
      "generic": 1425,
      "final": 1426,
      "##xim": 1427,
      "particip": 1428,
      "introd": 1429,
      "returns": 1430,
      "expand": 1431,
      "shr": 1432,
      "approxim": 1433,
      "assign": 1434,
      "scen": 1435,
      "sched": 1436,
      "ary": 1437,
      "client": 1438,
      "note": 1439,
      "single": 1440,
      "required": 1441,
      "recursive": 1442,
      "##ntime": 1443,
      "##connected": 1444,
      "their": 1445,
      "rem": 1446,
      "edge": 1447,
      "multiple": 1448,
      "html": 1449,
      "float": 1450,
      "ban": 1451,
      "mat": 1452,
      "n3": 1453,
      "t1": 1454,
      "always": 1455,
      "outline": 1456,
      "uses": 1457,
      "typically": 1458,
      "sorted": 1459,
      "bounds": 1460,
      "definition": 1461,
      "removing": 1462,
      "concepts": 1463,
      "runtime": 1464,
      "updated": 1465,
      "ensure": 1466,
      "40": 1467,
      "##ves": 1468,
      "traversals": 1469,
      "binarysearch": 1470,
      "oldvalue": 1471,
      "##ness": 1472,
      "stored": 1473,
      "##man": 1474,
      "##ists": 1475,
      "fe": 1476,
      "##ional": 1477,
      "##lf": 1478,
      "##lying": 1479,
      "##ause": 1480,
      "charact": 1481,
      "##be": 1482,
      "##ants": 1483,
      "text": 1484,
      "well": 1485,
      "##other": 1486,
      "happ": 1487,
      "##ier": 1488,
      "uns": 1489,
      "univers": 1490,
      "emp": 1491,
      "nar": 1492,
      "##red": 1493,
      "num": 1494,
      "##ron": 1495,
      "##ars": 1496,
      "neighbor": 1497,
      "bo": 1498,
      "##iated": 1499,
      "underlying": 1500,
      "many": 1501,
      "delete": 1502,
      "recursion": 1503,
      "give": 1504,
      "sa": 1505,
      "##cend": 1506,
      "aslist": 1507,
      "##encil": 1508,
      "pencil": 1509,
      "something": 1510,
      "beginning": 1511,
      "scenar": 1512,
      "university": 1513,
      "##ied": 1514,
      "theta": 1515,
      "polle": 1516,
      "typical": 1517,
      "difference": 1518,
      "solution": 1519,
      "related": 1520,
      "loops": 1521,
      "docs": 1522,
      "package": 1523,
      "during": 1524,
      "11": 1525,
      "fl": 1526,
      "##dep": 1527,
      "##men": 1528,
      "char": 1529,
      "setdep": 1530,
      "special": 1531,
      "setdepth": 1532,
      "ag": 1533,
      "##bs": 1534,
      "##ware": 1535,
      "gr": 1536,
      "##hip": 1537,
      "##iter": 1538,
      "student": 1539,
      "occ": 1540,
      "repe": 1541,
      "orig": 1542,
      "##ands": 1543,
      "exec": 1544,
      "dem": 1545,
      "fal": 1546,
      "inde": 1547,
      "##wn": 1548,
      "##flow": 1549,
      "they": 1550,
      "week": 1551,
      "hal": 1552,
      "##iency": 1553,
      "sequ": 1554,
      "cond": 1555,
      "design": 1556,
      "aut": 1557,
      "##ins": 1558,
      "##ening": 1559,
      "pass": 1560,
      "##count": 1561,
      "##up": 1562,
      "state": 1563,
      "cal": 1564,
      "track": 1565,
      "compare": 1566,
      "look": 1567,
      "narrow": 1568,
      "stop": 1569,
      "reason": 1570,
      "##asure": 1571,
      "show": 1572,
      "perfect": 1573,
      "mason": 1574,
      "another": 1575,
      "av": 1576,
      "ph": 1577,
      "##pendent": 1578,
      "langu": 1579,
      "original": 1580,
      "george": 1581,
      "independent": 1582,
      "cases": 1583,
      "free": 1584,
      "##ana": 1585,
      "once": 1586,
      "addition": 1587,
      "disconnected": 1588,
      "sorting": 1589,
      "based": 1590,
      "grows": 1591,
      "definitions": 1592,
      "fixed": 1593,
      "values": 1594,
      "shortest": 1595,
      "grades": 1596,
      "modifiers": 1597,
      "webp": 1598,
      "semester": 1599,
      "approximation": 1600,
      "clients": 1601,
      "scenario": 1602,
      "sequence": 1603,
      "27": 1604,
      "30": 1605,
      "##nested": 1606,
      "##11": 1607,
      "adestine": 1608,
      "staticnested": 1609,
      "undirected": 1610,
      "oldcapacity": 1611,
      "##ting": 1612,
      "inv": 1613,
      "sur": 1614,
      "##not": 1615,
      "##uction": 1616,
      "##ird": 1617,
      "che": 1618,
      "integ": 1619,
      "false": 1620,
      "direct": 1621,
      "pres": 1622,
      "##ivid": 1623,
      "inform": 1624,
      "red": 1625,
      "##led": 1626,
      "##fic": 1627,
      "##rec": 1628,
      "character": 1629,
      "##ond": 1630,
      "##alu": 1631,
      "conc": 1632,
      "deb": 1633,
      "found": 1634,
      "mode": 1635,
      "##ring": 1636,
      "##boo": 1637,
      "functions": 1638,
      "try": 1639,
      "sim": 1640,
      "##wise": 1641,
      "##cles": 1642,
      "ent": 1643,
      "say": 1644,
      "##ule": 1645,
      "##rees": 1646,
      "##ash": 1647,
      "##lc": 1648,
      "them": 1649,
      "##ether": 1650,
      "support": 1651,
      "think": 1652,
      "real": 1653,
      "evalu": 1654,
      "reach": 1655,
      "op": 1656,
      "own": 1657,
      "##ux": 1658,
      "trans": 1659,
      "objects": 1660,
      "overflow": 1661,
      "otherwise": 1662,
      "##track": 1663,
      "advant": 1664,
      "##fg": 1665,
      "three": 1666,
      "arch": 1667,
      "poly": 1668,
      "explan": 1669,
      "shrink": 1670,
      "empir": 1671,
      "##ts": 1672,
      "somet": 1673,
      "useful": 1674,
      "##pends": 1675,
      "representation": 1676,
      "backtrack": 1677,
      "office": 1678,
      "information": 1679,
      "##port": 1680,
      "##wh": 1681,
      "added": 1682,
      "complexities": 1683,
      "##moved": 1684,
      "needs": 1685,
      "topics": 1686,
      "working": 1687,
      "https": 1688,
      "represents": 1689,
      "approaches": 1690,
      "efficiently": 1691,
      "hashing": 1692,
      "cycles": 1693,
      "compiler": 1694,
      "conversions": 1695,
      "balanced": 1696,
      "faster": 1697,
      "participation": 1698,
      "introduction": 1699,
      "language": 1700,
      "sometimes": 1701,
      "000": 1702,
      "12": 1703,
      "50": 1704,
      "59": 1705,
      "gu": 1706,
      "gfg": 1707,
      "sm": 1708,
      "##ving": 1709,
      "##internal": 1710,
      "##capacityinternal": 1711,
      "dfsrec": 1712,
      "adjacency": 1713,
      "ensurecapacityinternal": 1714,
      "nummoved": 1715,
      "pollev": 1716,
      "ra": 1717,
      "##come": 1718,
      "##und": 1719,
      "reco": 1720,
      "##tes": 1721,
      "##ank": 1722,
      "prot": 1723,
      "wid": 1724,
      "##less": 1725,
      "##ley": 1726,
      "##ensive": 1727,
      "##ss": 1728,
      "##gn": 1729,
      "##llab": 1730,
      "poss": 1731,
      "##copy": 1732,
      "tut": 1733,
      "##ilar": 1734,
      "ame": 1735,
      "##ging": 1736,
      "##rop": 1737,
      "fa": 1738,
      "##ible": 1739,
      "bec": 1740,
      "anytype": 1741,
      "determ": 1742,
      "ben": 1743,
      "##ok": 1744,
      "arraycopy": 1745,
      "##ully": 1746,
      "catch": 1747,
      "sk": 1748,
      "cover": 1749,
      "##ili": 1750,
      "name": 1751,
      "##ove": 1752,
      "take": 1753,
      "descend": 1754,
      "integers": 1755,
      "because": 1756,
      "mot": 1757,
      "##her": 1758,
      "##ople": 1759,
      "##nom": 1760,
      "##ze": 1761,
      "now": 1762,
      "##anges": 1763,
      "##istic": 1764,
      "##ific": 1765,
      "cannot": 1766,
      "##imum": 1767,
      "amount": 1768,
      "similar": 1769,
      "##where": 1770,
      "russe": 1771,
      "##cul": 1772,
      "third": 1773,
      "wel": 1774,
      "exact": 1775,
      "require": 1776,
      "model": 1777,
      "h2": 1778,
      "our": 1779,
      "##uted": 1780,
      "##thod": 1781,
      "subclass": 1782,
      "people": 1783,
      "steps": 1784,
      "slides": 1785,
      "large": 1786,
      "textboo": 1787,
      "debug": 1788,
      "polynom": 1789,
      "tutorial": 1790,
      "russell": 1791,
      "polynomial": 1792,
      "g2": 1793,
      "g1": 1794,
      "unt": 1795,
      "##de": 1796,
      "##inc": 1797,
      "##aves": 1798,
      "doing": 1799,
      "expensive": 1800,
      "ordered": 1801,
      "above": 1802,
      "therefore": 1803,
      "looks": 1804,
      "defined": 1805,
      "represented": 1806,
      "efficiency": 1807,
      "initialization": 1808,
      "instructions": 1809,
      "readings": 1810,
      "students": 1811,
      "provides": 1812,
      "advanced": 1813,
      "declared": 1814,
      "understanding": 1815,
      "idea": 1816,
      "activities": 1817,
      "learning": 1818,
      "schedule": 1819,
      "narrowing": 1820,
      "empirical": 1821,
      "widening": 1822,
      "200": 1823,
      "kr": 1824,
      "fits": 1825,
      "struc": 1826,
      "printarray": 1827,
      "1000": 1828,
      "prevnode": 1829,
      "inputarray": 1830,
      "instanceof": 1831,
      "modcount": 1832,
      "factorial": 1833,
      "lifo": 1834,
      "amethod": 1835,
      "##ms": 1836,
      "##ives": 1837,
      "##ustr": 1838,
      "##obj": 1839,
      "cr": 1840,
      "perm": 1841,
      "##graph": 1842,
      "super": 1843,
      "##aven": 1844,
      "##clud": 1845,
      "tas": 1846,
      "##len": 1847,
      "ca": 1848,
      "gre": 1849,
      "ill": 1850,
      "##ering": 1851,
      "##tend": 1852,
      "##ified": 1853,
      "welcome": 1854,
      "##ism": 1855,
      "ant": 1856,
      "cub": 1857,
      "##ons": 1858,
      "soft": 1859,
      "fill": 1860,
      "##cest": 1861,
      "##for": 1862,
      "##meter": 1863,
      "ans": 1864,
      "construct": 1865,
      "mar": 1866,
      "talk": 1867,
      "##ted": 1868,
      "##ining": 1869,
      "##ited": 1870,
      "stream": 1871,
      "assoc": 1872,
      "brit": 1873,
      "calcul": 1874,
      "oh": 1875,
      "##min": 1876,
      "quad": 1877,
      "foc": 1878,
      "hard": 1879,
      "litt": 1880,
      "expect": 1881,
      "due": 1882,
      "##pa": 1883,
      "assu": 1884,
      "##pl": 1885,
      "##als": 1886,
      "seek": 1887,
      "maint": 1888,
      "eng": 1889,
      "place": 1890,
      "raven": 1891,
      "##ah": 1892,
      "ancest": 1893,
      "aren": 1894,
      "factor": 1895,
      "half": 1896,
      "archange": 1897,
      "focus": 1898,
      "maintain": 1899,
      "310": 1900,
      "aux": 1901,
      "destine": 1902,
      "ora": 1903,
      "##icron": 1904,
      "internal": 1905,
      "beh": 1906,
      "##iend": 1907,
      "diffic": 1908,
      "book": 1909,
      "##ordered": 1910,
      "relations": 1911,
      "happen": 1912,
      "##iterator": 1913,
      "little": 1914,
      "jo": 1915,
      "test": 1916,
      "##vey": 1917,
      "syllab": 1918,
      "compon": 1919,
      "tech": 1920,
      "rule": 1921,
      "property": 1922,
      "repeated": 1923,
      "auxili": 1924,
      "difficult": 1925,
      "relationship": 1926,
      "maps": 1927,
      "##stack": 1928,
      "##ets": 1929,
      "outside": 1930,
      "preorder": 1931,
      "units": 1932,
      "compile": 1933,
      "compared": 1934,
      "anything": 1935,
      "creating": 1936,
      "bounded": 1937,
      "parameter": 1938,
      "specified": 1939,
      "heaps": 1940,
      "starting": 1941,
      "instruction": 1942,
      "describe": 1943,
      "degree": 1944,
      "conversion": 1945,
      "contains": 1946,
      "considered": 1947,
      "limitations": 1948,
      "banana": 1949,
      "explanation": 1950,
      "streams": 1951,
      "associated": 1952,
      "british": 1953,
      "oracle": 1954,
      "syllabus": 1955,
      "auxiliary": 1956,
      "15": 1957,
      "32": 1958,
      "##ison": 1959,
      "##ift": 1960,
      "javase": 1961,
      "sometype": 1962,
      "unordered": 1963,
      "method2": 1964,
      "##ards": 1965,
      "myiterator": 1966,
      "subtree": 1967,
      "##usselc": 1968,
      "krusselc": 1969,
      "om": 1970,
      "##king": 1971,
      "##ential": 1972,
      "far": 1973,
      "##aring": 1974,
      "##ience": 1975,
      "##pm": 1976,
      "##fully": 1977,
      "##gener": 1978,
      "ds": 1979,
      "fall": 1980,
      "la": 1981,
      "walk": 1982,
      "em": 1983,
      "mater": 1984,
      "##cious": 1985,
      "##ties": 1986,
      "clos": 1987,
      "numb": 1988,
      "write": 1989,
      "illustr": 1990,
      "fil": 1991,
      "vers": 1992,
      "##ee": 1993,
      "net": 1994,
      "##ational": 1995,
      "maybe": 1996,
      "##ined": 1997,
      "princ": 1998,
      "sever": 1999,
      "indic": 2000,
      "ple": 2001,
      "##acks": 2002,
      "dr": 2003,
      "drop": 2004,
      "ve": 2005,
      "##word": 2006,
      "##nto": 2007,
      "##adem": 2008,
      "self": 2009,
      "##cope": 2010,
      "vari": 2011,
      "content": 2012,
      "motiv": 2013,
      "##generic": 2014,
      "material": 2015,
      "full": 2016,
      "inher": 2017,
      "uncheck": 2018,
      "##eks": 2019,
      "assist": 2020,
      "degener": 2021,
      "academ": 2022,
      "optional": 2023,
      "demo": 2024,
      "unchecked": 2025,
      "bra": 2026,
      "hint": 2027,
      "question": 2028,
      "condition": 2029,
      "survey": 2030,
      "might": 2031,
      "sign": 2032,
      "##vis": 2033,
      "##oup": 2034,
      "##vent": 2035,
      "conver": 2036,
      "expans": 2037,
      "blank": 2038,
      "dist": 2039,
      "sib": 2040,
      "##ged": 2041,
      "##wor": 2042,
      "includ": 2043,
      "forward": 2044,
      "except": 2045,
      "##ading": 2046,
      "sin": 2047,
      "##cing": 2048,
      "##ection": 2049,
      "conscious": 2050,
      "inherit": 2051,
      "ci": 2052,
      "##ton": 2053,
      "##math": 2054,
      "isn": 2055,
      "lines": 2056,
      "along": 2057,
      "shift": 2058,
      "specify": 2059,
      "doesn": 2060,
      "probabil": 2061,
      "simplify": 2062,
      "cubic": 2063,
      "##iendly": 2064,
      "onto": 2065,
      "pers": 2066,
      "##ament": 2067,
      "##arithm": 2068,
      "been": 2069,
      "depends": 2070,
      "adds": 2071,
      "weiss": 2072,
      "links": 2073,
      "changes": 2074,
      "notations": 2075,
      "##ays": 2076,
      "prints": 2077,
      "leaves": 2078,
      "gets": 2079,
      "pointers": 2080,
      "enough": 2081,
      "analyze": 2082,
      "bytes": 2083,
      "overview": 2084,
      "created": 2085,
      "calls": 2086,
      "storing": 2087,
      "equality": 2088,
      "solve": 2089,
      "logarithm": 2090,
      "removed": 2091,
      "application": 2092,
      "copying": 2093,
      "larger": 2094,
      "allocate": 2095,
      "##ological": 2096,
      "allows": 2097,
      "properties": 2098,
      "activity": 2099,
      "assignment": 2100,
      "executed": 2101,
      "statements": 2102,
      "reasonable": 2103,
      "software": 2104,
      "assume": 2105,
      "components": 2106,
      "repeatedly": 2107,
      "principle": 2108,
      "several": 2109,
      "degenerate": 2110,
      "academic": 2111,
      "inheritance": 2112,
      "probabilistic": 2113,
      "03": 2114,
      "22": 2115,
      "3n": 2116,
      "37": 2117,
      "blo": 2118,
      "tation": 2119,
      "𝑛𝑛": 2120,
      "inorder": 2121,
      "##velo": 2122,
      "##ided": 2123,
      "javac": 2124,
      "printmath": 2125,
      "implemen": 2126,
      "mystack": 2127,
      "cs2": 2128,
      "postorder": 2129,
      "omicron": 2130,
      "printmathtree": 2131,
      "pick": 2132,
      "small": 2133,
      "dra": 2134,
      "ll": 2135,
      "sum": 2136,
      "##tern": 2137,
      "care": 2138,
      "##land": 2139,
      "##pect": 2140,
      "##erv": 2141,
      "stand": 2142,
      "wa": 2143,
      "att": 2144,
      "bre": 2145,
      "fund": 2146,
      "##edi": 2147,
      "impro": 2148,
      "command": 2149,
      "hunt": 2150,
      "bene": 2151,
      "ok": 2152,
      "supp": 2153,
      "sure": 2154,
      "##add": 2155,
      "##ipul": 2156,
      "##ibly": 2157,
      "ident": 2158,
      "cle": 2159,
      "synt": 2160,
      "subm": 2161,
      "obs": 2162,
      "##sh": 2163,
      "reg": 2164,
      "develo": 2165,
      "##most": 2166,
      "cf": 2167,
      "##ww": 2168,
      "##mpt": 2169,
      "exam": 2170,
      "numbers": 2171,
      "##work": 2172,
      "nat": 2173,
      "slow": 2174,
      "##element": 2175,
      "##oper": 2176,
      "##str": 2177,
      "##arly": 2178,
      "##ationexception": 2179,
      "##apt": 2180,
      "##uled": 2181,
      "overr": 2182,
      "general": 2183,
      "tell": 2184,
      "termin": 2185,
      "better": 2186,
      "group": 2187,
      "##lex": 2188,
      "individ": 2189,
      "manipul": 2190,
      "everything": 2191,
      "interview": 2192,
      "##vant": 2193,
      "##ber": 2194,
      "exist": 2195,
      "tag": 2196,
      "##inders": 2197,
      "define": 2198,
      "explain": 2199,
      "build": 2200,
      "individual": 2201,
      "could": 2202,
      "har": 2203,
      "##ood": 2204,
      "##ratic": 2205,
      "##ulation": 2206,
      "avoid": 2207,
      "fundament": 2208,
      "##ni": 2209,
      "##hes": 2210,
      "##gle": 2211,
      "enc": 2212,
      "unf": 2213,
      "via": 2214,
      "##name": 2215,
      "tog": 2216,
      "reus": 2217,
      "expon": 2218,
      "##imin": 2219,
      "programmer": 2220,
      "##after": 2221,
      "projects": 2222,
      "discussed": 2223,
      "please": 2224,
      "since": 2225,
      "bar": 2226,
      "hc": 2227,
      "hon": 2228,
      "hier": 2229,
      "turn": 2230,
      "times": 2231,
      "www": 2232,
      "##iting": 2233,
      "##ints": 2234,
      "assum": 2235,
      "##metic": 2236,
      "measure": 2237,
      "increment": 2238,
      "improve": 2239,
      "hierarch": 2240,
      "##ats": 2241,
      "comb": 2242,
      "socr": 2243,
      "underf": 2244,
      "backward": 2245,
      "keyword": 2246,
      "option": 2247,
      "huge": 2248,
      "exponential": 2249,
      "2h": 2250,
      "fre": 2251,
      "lacks": 2252,
      "##ven": 2253,
      "##ued": 2254,
      "ref": 2255,
      "arith": 2256,
      "treasure": 2257,
      "conn": 2258,
      "implementations": 2259,
      "tracing": 2260,
      "##pped": 2261,
      "making": 2262,
      "##cks": 2263,
      "refers": 2264,
      "upside": 2265,
      "anywhere": 2266,
      "priorities": 2267,
      "consists": 2268,
      "recap": 2269,
      "follows": 2270,
      "science": 2271,
      "api": 2272,
      "maximum": 2273,
      "ways": 2274,
      "initially": 2275,
      "results": 2276,
      "completely": 2277,
      "declare": 2278,
      "friendly": 2279,
      "allocating": 2280,
      "probing": 2281,
      "allowed": 2282,
      "swap": 2283,
      "lots": 2284,
      "increases": 2285,
      "helpful": 2286,
      "processing": 2287,
      "reminders": 2288,
      "occurs": 2289,
      "freeing": 2290,
      "reachable": 2291,
      "advantages": 2292,
      "raise": 2293,
      "possibly": 2294,
      "debugging": 2295,
      "until": 2296,
      "quadratic": 2297,
      "version": 2298,
      "assistance": 2299,
      "logarithmic": 2300,
      "carefully": 2301,
      "benefits": 2302,
      "together": 2303,
      "socrates": 2304,
      "arithmetic": 2305,
      "13": 2306,
      "25": 2307,
      "300": 2308,
      "45": 2309,
      "55": 2310,
      "67": 2311,
      "es": 2312,
      "l0": 2313,
      "##ffer": 2314,
      "##struct": 2315,
      "classname": 2316,
      "deque": 2317,
      "printf": 2318,
      "2n2": 2319,
      "gradescope": 2320,
      "cs211": 2321,
      "reusability": 2322,
      "underflow": 2323,
      "##ax": 2324,
      "##umb": 2325,
      "##ute": 2326,
      "ob": 2327,
      "pat": 2328,
      "##ole": 2329,
      "##mend": 2330,
      "##aces": 2331,
      "itr": 2332,
      "##ten": 2333,
      "##ument": 2334,
      "##hs": 2335,
      "rob": 2336,
      "imm": 2337,
      "sn": 2338,
      "##ys": 2339,
      "##ites": 2340,
      "##itch": 2341,
      "##ade": 2342,
      "##ertain": 2343,
      "##ols": 2344,
      "lib": 2345,
      "##ura": 2346,
      "##wer": 2347,
      "##ored": 2348,
      "even": 2349,
      "goo": 2350,
      "hum": 2351,
      "ign": 2352,
      "##utions": 2353,
      "pros": 2354,
      "cho": 2355,
      "##ators": 2356,
      "##aining": 2357,
      "##ances": 2358,
      "unsu": 2359,
      "je": 2360,
      "rand": 2361,
      "##get": 2362,
      "##oun": 2363,
      "##mmend": 2364,
      "##ann": 2365,
      "prof": 2366,
      "dec": 2367,
      "recommend": 2368,
      "suppress": 2369,
      "##ale": 2370,
      "##by": 2371,
      "##head": 2372,
      "##cent": 2373,
      "##self": 2374,
      "ali": 2375,
      "contro": 2376,
      "separ": 2377,
      "autom": 2378,
      "##to": 2379,
      "##ores": 2380,
      "##lect": 2381,
      "##rar": 2382,
      "dead": 2383,
      "prefer": 2384,
      "unl": 2385,
      "multip": 2386,
      "##pported": 2387,
      "unsupported": 2388,
      "less": 2389,
      "##ntial": 2390,
      "##ality": 2391,
      "##ari": 2392,
      "##ane": 2393,
      "##ately": 2394,
      "account": 2395,
      "life": 2396,
      "present": 2397,
      "##operationexception": 2398,
      "unsupportedoperationexception": 2399,
      "sal": 2400,
      "##ever": 2401,
      "##og": 2402,
      "##aw": 2403,
      "##ules": 2404,
      "##atically": 2405,
      "c1": 2406,
      "fif": 2407,
      "##ots": 2408,
      "nos": 2409,
      "##anged": 2410,
      "pur": 2411,
      "vi": 2412,
      "##oint": 2413,
      "##mark": 2414,
      "though": 2415,
      "elimin": 2416,
      "frid": 2417,
      "open": 2418,
      "bro": 2419,
      "hy": 2420,
      "##last": 2421,
      "##stream": 2422,
      "neg": 2423,
      "ann": 2424,
      "canv": 2425,
      "enab": 2426,
      "books": 2427,
      "formal": 2428,
      "##ologies": 2429,
      "feat": 2430,
      "honor": 2431,
      "random": 2432,
      "unlike": 2433,
      "c2": 2434,
      "icon": 2435,
      "pow": 2436,
      "wes": 2437,
      "##ced": 2438,
      "##vious": 2439,
      "##ford": 2440,
      "itself": 2441,
      "##entry": 2442,
      "choo": 2443,
      "complement": 2444,
      "atte": 2445,
      "##ilde": 2446,
      "instant": 2447,
      "##term": 2448,
      "constra": 2449,
      "effort": 2450,
      "##play": 2451,
      "clear": 2452,
      "##eds": 2453,
      "extern": 2454,
      "##advant": 2455,
      "##imeter": 2456,
      "tables": 2457,
      "disadvant": 2458,
      "request": 2459,
      "info": 2460,
      "##uchelement": 2461,
      "particular": 2462,
      "execution": 2463,
      "redirect": 2464,
      "encaps": 2465,
      "nosuchelement": 2466,
      "nosuchelementexception": 2467,
      "2k": 2468,
      "cout": 2469,
      "divid": 2470,
      "oop": 2471,
      "yet": 2472,
      "##ov": 2473,
      "##nes": 2474,
      "##pre": 2475,
      "##erning": 2476,
      "##atio": 2477,
      "##ivity": 2478,
      "objection": 2479,
      "various": 2480,
      "parenthes": 2481,
      "##ission": 2482,
      "matter": 2483,
      "again": 2484,
      "cheat": 2485,
      "advantage": 2486,
      "techni": 2487,
      "files": 2488,
      "expansion": 2489,
      "identify": 2490,
      "##ffered": 2491,
      "google": 2492,
      "friday": 2493,
      "external": 2494,
      "jd": 2495,
      "kh": 2496,
      "late": 2497,
      "rules": 2498,
      "##yle": 2499,
      "##ines": 2500,
      "often": 2501,
      "nearly": 2502,
      "covers": 2503,
      "whether": 2504,
      "alread": 2505,
      "changed": 2506,
      "notes": 2507,
      "algorithmic": 2508,
      "printing": 2509,
      "within": 2510,
      "inserted": 2511,
      "referring": 2512,
      "topological": 2513,
      "sources": 2514,
      "generally": 2515,
      "inputs": 2516,
      "pushing": 2517,
      "parents": 2518,
      "midterm": 2519,
      "coming": 2520,
      "finding": 2521,
      "computational": 2522,
      "logical": 2523,
      "taken": 2524,
      "checking": 2525,
      "instructor": 2526,
      "instructors": 2527,
      "reading": 2528,
      "deleting": 2529,
      "forming": 2530,
      "formally": 2531,
      "provided": 2532,
      "grade": 2533,
      "update": 2534,
      "degrees": 2535,
      "predictions": 2536,
      "cycle": 2537,
      "discussion": 2538,
      "correctness": 2539,
      "compiling": 2540,
      "increase": 2541,
      "modifier": 2542,
      "simpler": 2543,
      "happens": 2544,
      "directions": 2545,
      "concerning": 2546,
      "evaluate": 2547,
      "evaluating": 2548,
      "##porter": 2549,
      "protected": 2550,
      "descendants": 2551,
      "requirement": 2552,
      "subclasses": 2553,
      "textbook": 2554,
      "textbooks": 2555,
      "constructor": 2556,
      "calculate": 2557,
      "hardware": 2558,
      "ancestor": 2559,
      "illustration": 2560,
      "motivating": 2561,
      "signed": 2562,
      "exceptions": 2563,
      "standards": 2564,
      "slower": 2565,
      "overruled": 2566,
      "automatically": 2567,
      "accounting": 2568,
      "eliminates": 2569,
      "canvas": 2570,
      "constraints": 2571,
      "encapsulation": 2572,
      "dividing": 2573,
      "parentheses": 2574,
      "already": 2575,
      "01": 2576,
      "14": 2577,
      "21": 2578,
      "42": 2579,
      "78": 2580,
      "87": 2581,
      "tilde": 2582,
      "##ef": 2583,
      "##ric": 2584,
      "##war": 2585,
      "##24": 2586,
      "##29": 2587,
      "##44": 2588,
      "##70": 2589,
      "##input": 2590,
      "##asri": 2591,
      "nodeins": 2592,
      "newdata": 2593,
      "newentry": 2594,
      "##exporter": 2595,
      "linkedlist": 2596,
      "operands": 2597,
      "getexporter": 2598,
      "item2": 2599,
      "item1": 2600,
      "item3": 2601,
      "insertlast": 2602,
      "method1": 2603,
      "method3": 2604,
      "logn": 2605,
      "rangecheckfor": 2606,
      "addedge": 2607,
      "getsize": 2608,
      "fifo": 2609,
      "jdk": 2610,
      "##inputstream": 2611,
      "nodeinsert": 2612,
      "rangecheckforadd": 2613,
      "met": 2614,
      "art": 2615,
      "##ility": 2616,
      "conf": 2617,
      "dest": 2618,
      "fra": 2619,
      "mer": 2620,
      "na": 2621,
      "##ds": 2622,
      "##ler": 2623,
      "##ha": 2624,
      "##ott": 2625,
      "person": 2626,
      "ir": 2627,
      "##ell": 2628,
      "##ians": 2629,
      "##ming": 2630,
      "##orn": 2631,
      "##isk": 2632,
      "##izes": 2633,
      "gl": 2634,
      "norm": 2635,
      "##ager": 2636,
      "##ily": 2637,
      "cop": 2638,
      "##pers": 2639,
      "repl": 2640,
      "##ls": 2641,
      "##bur": 2642,
      "##itable": 2643,
      "##aster": 2644,
      "convert": 2645,
      "scr": 2646,
      "##ault": 2647,
      "##uck": 2648,
      "extend": 2649,
      "env": 2650,
      "##nings": 2651,
      "profess": 2652,
      "day": 2653,
      "view": 2654,
      "##yc": 2655,
      "##box": 2656,
      "fred": 2657,
      "##ification": 2658,
      "mon": 2659,
      "rest": 2660,
      "round": 2661,
      "wed": 2662,
      "##hing": 2663,
      "##rad": 2664,
      "reh": 2665,
      "rele": 2666,
      "##ache": 2667,
      "##ather": 2668,
      "##ords": 2669,
      "alex": 2670,
      "bit": 2671,
      "fit": 2672,
      "foo": 2673,
      "sit": 2674,
      "tight": 2675,
      "##rib": 2676,
      "##ital": 2677,
      "inc": 2678,
      "iss": 2679,
      "polic": 2680,
      "del": 2681,
      "##usted": 2682,
      "viol": 2683,
      "dup": 2684,
      "##uous": 2685,
      "##reg": 2686,
      "ste": 2687,
      "##licit": 2688,
      "##ively": 2689,
      "play": 2690,
      "draw": 2691,
      "natur": 2692,
      "di": 2693,
      "lab": 2694,
      "##gb": 2695,
      "##oring": 2696,
      "##ionally": 2697,
      "##igning": 2698,
      "##iron": 2699,
      "##ipt": 2700,
      "display": 2701,
      "consum": 2702,
      "goal": 2703,
      "##ancing": 2704,
      "observ": 2705,
      "bub": 2706,
      "cra": 2707,
      "four": 2708,
      "tall": 2709,
      "win": 2710,
      "##erve": 2711,
      "offs": 2712,
      "arran": 2713,
      "proport": 2714,
      "##aged": 2715,
      "##uced": 2716,
      "board": 2717,
      "develop": 2718,
      "connect": 2719,
      "sr": 2720,
      "##ying": 2721,
      "still": 2722,
      "exc": 2723,
      "##pec": 2724,
      "organ": 2725,
      "invol": 2726,
      "engine": 2727,
      "recommended": 2728,
      "environ": 2729,
      "gain": 2730,
      "mis": 2731,
      "##ara": 2732,
      "##lings": 2733,
      "##child": 2734,
      "bey": 2735,
      "##ired": 2736,
      "overlo": 2737,
      "consist": 2738,
      "meas": 2739,
      "tempor": 2740,
      "infin": 2741,
      "home": 2742,
      "document": 2743,
      "concur": 2744,
      "##pective": 2745,
      "##urable": 2746,
      "suppresswar": 2747,
      "normal": 2748,
      "environment": 2749,
      "suppresswarnings": 2750,
      "aff": 2751,
      "fran": 2752,
      "tok": 2753,
      "##ised": 2754,
      "sept": 2755,
      "##iform": 2756,
      "##uling": 2757,
      "page": 2758,
      "uniform": 2759,
      "compar": 2760,
      "recover": 2761,
      "situ": 2762,
      "duplic": 2763,
      "den": 2764,
      "gc": 2765,
      "mc": 2766,
      "##old": 2767,
      "style": 2768,
      "##ouse": 2769,
      "##ching": 2770,
      "##chas": 2771,
      "poor": 2772,
      "seque": 2773,
      "##ortun": 2774,
      "change": 2775,
      "##uses": 2776,
      "##ills": 2777,
      "quite": 2778,
      "default": 2779,
      "declar": 2780,
      "additional": 2781,
      "great": 2782,
      "##parent": 2783,
      "email": 2784,
      "fundamental": 2785,
      "temporary": 2786,
      "mal": 2787,
      "sav": 2788,
      "##code": 2789,
      "##ma": 2790,
      "##pos": 2791,
      "whole": 2792,
      "##izz": 2793,
      "nothing": 2794,
      "resp": 2795,
      "##000": 2796,
      "manner": 2797,
      "manager": 2798,
      "learn": 2799,
      "entire": 2800,
      "network": 2801,
      "##ediate": 2802,
      "##nesd": 2803,
      "##efined": 2804,
      "wednesd": 2805,
      "cause": 2806,
      "certain": 2807,
      "dig": 2808,
      "pen": 2809,
      "ser": 2810,
      "##ham": 2811,
      "##ered": 2812,
      "##ety": 2813,
      "allen": 2814,
      "area": 2815,
      "domin": 2816,
      "someone": 2817,
      "trade": 2818,
      "explicit": 2819,
      "##pping": 2820,
      "##quency": 2821,
      "anyone": 2822,
      "overhead": 2823,
      "growth": 2824,
      "minimum": 2825,
      "everyone": 2826,
      "practical": 2827,
      "handle": 2828,
      "exceptional": 2829,
      "repeat": 2830,
      "unfortun": 2831,
      "negative": 2832,
      "proportional": 2833,
      "##children": 2834,
      "concurrent": 2835,
      "sequential": 2836,
      "ai": 2837,
      "able": 2838,
      "away": 2839,
      "cache": 2840,
      "directed": 2841,
      "m2": 2842,
      "mor": 2843,
      "o2": 2844,
      "opp": 2845,
      "par": 2846,
      "##son": 2847,
      "##tle": 2848,
      "##ka": 2849,
      "thus": 2850,
      "stands": 2851,
      "tools": 2852,
      "prove": 2853,
      "popped": 2854,
      "seen": 2855,
      "chaining": 2856,
      "usage": 2857,
      "returned": 2858,
      "##ivial": 2859,
      "operating": 2860,
      "pages": 2861,
      "syn": 2862,
      "expected": 2863,
      "least": 2864,
      "leading": 2865,
      "searches": 2866,
      "sharing": 2867,
      "worse": 2868,
      "pointing": 2869,
      "systems": 2870,
      "unless": 2871,
      "referred": 2872,
      "however": 2873,
      "suitable": 2874,
      "traversed": 2875,
      "traversing": 2876,
      "moving": 2877,
      "performed": 2878,
      "twice": 2879,
      "contents": 2880,
      "programs": 2881,
      "records": 2882,
      "runs": 2883,
      "programmers": 2884,
      "parts": 2885,
      "stores": 2886,
      "defines": 2887,
      "importance": 2888,
      "images": 2889,
      "circle": 2890,
      "doubles": 2891,
      "locate": 2892,
      "plates": 2893,
      "computing": 2894,
      "computers": 2895,
      "mainly": 2896,
      "solving": 2897,
      "solutions": 2898,
      "starts": 2899,
      "addressing": 2900,
      "conceptually": 2901,
      "slide": 2902,
      "collections": 2903,
      "proving": 2904,
      "provide": 2905,
      "explores": 2906,
      "grading": 2907,
      "geeks": 2908,
      "allocated": 2909,
      "probability": 2910,
      "considering": 2911,
      "perimeter": 2912,
      "seconds": 2913,
      "balancing": 2914,
      "buffered": 2915,
      "limited": 2916,
      "participate": 2917,
      "introduced": 2918,
      "expanding": 2919,
      "assignments": 2920,
      "scheduling": 2921,
      "said": 2922,
      "cheating": 2923,
      "directly": 2924,
      "determine": 2925,
      "determining": 2926,
      "covered": 2927,
      "descendant": 2928,
      "exactly": 2929,
      "requirements": 2930,
      "ancestors": 2931,
      "tests": 2932,
      "closest": 2933,
      "variants": 2934,
      "sibling": 2935,
      "siblings": 2936,
      "blocks": 2937,
      "syntax": 2938,
      "manipulating": 2939,
      "assuming": 2940,
      "hierarchy": 2941,
      "combining": 2942,
      "frequency": 2943,
      "aliases": 2944,
      "control": 2945,
      "separate": 2946,
      "deadline": 2947,
      "preferred": 2948,
      "enables": 2949,
      "features": 2950,
      "choose": 2951,
      "issues": 2952,
      "violates": 2953,
      "naturally": 2954,
      "src": 2955,
      "beyond": 2956,
      "measurable": 2957,
      "tokens": 2958,
      "comparison": 2959,
      "declaration": 2960,
      "##parents": 2961,
      "unfortunately": 2962,
      "02": 2963,
      "18": 2964,
      "16": 2965,
      "23": 2966,
      "211": 2967,
      "48": 2968,
      "43": 2969,
      "5n": 2970,
      "65": 2971,
      "64": 2972,
      "80": 2973,
      "brow": 2974,
      "o1": 2975,
      "o3": 2976,
      "opends": 2977,
      "squ": 2978,
      "##nodes": 2979,
      "##trees": 2980,
      "##forge": 2981,
      "##28": 2982,
      "##23": 2983,
      "##15": 2984,
      "##67": 2985,
      "##nds": 2986,
      "##inger": 2987,
      "inobj": 2988,
      "intvalue": 2989,
      "node2": 2990,
      "node1": 2991,
      "datastruct": 2992,
      "##adoc": 2993,
      "bel": 2994,
      "outobj": 2995,
      "indexof": 2996,
      "javadoc": 2997,
      "printparents": 2998,
      "implementatio": 2999,
      "getclass": 3000,
      "sha": 3001,
      "dynamicarray": 3002,
      "10b": 3003,
      "10gb": 3004,
      "arraylists": 3005,
      "topmost": 3006,
      "acco": 3007,
      "##index": 3008,
      "initialize": 3009,
      "intobj": 3010,
      "##logn": 3011,
      "copyof": 3012,
      "adts": 3013,
      "##ology": 3014,
      "acyc": 3015,
      "engr": 3016,
      "terminologies": 3017,
      "hugecapacity": 3018,
      "450": 3019,
      "dequeued": 3020,
      "instantiated": 3021,
      "rehash": 3022,
      "geeksforge": 3023,
      "opendsa": 3024,
      "acyclic": 3025,
      "geeksforgeeks": 3026,
      "bur": 3027,
      "port": 3028,
      "tar": 3029,
      "##ina": 3030,
      "##rap": 3031,
      "##aries": 3032,
      "##ased": 3033,
      "##comp": 3034,
      "her": 3035,
      "nav": 3036,
      "##ock": 3037,
      "##sel": 3038,
      "##ulate": 3039,
      "##ames": 3040,
      "##osed": 3041,
      "##ished": 3042,
      "##aging": 3043,
      "break": 3044,
      "don": 3045,
      "gar": 3046,
      "##aced": 3047,
      "##istr": 3048,
      "##otic": 3049,
      "poll": 3050,
      "##cont": 3051,
      "cent": 3052,
      "hos": 3053,
      "##even": 3054,
      "##time": 3055,
      "##ium": 3056,
      "##pr": 3057,
      "##gest": 3058,
      "exper": 3059,
      "prod": 3060,
      "##iable": 3061,
      "unre": 3062,
      "succ": 3063,
      "comment": 3064,
      "comments": 3065,
      "est": 3066,
      "##ump": 3067,
      "##greg": 3068,
      "##ision": 3069,
      "col": 3070,
      "##ille": 3071,
      "leg": 3072,
      "unw": 3073,
      "##ibility": 3074,
      "contin": 3075,
      "plan": 3076,
      "##els": 3077,
      "demon": 3078,
      "cred": 3079,
      "fin": 3080,
      "ment": 3081,
      "##sy": 3082,
      "##uments": 3083,
      "##he": 3084,
      "##atter": 3085,
      "secre": 3086,
      "##ably": 3087,
      "subst": 3088,
      "##ordin": 3089,
      "##apping": 3090,
      "counteven": 3091,
      "aug": 3092,
      "dict": 3093,
      "os": 3094,
      "row": 3095,
      "sne": 3096,
      "##hor": 3097,
      "##ster": 3098,
      "##izing": 3099,
      "##orted": 3100,
      "road": 3101,
      "jul": 3102,
      "##az": 3103,
      "##bound": 3104,
      "##use": 3105,
      "##gy": 3106,
      "##iny": 3107,
      "##inks": 3108,
      "##itution": 3109,
      "stra": 3110,
      "tost": 3111,
      "admin": 3112,
      "dev": 3113,
      "notice": 3114,
      "##aby": 3115,
      "##arks": 3116,
      "bank": 3117,
      "occur": 3118,
      "##force": 3119,
      "human": 3120,
      "bott": 3121,
      "mus": 3122,
      "ye": 3123,
      "##equ": 3124,
      "##ograph": 3125,
      "##na": 3126,
      "##hib": 3127,
      "##att": 3128,
      "##orate": 3129,
      "offer": 3130,
      "##orth": 3131,
      "shut": 3132,
      "##ques": 3133,
      "##osition": 3134,
      "behav": 3135,
      "cro": 3136,
      "cate": 3137,
      "din": 3138,
      "oct": 3139,
      "pc": 3140,
      "rout": 3141,
      "won": 3142,
      "##den": 3143,
      "##la": 3144,
      "##gment": 3145,
      "revis": 3146,
      "attend": 3147,
      "##lds": 3148,
      "##asted": 3149,
      "##quis": 3150,
      "grand": 3151,
      "##arded": 3152,
      "equiv": 3153,
      "arguments": 3154,
      "hosp": 3155,
      "kind": 3156,
      "##ser": 3157,
      "##uro": 3158,
      "##ps": 3159,
      "##icip": 3160,
      "##ody": 3161,
      "subs": 3162,
      "hope": 3163,
      "##ounce": 3164,
      "success": 3165,
      "demonstr": 3166,
      "base": 3167,
      "nan": 3168,
      "##do": 3169,
      "##wood": 3170,
      "##icle": 3171,
      "stan": 3172,
      "##ference": 3173,
      "##actic": 3174,
      "swim": 3175,
      "power": 3176,
      "navig": 3177,
      "categor": 3178,
      "air": 3179,
      "emb": 3180,
      "event": 3181,
      "sect": 3182,
      "tent": 3183,
      "##over": 3184,
      "##ru": 3185,
      "##pose": 3186,
      "##ero": 3187,
      "##ery": 3188,
      "##ination": 3189,
      "revers": 3190,
      "intro": 3191,
      "coordin": 3192,
      "word": 3193,
      "speed": 3194,
      "subject": 3195,
      "representing": 3196,
      "detect": 3197,
      "wrong": 3198,
      "administr": 3199,
      "cn": 3200,
      "cap": 3201,
      "fac": 3202,
      "pd": 3203,
      "##earch": 3204,
      "##cast": 3205,
      "##br": 3206,
      "##unt": 3207,
      "##ured": 3208,
      "##lled": 3209,
      "##exp": 3210,
      "ask": 3211,
      "ascend": 3212,
      "##ung": 3213,
      "world": 3214,
      "research": 3215,
      "accord": 3216,
      "diff": 3217,
      "effect": 3218,
      "program2": 3219,
      "simp": 3220,
      "##aky": 3221,
      "hood": 3222,
      "aggreg": 3223,
      "auto": 3224,
      "compareto": 3225,
      "##ledge": 3226,
      "camp": 3227,
      "wait": 3228,
      "accompl": 3229,
      "behavior": 3230,
      "hospital": 3231,
      "bran": 3232,
      "got": 3233,
      "mil": 3234,
      "wrap": 3235,
      "##ca": 3236,
      "##uff": 3237,
      "proce": 3238,
      "alg": 3239,
      "##essage": 3240,
      "lever": 3241,
      "##cock": 3242,
      "##irection": 3243,
      "load": 3244,
      "descript": 3245,
      "##ifying": 3246,
      "switch": 3247,
      "occas": 3248,
      "transfer": 3249,
      "anticip": 3250,
      "scratch": 3251,
      "accomplish": 3252,
      "finger": 3253,
      "glo": 3254,
      "made": 3255,
      "rad": 3256,
      "ram": 3257,
      "sink": 3258,
      "vir": 3259,
      "##ries": 3260,
      "##rix": 3261,
      "##mer": 3262,
      "##med": 3263,
      "thumb": 3264,
      "##itivity": 3265,
      "##rary": 3266,
      "states": 3267,
      "##ene": 3268,
      "arian": 3269,
      "strong": 3270,
      "almost": 3271,
      "##lication": 3272,
      "##ulty": 3273,
      "##user": 3274,
      "##imize": 3275,
      "encount": 3276,
      "analyz": 3277,
      "bestgeneric": 3278,
      "##itting": 3279,
      "regular": 3280,
      "patient": 3281,
      "jeff": 3282,
      "purpose": 3283,
      "fragment": 3284,
      "##radic": 3285,
      "overloading": 3286,
      "target": 3287,
      "bottom": 3288,
      "map": 3289,
      "oth": 3290,
      "pay": 3291,
      "smo": 3292,
      "##dis": 3293,
      "##lish": 3294,
      "##uitive": 3295,
      "##go": 3296,
      "##field": 3297,
      "rein": 3298,
      "newly": 3299,
      "##interface": 3300,
      "close": 3301,
      "proced": 3302,
      "soon": 3303,
      "iterate": 3304,
      "goals": 3305,
      "conceptual": 3306,
      "format": 3307,
      "avail": 3308,
      "phone": 3309,
      "skip": 3310,
      "##ificant": 3311,
      "join": 3312,
      "announce": 3313,
      "attemp": 3314,
      "digit": 3315,
      "##selves": 3316,
      "credit": 3317,
      "mention": 3318,
      "ce": 3319,
      "cut": 3320,
      "der": 3321,
      "done": 3322,
      "dimit": 3323,
      "names": 3324,
      "rate": 3325,
      "sor": 3326,
      "sam": 3327,
      "section": 3328,
      "wm": 3329,
      "##ecess": 3330,
      "##ira": 3331,
      "##iation": 3332,
      "##ios": 3333,
      "##erpt": 3334,
      "##let": 3335,
      "intuitive": 3336,
      "##isc": 3337,
      "##utations": 3338,
      "##llars": 3339,
      "prere": 3340,
      "##sec": 3341,
      "profic": 3342,
      "ones": 3343,
      "user": 3344,
      "operator": 3345,
      "insign": 3346,
      "unexp": 3347,
      "compact": 3348,
      "composition": 3349,
      "undo": 3350,
      "commun": 3351,
      "relative": 3352,
      "predecess": 3353,
      "knowledge": 3354,
      "flight": 3355,
      "faction": 3356,
      "untr": 3357,
      "answ": 3358,
      "bookmark": 3359,
      "laid": 3360,
      "obvious": 3361,
      "robin": 3362,
      "librar": 3363,
      "wesley": 3364,
      "policy": 3365,
      "playlist": 3366,
      "bubble": 3367,
      "fourth": 3368,
      "excerpt": 3369,
      "consistent": 3370,
      "shape": 3371,
      "product": 3372,
      "nanot": 3373,
      "tentative": 3374,
      "administrative": 3375,
      "according": 3376,
      "prerequis": 3377,
      "unexpected": 3378,
      "1c": 3379,
      "1s": 3380,
      "4th": 3381,
      "5th": 3382,
      "aka": 3383,
      "cats": 3384,
      "dlc": 3385,
      "ep": 3386,
      "elect": 3387,
      "gpa": 3388,
      "io": 3389,
      "iee": 3390,
      "med": 3391,
      "nk": 3392,
      "n1": 3393,
      "none": 3394,
      "pet": 3395,
      "ranges": 3396,
      "rhs": 3397,
      "rather": 3398,
      "tern": 3399,
      "tiny": 3400,
      "v2": 3401,
      "v1": 3402,
      "wider": 3403,
      "wasted": 3404,
      "##ave": 3405,
      "##gr": 3406,
      "##leaf": 3407,
      "too": 3408,
      "took": 3409,
      "around": 3410,
      "listed": 3411,
      "exists": 3412,
      "##adis": 3413,
      "##ows": 3414,
      "online": 3415,
      "addison": 3416,
      "operators": 3417,
      "printer": 3418,
      "implementing": 3419,
      "iteration": 3420,
      "objectives": 3421,
      "searched": 3422,
      "dynamically": 3423,
      "grader": 3424,
      "inserts": 3425,
      "visits": 3426,
      "quizz": 3427,
      "upon": 3428,
      "instances": 3429,
      "anytime": 3430,
      "traverses": 3431,
      "likely": 3432,
      "ends": 3433,
      "undefined": 3434,
      "generates": 3435,
      "edited": 3436,
      "moves": 3437,
      "imply": 3438,
      "calling": 3439,
      "accessor": 3440,
      "designing": 3441,
      "performing": 3442,
      "trivial": 3443,
      "tends": 3444,
      "basically": 3445,
      "subtype": 3446,
      "lost": 3447,
      "commands": 3448,
      "functionality": 3449,
      "tailored": 3450,
      "managing": 3451,
      "costs": 3452,
      "followed": 3453,
      "locations": 3454,
      "averaged": 3455,
      "ides": 3456,
      "detection": 3457,
      "modification": 3458,
      "shouldn": 3459,
      "compute": 3460,
      "populate": 3461,
      "commonly": 3462,
      "wanted": 3463,
      "relation": 3464,
      "begins": 3465,
      "removes": 3466,
      "removal": 3467,
      "checked": 3468,
      "posted": 3469,
      "longest": 3470,
      "actually": 3471,
      "actively": 3472,
      "deletions": 3473,
      "warning": 3474,
      "expressed": 3475,
      "slots": 3476,
      "discarded": 3477,
      "errors": 3478,
      "updating": 3479,
      "quickly": 3480,
      "linearly": 3481,
      "largest": 3482,
      "holds": 3483,
      "ideas": 3484,
      "discussing": 3485,
      "compilation": 3486,
      "allocation": 3487,
      "keeping": 3488,
      "containment": 3489,
      "ensures": 3490,
      "helps": 3491,
      "writing": 3492,
      "duration": 3493,
      "learnt": 3494,
      "simplified": 3495,
      "shrinks": 3496,
      "approximate": 3497,
      "assigned": 3498,
      "remarks": 3499,
      "matrix": 3500,
      "fewer": 3501,
      "characters": 3502,
      "unspec": 3503,
      "sample": 3504,
      "save": 3505,
      "halves": 3506,
      "conditions": 3507,
      "statement": 3508,
      "narrower": 3509,
      "shows": 3510,
      "invari": 3511,
      "preserve": 3512,
      "entry": 3513,
      "ops": 3514,
      "explanations": 3515,
      "possible": 3516,
      "faulty": 3517,
      "skills": 3518,
      "permutations": 3519,
      "tasks": 3520,
      "causes": 3521,
      "constructs": 3522,
      "calculus": 3523,
      "expectations": 3524,
      "behind": 3525,
      "farther": 3526,
      "closer": 3527,
      "indicate": 3528,
      "indicating": 3529,
      "indicates": 3530,
      "variety": 3531,
      "motivation": 3532,
      "converted": 3533,
      "expansions": 3534,
      "include": 3535,
      "includes": 3536,
      "including": 3537,
      "syntactic": 3538,
      "submit": 3539,
      "submission": 3540,
      "exams": 3541,
      "tells": 3542,
      "manipulations": 3543,
      "builds": 3544,
      "fundamentally": 3545,
      "hierarchical": 3546,
      "immediate": 3547,
      "ignore": 3548,
      "ignoring": 3549,
      "choice": 3550,
      "choices": 3551,
      "multiply": 3552,
      "multiplication": 3553,
      "attempt": 3554,
      "disadvantage": 3555,
      "disadvantages": 3556,
      "technique": 3557,
      "techniques": 3558,
      "article": 3559,
      "copies": 3560,
      "replaces": 3561,
      "##boxing": 3562,
      "released": 3563,
      "observation": 3564,
      "involved": 3565,
      "engineering": 3566,
      "infinity": 3567,
      "situations": 3568,
      "duplicates": 3569,
      "greatly": 3570,
      "saved": 3571,
      "wednesdays": 3572,
      "opposed": 3573,
      "synonymous": 3574,
      "browser": 3575,
      "##content": 3576,
      "secrets": 3577,
      "substitution": 3578,
      "sneaky": 3579,
      "shuttle": 3580,
      "dinner": 3581,
      "routing": 3582,
      "demonstrates": 3583,
      "stanford": 3584,
      "navigation": 3585,
      "sections": 3586,
      "pdf": 3587,
      "ascending": 3588,
      "simply": 3589,
      "aggregate": 3590,
      "branching": 3591,
      "wrapper": 3592,
      "proceeds": 3593,
      "occasionally": 3594,
      "ariane": 3595,
      "strongly": 3596,
      "others": 3597,
      "procedure": 3598,
      "available": 3599,
      "announcements": 3600,
      "dimitri": 3601,
      "proficiency": 3602,
      "insignificant": 3603,
      "predecessor": 3604,
      "libraries": 3605,
      "prerequisites": 3606,
      "ieee": 3607,
      "quizzes": 3608,
      "unspecified": 3609,
      "05": 3610,
      "04": 3611,
      "09": 3612,
      "06": 3613,
      "29": 3614,
      "2ℎ": 3615,
      "36": 3616,
      "52": 3617,
      "77": 3618,
      "85": 3619,
      "967": 3620,
      "fav": 3621,
      "gro": 3622,
      "lhs": 3623,
      "lisk": 3624,
      "masri": 3625,
      "n4": 3626,
      "nlogn": 3627,
      "pal": 3628,
      "swe": 3629,
      "ter": 3630,
      "ten": 3631,
      "tim": 3632,
      "xss": 3633,
      "−1": 3634,
      "##day": 3635,
      "##air": 3636,
      "##bit": 3637,
      "##grees": 3638,
      "##kes": 3639,
      "##20": 3640,
      "##41": 3641,
      "##48": 3642,
      "##46": 3643,
      "##76": 3644,
      "##13": 3645,
      "##65": 3646,
      "##𝑛𝑛": 3647,
      "##ino": 3648,
      "stat": 3649,
      "rev": 3650,
      "##odeafter": 3651,
      "intarray": 3652,
      "intstr": 3653,
      "##enodeafter": 3654,
      "node3": 3655,
      "heart": 3656,
      "printde": 3657,
      "printchildren": 3658,
      "printleaf": 3659,
      "iterating": 3660,
      "javaoo": 3661,
      "unvis": 3662,
      "insertions": 3663,
      "insertafter": 3664,
      "1024": 3665,
      "haspre": 3666,
      "method4": 3667,
      "method7": 3668,
      "method8": 3669,
      "method9": 3670,
      "##ormessage": 3671,
      "bfsof": 3672,
      "bfsdis": 3673,
      "endl": 3674,
      "myexception": 3675,
      "cs11": 3676,
      "subtrees": 3677,
      "doublearray": 3678,
      "2010": 3679,
      "parentindex": 3680,
      "##eighted": 3681,
      "step2": 3682,
      "step4": 3683,
      "step1": 3684,
      "step3": 3685,
      "##verywhere": 3686,
      "removenodeafter": 3687,
      "##ofbound": 3688,
      "errormessage": 3689,
      "1002": 3690,
      "charar": 3691,
      "bytecode": 3692,
      "recursively": 3693,
      "mat2": 3694,
      "mat1": 3695,
      "unsorted": 3696,
      "polleverywhere": 3697,
      "1129": 3698,
      "author": 3699,
      "transitivity": 3700,
      "128": 3701,
      "59pm": 3702,
      "fair": 3703,
      "2007": 3704,
      "crit": 3705,
      "permute": 3706,
      "quadradic": 3707,
      "036": 3708,
      "223": 3709,
      "3n2": 3710,
      "3n3": 3711,
      "372": 3712,
      "itr2": 3713,
      "itr1": 3714,
      "googleuser": 3715,
      "147": 3716,
      "1415": 3717,
      "483": 3718,
      "4370": 3719,
      "##288": 3720,
      "4508": 3721,
      "unreference": 3722,
      "unweighted": 3723,
      "tostring": 3724,
      "##abytes": 3725,
      "autoboxing": 3726,
      "gotchas": 3727,
      "wmasri": 3728,
      "untrusted": 3729,
      "nanotime": 3730,
      "1cn": 3731,
      "dlcp": 3732,
      "ternary": 3733,
      "invariants": 3734,
      "shuttlecock": 3735,
      "dimitriadis": 3736,
      "295": 3737,
      "775": 3738,
      "854": 3739,
      "9679": 3740,
      "liskov": 3741,
      "printdegrees": 3742,
      "printleafnodes": 3743,
      "unvisited": 3744,
      "hasprevious": 3745,
      "bfsofgraph": 3746,
      "bfsdisconnected": 3747,
      "cs112": 3748,
      "chararray": 3749,
      "googleusercontent": 3750,
      "cust": 3751,
      "light": 3752,
      "mess": 3753,
      "##rict": 3754,
      "##iet": 3755,
      "##itation": 3756,
      "##ened": 3757,
      "##com": 3758,
      "elt": 3759,
      "##end": 3760,
      "##lin": 3761,
      "##ky": 3762,
      "##ken": 3763,
      "##ising": 3764,
      "sell": 3765,
      "##ests": 3766,
      "##iff": 3767,
      "past": 3768,
      "##load": 3769,
      "mygeneric": 3770,
      "recon": 3771,
      "##object": 3772,
      "fur": 3773,
      "hist": 3774,
      "ur": 3775,
      "##sp": 3776,
      "##ses": 3777,
      "##amp": 3778,
      "##inct": 3779,
      "##ano": 3780,
      "##oty": 3781,
      "##iding": 3782,
      "prop": 3783,
      "##ief": 3784,
      "##unch": 3785,
      "##cket": 3786,
      "compet": 3787,
      "scre": 3788,
      "##ops": 3789,
      "##well": 3790,
      "##alent": 3791,
      "jun": 3792,
      "mac": 3793,
      "##rated": 3794,
      "##ny": 3795,
      "##sing": 3796,
      "##bu": 3797,
      "##bal": 3798,
      "##ping": 3799,
      "ord": 3800,
      "##ifies": 3801,
      "##ula": 3802,
      "##ially": 3803,
      "valid": 3804,
      "##aking": 3805,
      "black": 3806,
      "ast": 3807,
      "ear": 3808,
      "fam": 3809,
      "ga": 3810,
      "ham": 3811,
      "wind": 3812,
      "##orp": 3813,
      "##oration": 3814,
      "##ones": 3815,
      "neuro": 3816,
      "intern": 3817,
      "##ude": 3818,
      "appe": 3819,
      "##itted": 3820,
      "##ney": 3821,
      "hor": 3822,
      "saf": 3823,
      "ts": 3824,
      "##cy": 3825,
      "##ob": 3826,
      "##oy": 3827,
      "##olic": 3828,
      "##rist": 3829,
      "##ville": 3830,
      "##ned": 3831,
      "##house": 3832,
      "##ication": 3833,
      "##outh": 3834,
      "coll": 3835,
      "##uring": 3836,
      "##ool": 3837,
      "she": 3838,
      "prec": 3839,
      "unc": 3840,
      "##cover": 3841,
      "param": 3842,
      "##aker": 3843,
      "ba": 3844,
      "gen": 3845,
      "lu": 3846,
      "miss": 3847,
      "sand": 3848,
      "##li": 3849,
      "##lines": 3850,
      "##ba": 3851,
      "##back": 3852,
      "##inder": 3853,
      "##ature": 3854,
      "cook": 3855,
      "##ett": 3856,
      "##oted": 3857,
      "##char": 3858,
      "##chan": 3859,
      "##ader": 3860,
      "##esting": 3861,
      "##rence": 3862,
      "scal": 3863,
      "smaller": 3864,
      "restrict": 3865,
      "counteven2": 3866,
      "custom": 3867,
      "ach": 3868,
      "tur": 3869,
      "wil": 3870,
      "##vo": 3871,
      "##has": 3872,
      "##ony": 3873,
      "##eded": 3874,
      "##ingu": 3875,
      "##rant": 3876,
      "rece": 3877,
      "ing": 3878,
      "##lly": 3879,
      "ext": 3880,
      "symb": 3881,
      "mont": 3882,
      "##resp": 3883,
      "lock": 3884,
      "mean": 3885,
      "##augh": 3886,
      "ber": 3887,
      "cam": 3888,
      "flow": 3889,
      "gig": 3890,
      "had": 3891,
      "ms": 3892,
      "medi": 3893,
      "tang": 3894,
      "##ost": 3895,
      "##rs": 3896,
      "##ball": 3897,
      "##point": 3898,
      "##gu": 3899,
      "##gg": 3900,
      "##gan": 3901,
      "##ises": 3902,
      "collab": 3903,
      "##eting": 3904,
      "##ids": 3905,
      "soc": 3906,
      "chap": 3907,
      "##ached": 3908,
      "##aving": 3909,
      "dom": 3910,
      "prep": 3911,
      "mel": 3912,
      "##igned": 3913,
      "##akes": 3914,
      "##itten": 3915,
      "block": 3916,
      "cat": 3917,
      "dm": 3918,
      "dar": 3919,
      "dri": 3920,
      "li": 3921,
      "mcc": 3922,
      "side": 3923,
      "tor": 3924,
      "##ye": 3925,
      "theor": 3926,
      "##etic": 3927,
      "fore": 3928,
      "##ubs": 3929,
      "##essed": 3930,
      "##ook": 3931,
      "adjust": 3932,
      "diss": 3933,
      "depart": 3934,
      "acqu": 3935,
      "offic": 3936,
      "charl": 3937,
      "##bury": 3938,
      "extends": 3939,
      "experi": 3940,
      "bid": 3941,
      "bach": 3942,
      "body": 3943,
      "div": 3944,
      "mic": 3945,
      "master": 3946,
      "psy": 3947,
      "rh": 3948,
      "vol": 3949,
      "##oph": 3950,
      "##ding": 3951,
      "##ipp": 3952,
      "##ws": 3953,
      "##nted": 3954,
      "##icul": 3955,
      "##allen": 3956,
      "interm": 3957,
      "##lling": 3958,
      "adapt": 3959,
      "altern": 3960,
      "select": 3961,
      "deal": 3962,
      "deep": 3963,
      "##antic": 3964,
      "##lder": 3965,
      "tab": 3966,
      "##ips": 3967,
      "spring": 3968,
      "##enced": 3969,
      "trust": 3970,
      "contrib": 3971,
      "program4": 3972,
      "blue": 3973,
      "interpre": 3974,
      "##mann": 3975,
      "guard": 3976,
      "##oked": 3977,
      "distrib": 3978,
      "frank": 3979,
      "sellable": 3980,
      "aud": 3981,
      "du": 3982,
      "ever": 3983,
      "gn": 3984,
      "god": 3985,
      "liter": 3986,
      "mill": 3987,
      "pep": 3988,
      "sil": 3989,
      "sus": 3990,
      "wal": 3991,
      "##oon": 3992,
      "##ake": 3993,
      "##iest": 3994,
      "##uate": 3995,
      "##zz": 3996,
      "##yl": 3997,
      "##pri": 3998,
      "##aty": 3999,
      "##ica": 4000,
      "infer": 4001,
      "necess": 4002,
      "come": 4003,
      "##etch": 4004,
      "##emy": 4005,
      "##ects": 4006,
      "##sex": 4007,
      "prohib": 4008,
      "pol": 4009,
      "##atory": 4010,
      "prevent": 4011,
      "ener": 4012,
      "##ightly": 4013,
      "mechan": 4014,
      "corresp": 4015,
      "market": 4016,
      "accept": 4017,
      "##burg": 4018,
      "belie": 4019,
      "equivalent": 4020,
      "facil": 4021,
      "virt": 4022,
      "smooth": 4023,
      "##secut": 4024,
      "achie": 4025,
      "psych": 4026,
      "correspond": 4027,
      "aw": 4028,
      "fer": 4029,
      "fire": 4030,
      "jar": 4031,
      "lon": 4032,
      "ns": 4033,
      "pie": 4034,
      "pars": 4035,
      "san": 4036,
      "sun": 4037,
      "was": 4038,
      "##ai": 4039,
      "##gs": 4040,
      "##acy": 4041,
      "##ecting": 4042,
      "alph": 4043,
      "decre": 4044,
      "weight": 4045,
      "christ": 4046,
      "##erson": 4047,
      "travel": 4048,
      "enh": 4049,
      "union": 4050,
      "appoint": 4051,
      "appropri": 4052,
      "court": 4053,
      "evol": 4054,
      "containing": 4055,
      "box": 4056,
      "possess": 4057,
      "respons": 4058,
      "occurrence": 4059,
      "propag": 4060,
      "screen": 4061,
      "safe": 4062,
      "bes": 4063,
      "cp": 4064,
      "cas": 4065,
      "cart": 4066,
      "dia": 4067,
      "eight": 4068,
      "gt": 4069,
      "mad": 4070,
      "march": 4071,
      "sat": 4072,
      "tro": 4073,
      "wood": 4074,
      "##round": 4075,
      "##aff": 4076,
      "##lection": 4077,
      "##alty": 4078,
      "incomp": 4079,
      "##etical": 4080,
      "##ural": 4081,
      "##urate": 4082,
      "exha": 4083,
      "##idge": 4084,
      "##ils": 4085,
      "orient": 4086,
      "treat": 4087,
      "##imens": 4088,
      "challen": 4089,
      "##ama": 4090,
      "sho": 4091,
      "pretend": 4092,
      "compan": 4093,
      "spread": 4094,
      "##ablish": 4095,
      "##gins": 4096,
      "brief": 4097,
      "cyber": 4098,
      "country": 4099,
      "bench": 4100,
      "##annel": 4101,
      "sales": 4102,
      "##attered": 4103,
      "global": 4104,
      "favor": 4105,
      "reconstruct": 4106,
      "bi": 4107,
      "bio": 4108,
      "dag": 4109,
      "gal": 4110,
      "hol": 4111,
      "ken": 4112,
      "ly": 4113,
      "land": 4114,
      "mond": 4115,
      "nou": 4116,
      "opport": 4117,
      "pun": 4118,
      "sle": 4119,
      "##ey": 4120,
      "##dy": 4121,
      "##ral": 4122,
      "##iver": 4123,
      "##lint": 4124,
      "##light": 4125,
      "##bed": 4126,
      "##uer": 4127,
      "##ya": 4128,
      "##wr": 4129,
      "##inant": 4130,
      "##aten": 4131,
      "##stra": 4132,
      "##alid": 4133,
      "##ras": 4134,
      "tool": 4135,
      "##ros": 4136,
      "##room": 4137,
      "##ense": 4138,
      "arbit": 4139,
      "##utable": 4140,
      "##etime": 4141,
      "adm": 4142,
      "force": 4143,
      "forget": 4144,
      "##idden": 4145,
      "decomp": 4146,
      "chat": 4147,
      "##ifiable": 4148,
      "retain": 4149,
      "inspect": 4150,
      "##grade": 4151,
      "discover": 4152,
      "impact": 4153,
      "parad": 4154,
      "tele": 4155,
      "meg": 4156,
      "##itely": 4157,
      "plu": 4158,
      "plate": 4159,
      "ideal": 4160,
      "neighbour": 4161,
      "distingu": 4162,
      "standard": 4163,
      "attack": 4164,
      "##she": 4165,
      "esse": 4166,
      "hyd": 4167,
      "incorp": 4168,
      "establish": 4169,
      "legal": 4170,
      "finish": 4171,
      "music": 4172,
      "##rupt": 4173,
      "##comes": 4174,
      "further": 4175,
      "opportun": 4176,
      "amb": 4177,
      "bow": 4178,
      "dat": 4179,
      "dun": 4180,
      "eth": 4181,
      "ecl": 4182,
      "jud": 4183,
      "pm": 4184,
      "pse": 4185,
      "risk": 4186,
      "##da": 4187,
      "##best": 4188,
      "##path": 4189,
      "##gress": 4190,
      "##worth": 4191,
      "##iness": 4192,
      "thread": 4193,
      "##itives": 4194,
      "star": 4195,
      "##arian": 4196,
      "ren": 4197,
      "inequ": 4198,
      "near": 4199,
      "never": 4200,
      "##anner": 4201,
      "##istics": 4202,
      "##eners": 4203,
      "##igm": 4204,
      "##iguous": 4205,
      "exclud": 4206,
      "##iled": 4207,
      "send": 4208,
      "##esters": 4209,
      "##izable": 4210,
      "chain": 4211,
      "channel": 4212,
      "##uls": 4213,
      "##iving": 4214,
      "lend": 4215,
      "magn": 4216,
      "inside": 4217,
      "unit": 4218,
      "quiet": 4219,
      "gives": 4220,
      "recur": 4221,
      "manage": 4222,
      "popular": 4223,
      "##logy": 4224,
      "slightly": 4225,
      "##rano": 4226,
      "percent": 4227,
      "huff": 4228,
      "webs": 4229,
      "feel": 4230,
      "phot": 4231,
      "guide": 4232,
      "prototy": 4233,
      "task": 4234,
      "illustrate": 4235,
      "distinct": 4236,
      "thought": 4237,
      "replaced": 4238,
      "##print": 4239,
      "##charge": 4240,
      "pepper": 4241,
      "pseud": 4242,
      "bon": 4243,
      "ball": 4244,
      "dan": 4245,
      "dimens": 4246,
      "ease": 4247,
      "hur": 4248,
      "live": 4249,
      "mas": 4250,
      "mur": 4251,
      "mart": 4252,
      "micron": 4253,
      "pan": 4254,
      "pot": 4255,
      "went": 4256,
      "were": 4257,
      "##ox": 4258,
      "##rd": 4259,
      "##ris": 4260,
      "##bor": 4261,
      "##mod": 4262,
      "##ho": 4263,
      "##gen": 4264,
      "##form": 4265,
      "thing": 4266,
      "##reed": 4267,
      "##eterm": 4268,
      "adequ": 4269,
      "strict": 4270,
      "##ched": 4271,
      "##chain": 4272,
      "##ither": 4273,
      "##ident": 4274,
      "##ires": 4275,
      "alle": 4276,
      "asym": 4277,
      "usemy": 4278,
      "##erful": 4279,
      "enforce": 4280,
      "unic": 4281,
      "unne": 4282,
      "uncle": 4283,
      "##ialization": 4284,
      "usebest": 4285,
      "upload": 4286,
      "spaces": 4287,
      "repet": 4288,
      "##othy": 4289,
      "program1": 4290,
      "program3": 4291,
      "##icks": 4292,
      "plot": 4293,
      "argument": 4294,
      "formula": 4295,
      "##condition": 4296,
      "basic0": 4297,
      "phil": 4298,
      "invalid": 4299,
      "redd": 4300,
      "answer": 4301,
      "demograph": 4302,
      "attent": 4303,
      "reflex": 4304,
      "##cently": 4305,
      "professional": 4306,
      "arrange": 4307,
      "development": 4308,
      "organization": 4309,
      "square": 4310,
      "garb": 4311,
      "diction": 4312,
      "revision": 4313,
      "reinforce": 4314,
      "driver": 4315,
      "department": 4316,
      "benchmark": 4317,
      "essential": 4318,
      "eclip": 4319,
      "usemygeneric": 4320,
      "usebestgeneric": 4321,
      "bip": 4322,
      "born": 4323,
      "direction": 4324,
      "ele": 4325,
      "lapt": 4326,
      "rub": 4327,
      "tk": 4328,
      "vary": 4329,
      "water": 4330,
      "xm": 4331,
      "yay": 4332,
      "zero": 4333,
      "##ez": 4334,
      "##eme": 4335,
      "##cs": 4336,
      "##sa": 4337,
      "##iers": 4338,
      "##ympt": 4339,
      "##pro": 4340,
      "##hh": 4341,
      "##hood": 4342,
      "##hold": 4343,
      "##eral": 4344,
      "##atible": 4345,
      "##ona": 4346,
      "##onse": 4347,
      "##ste": 4348,
      "##stone": 4349,
      "##ico": 4350,
      "interf": 4351,
      "arm": 4352,
      "##ette": 4353,
      "ang": 4354,
      "forum": 4355,
      "whate": 4356,
      "clue": 4357,
      "classified": 4358,
      "##irus": 4359,
      "indust": 4360,
      "consecut": 4361,
      "ash": 4362,
      "asympt": 4363,
      "##ived": 4364,
      "worry": 4365,
      "words": 4366,
      "makes": 4367,
      "pointed": 4368,
      "setup": 4369,
      "##ously": 4370,
      "##enery": 4371,
      "overall": 4372,
      "loose": 4373,
      "pears": 4374,
      "manual": 4375,
      "imag": 4376,
      "among": 4377,
      "plane": 4378,
      "posts": 4379,
      "actual": 4380,
      "##crete": 4381,
      "multi": 4382,
      "movement": 4383,
      "keeps": 4384,
      "resource": 4385,
      "password": 4386,
      "guid": 4387,
      "protoc": 4388,
      "antiv": 4389,
      "assumpt": 4390,
      "##ahn": 4391,
      "versa": 4392,
      "developer": 4393,
      "nature": 4394,
      "espec": 4395,
      "robust": 4396,
      "library": 4397,
      "decided": 4398,
      "naive": 4399,
      "irres": 4400,
      "professor": 4401,
      "dij": 4402,
      "overload": 4403,
      "wednesday": 4404,
      "continuous": 4405,
      "eventual": 4406,
      "history": 4407,
      "family": 4408,
      "internet": 4409,
      "symbolic": 4410,
      "medium": 4411,
      "official": 4412,
      "charlie": 4413,
      "alternative": 4414,
      "energy": 4415,
      "virtual": 4416,
      "spreadshe": 4417,
      "whatever": 4418,
      "industry": 4419,
      "2f": 4420,
      "2pm": 4421,
      "3pm": 4422,
      "3rd": 4423,
      "ble": 4424,
      "bud": 4425,
      "codes": 4426,
      "cab": 4427,
      "capt": 4428,
      "citation": 4429,
      "dll": 4430,
      "days": 4431,
      "e2": 4432,
      "either": 4433,
      "fits": 4434,
      "fully": 4435,
      "gh": 4436,
      "hall": 4437,
      "hano": 4438,
      "hiding": 4439,
      "having": 4440,
      "jv": 4441,
      "ju": 4442,
      "ko": 4443,
      "k2": 4444,
      "k1": 4445,
      "kahn": 4446,
      "laf": 4447,
      "lying": 4448,
      "liable": 4449,
      "mapping": 4450,
      "nx": 4451,
      "nth": 4452,
      "nlp": 4453,
      "pu": 4454,
      "p1": 4455,
      "ped": 4456,
      "rj": 4457,
      "ratio": 4458,
      "scope": 4459,
      "tested": 4460,
      "vt": 4461,
      "v8": 4462,
      "vice": 4463,
      "west": 4464,
      "xml": 4465,
      "##ome": 4466,
      "##riendly": 4467,
      "##n1": 4468,
      "##ship": 4469,
      "##ien": 4470,
      "##ius": 4471,
      "##bre": 4472,
      "##gar": 4473,
      "##ker": 4474,
      "##joint": 4475,
      "##ini": 4476,
      "theory": 4477,
      "##ita": 4478,
      "##nder": 4479,
      "tower": 4480,
      "reverse": 4481,
      "reuse": 4482,
      "recently": 4483,
      "##uts": 4484,
      "##eter": 4485,
      "forests": 4486,
      "listeners": 4487,
      "##ote": 4488,
      "##ads": 4489,
      "##ades": 4490,
      "##iles": 4491,
      "linux": 4492,
      "popping": 4493,
      "being": 4494,
      "become": 4495,
      "becomes": 4496,
      "selection": 4497,
      "indices": 4498,
      "concrete": 4499,
      "linking": 4500,
      "chapt": 4501,
      "chances": 4502,
      "noted": 4503,
      "publicly": 4504,
      "usb": 4505,
      "users": 4506,
      "usability": 4507,
      "completing": 4508,
      "completed": 4509,
      "dose": 4510,
      "doable": 4511,
      "dollars": 4512,
      "somewhere": 4513,
      "paid": 4514,
      "paired": 4515,
      "getting": 4516,
      "shar": 4517,
      "precondition": 4518,
      "granted": 4519,
      "bigger": 4520,
      "visible": 4521,
      "visibility": 4522,
      "comparing": 4523,
      "referential": 4524,
      "visiting": 4525,
      "rock": 4526,
      "setting": 4527,
      "respective": 4528,
      "##artite": 4529,
      "topic": 4530,
      "nont": 4531,
      "##ormat": 4532,
      "abs": 4533,
      "##loy": 4534,
      "accurate": 4535,
      "spr": 4536,
      "speeds": 4537,
      "disk": 4538,
      "disaster": 4539,
      "disjoint": 4540,
      "generate": 4541,
      "generated": 4542,
      "generating": 4543,
      "moved": 4544,
      "outputs": 4545,
      "positions": 4546,
      "whereas": 4547,
      "whenever": 4548,
      "accessed": 4549,
      "accessible": 4550,
      "desired": 4551,
      "performs": 4552,
      "myds": 4553,
      "tries": 4554,
      "differences": 4555,
      "priori": 4556,
      "assigning": 4557,
      "assessed": 4558,
      "contested": 4559,
      "contesting": 4560,
      "contiguous": 4561,
      "pushed": 4562,
      "folder": 4563,
      "curricul": 4564,
      "loiter": 4565,
      "meeting": 4566,
      "minors": 4567,
      "minimize": 4568,
      "lectures": 4569,
      "privately": 4570,
      "defining": 4571,
      "definitely": 4572,
      "imports": 4573,
      "manually": 4574,
      "manages": 4575,
      "doubling": 4576,
      "location": 4577,
      "locates": 4578,
      "scattered": 4579,
      "scanner": 4580,
      "letting": 4581,
      "placed": 4582,
      "modify": 4583,
      "modifying": 4584,
      "##reader": 4585,
      "specification": 4586,
      "specifications": 4587,
      "levels": 4588,
      "solved": 4589,
      "solves": 4590,
      "seeing": 4591,
      "relate": 4592,
      "previously": 4593,
      "courses": 4594,
      "justify": 4595,
      "paths": 4596,
      "pathological": 4597,
      "checks": 4598,
      "posting": 4599,
      "longs": 4600,
      "locality": 4601,
      "ready": 4602,
      "acts": 4603,
      "study": 4604,
      "studying": 4605,
      "known": 4606,
      "##linear": 4607,
      "forms": 4608,
      "predefined": 4609,
      "verbs": 4610,
      "verifiable": 4611,
      "primitives": 4612,
      "advice": 4613,
      "practically": 4614,
      "exploration": 4615,
      "graduate": 4616,
      "resulting": 4617,
      "declaring": 4618,
      "brute": 4619,
      "abstractions": 4620,
      "amortization": 4621,
      "scheme": 4622,
      "factors": 4623,
      "predicting": 4624,
      "warmup": 4625,
      "discussions": 4626,
      "correcting": 4627,
      "compiles": 4628,
      "higher": 4629,
      "probably": 4630,
      "puts": 4631,
      "putting": 4632,
      "thrown": 4633,
      "easier": 4634,
      "easily": 4635,
      "extras": 4636,
      "allowable": 4637,
      "properly": 4638,
      "mathematically": 4639,
      "mathematicians": 4640,
      "swapping": 4641,
      "options": 4642,
      "optimize": 4643,
      "lifetime": 4644,
      "detailed": 4645,
      "utilization": 4646,
      "handled": 4647,
      "written": 4648,
      "bucket": 4649,
      "packet": 4650,
      "packets": 4651,
      "neighbors": 4652,
      "simplifies": 4653,
      "semantic": 4654,
      "semesters": 4655,
      "interest": 4656,
      "expands": 4657,
      "scenes": 4658,
      "scheduled": 4659,
      "remaining": 4660,
      "reminder": 4661,
      "floats": 4662,
      "banner": 4663,
      "##beans": 4664,
      "unsigned": 4665,
      "scenarios": 4666,
      "charged": 4667,
      "agreed": 4668,
      "weeks": 4669,
      "looking": 4670,
      "reasons": 4671,
      "perfectly": 4672,
      "languages": 4673,
      "additionally": 4674,
      "invoked": 4675,
      "integrated": 4676,
      "presence": 4677,
      "redo": 4678,
      "modeling": 4679,
      "entries": 4680,
      "themselves": 4681,
      "supports": 4682,
      "supported": 4683,
      "supporting": 4684,
      "evaluated": 4685,
      "reached": 4686,
      "empirically": 4687,
      "gui": 4688,
      "protects": 4689,
      "##ssen": 4690,
      "determined": 4691,
      "determinant": 4692,
      "catching": 4693,
      "descending": 4694,
      "ourselves": 4695,
      "permits": 4696,
      "permission": 4697,
      "permitting": 4698,
      "grew": 4699,
      "green": 4700,
      "cube": 4701,
      "filled": 4702,
      "calculations": 4703,
      "expectation": 4704,
      "maintains": 4705,
      "maintained": 4706,
      "behaves": 4707,
      "behave": 4708,
      "joh": 4709,
      "jobs": 4710,
      "component": 4711,
      "closed": 4712,
      "illustrates": 4713,
      "drives": 4714,
      "variant": 4715,
      "bravo": 4716,
      "conditional": 4717,
      "signature": 4718,
      "perspective": 4719,
      "smallest": 4720,
      "waiting": 4721,
      "attached": 4722,
      "identities": 4723,
      "submitted": 4724,
      "observe": 4725,
      "developers": 4726,
      "overridden": 4727,
      "termination": 4728,
      "terminology": 4729,
      "grouping": 4730,
      "tags": 4731,
      "explained": 4732,
      "harder": 4733,
      "avoids": 4734,
      "unfriendly": 4735,
      "assumes": 4736,
      "assumed": 4737,
      "improvement": 4738,
      "combo": 4739,
      "optionally": 4740,
      "connection": 4741,
      "immutable": 4742,
      "humans": 4743,
      "decision": 4744,
      "suppressing": 4745,
      "aliens": 4746,
      "controlled": 4747,
      "separates": 4748,
      "deadlines": 4749,
      "broken": 4750,
      "enabling": 4751,
      "feature": 4752,
      "powerful": 4753,
      "choosing": 4754,
      "efforts": 4755,
      "clearer": 4756,
      "requests": 4757,
      "destination": 4758,
      "merge": 4759,
      "nave": 4760,
      "copied": 4761,
      "extended": 4762,
      "professionally": 4763,
      "viewing": 4764,
      "rounded": 4765,
      "rounding": 4766,
      "relevant": 4767,
      "policies": 4768,
      "delta": 4769,
      "labels": 4770,
      "consumes": 4771,
      "consumed": 4772,
      "consuming": 4773,
      "observable": 4774,
      "bubbles": 4775,
      "arranges": 4776,
      "arranged": 4777,
      "organize": 4778,
      "involves": 4779,
      "gained": 4780,
      "consistency": 4781,
      "infinite": 4782,
      "homework": 4783,
      "documentation": 4784,
      "affecting": 4785,
      "situation": 4786,
      "duplicate": 4787,
      "denoted": 4788,
      "response": 4789,
      "penalty": 4790,
      "server": 4791,
      "dominant": 4792,
      "dominates": 4793,
      "portable": 4794,
      "centers": 4795,
      "experience": 4796,
      "continued": 4797,
      "dictate": 4798,
      "years": 4799,
      "offers": 4800,
      "revisions": 4801,
      "attendance": 4802,
      "grandchildren": 4803,
      "kinda": 4804,
      "subsets": 4805,
      "successor": 4806,
      "swimming": 4807,
      "categories": 4808,
      "reversal": 4809,
      "reversing": 4810,
      "coordinate": 4811,
      "coordinated": 4812,
      "campus": 4813,
      "##irectional": 4814,
      "description": 4815,
      "descriptions": 4816,
      "anticipate": 4817,
      "anticipated": 4818,
      "encounter": 4819,
      "encountering": 4820,
      "analyzed": 4821,
      "analyzing": 4822,
      "paying": 4823,
      "attempting": 4824,
      "attempted": 4825,
      "derives": 4826,
      "sorry": 4827,
      "intuitively": 4828,
      "communication": 4829,
      "relatively": 4830,
      "answers": 4831,
      "answering": 4832,
      "playlists": 4833,
      "timothy": 4834,
      "statistics": 4835,
      "fairness": 4836,
      "critical": 4837,
      "lightning": 4838,
      "messages": 4839,
      "compete": 4840,
      "orders": 4841,
      "validity": 4842,
      "windows": 4843,
      "appears": 4844,
      "precision": 4845,
      "uncertain": 4846,
      "missing": 4847,
      "scalability": 4848,
      "restricted": 4849,
      "customized": 4850,
      "receive": 4851,
      "tangent": 4852,
      "collaborate": 4853,
      "chapter": 4854,
      "prepare": 4855,
      "blockchain": 4856,
      "dmv": 4857,
      "theoretical": 4858,
      "acquire": 4859,
      "experienced": 4860,
      "bidirectional": 4861,
      "bachmann": 4862,
      "intermediate": 4863,
      "adaptability": 4864,
      "selected": 4865,
      "deepest": 4866,
      "contributed": 4867,
      "blueprint": 4868,
      "interprets": 4869,
      "distributions": 4870,
      "literally": 4871,
      "necessary": 4872,
      "prohibited": 4873,
      "mechanical": 4874,
      "believes": 4875,
      "facilities": 4876,
      "achieving": 4877,
      "longer": 4878,
      "pieces": 4879,
      "alpha": 4880,
      "traveling": 4881,
      "enhanced": 4882,
      "appointment": 4883,
      "appropriate": 4884,
      "evolve": 4885,
      "possession": 4886,
      "responsibility": 4887,
      "propagation": 4888,
      "besides": 4889,
      "incompatible": 4890,
      "exhausted": 4891,
      "oriented": 4892,
      "challenge": 4893,
      "companies": 4894,
      "salesman": 4895,
      "reconstructed": 4896,
      "mondays": 4897,
      "nouns": 4898,
      "arbitrary": 4899,
      "decompose": 4900,
      "paradigm": 4901,
      "plugins": 4902,
      "distinguished": 4903,
      "incorporate": 4904,
      "opportunities": 4905,
      "inequality": 4906,
      "nearby": 4907,
      "excluding": 4908,
      "percentage": 4909,
      "huffman": 4910,
      "websites": 4911,
      "prototyping": 4912,
      "dimensions": 4913,
      "##etermin": 4914,
      "adequate": 4915,
      "unicode": 4916,
      "unneeded": 4917,
      "repetitive": 4918,
      "reddit": 4919,
      "demographics": 4920,
      "attentive": 4921,
      "garbage": 4922,
      "dictionaries": 4923,
      "eclipse": 4924,
      "laptops": 4925,
      "varying": 4926,
      "interfaces": 4927,
      "consecutive": 4928,
      "asymptotic": 4929,
      "pearson": 4930,
      "imagine": 4931,
      "guidance": 4932,
      "protocols": 4933,
      "antivirus": 4934,
      "assumptions": 4935,
      "especially": 4936,
      "robustness": 4937,
      "irrespective": 4938,
      "dijk": 4939,
      "spreadsheet": 4940,
      "hanoi": 4941,
      "chapters": 4942,
      "curriculum": 4943,
      "loitering": 4944,
      "07": 4945,
      "1n": 4946,
      "17": 4947,
      "19": 4948,
      "1day": 4949,
      "2i": 4950,
      "24": 4951,
      "28": 4952,
      "26": 4953,
      "2𝑘": 4954,
      "31": 4955,
      "38": 4956,
      "33": 4957,
      "3𝑛𝑛": 4958,
      "400": 4959,
      "53": 4960,
      "5000": 4961,
      "60": 4962,
      "61": 4963,
      "63": 4964,
      "6ms": 4965,
      "7n": 4966,
      "79": 4967,
      "76": 4968,
      "700": 4969,
      "767": 4970,
      "720": 4971,
      "800": 4972,
      "8n1": 4973,
      "94": 4974,
      "99": 4975,
      "93": 4976,
      "bat": 4977,
      "bor": 4978,
      "band": 4979,
      "da": 4980,
      "gun": 4981,
      "gall": 4982,
      "gisc": 4983,
      "henery": 4984,
      "jgra": 4985,
      "k0": 4986,
      "luc": 4987,
      "mu": 4988,
      "myn": 4989,
      "n6": 4990,
      "nester": 4991,
      "od": 4992,
      "ox": 4993,
      "o4": 4994,
      "py": 4995,
      "rid": 4996,
      "roo": 4997,
      "sens": 4998,
      "w4": 4999,
      "xms": 5000,
      "xlint": 5001,
      "ℎm": 5002,
      "→s": 5003,
      "→not": 5004,
      "∴2": 5005,
      "≥𝑛𝑛": 5006,
      "t": 5007,
      "gn": 5008,
      "n": 5009,
      "𝑂𝑂": 5010,
      "𝑘𝑘": 5011,
      "##0e": 5012,
      "##02": 5013,
      "##065": 5014,
      "##cer": 5015,
      "##dfs": 5016,
      "##down": 5017,
      "##ration": 5018,
      "##rie": 5019,
      "##rivial": 5020,
      "##next": 5021,
      "##sms": 5022,
      "##totic": 5023,
      "##imp": 5024,
      "##bb": 5025,
      "##bfs": 5026,
      "##binary": 5027,
      "##height": 5028,
      "##gpt": 5029,
      "##ked": 5030,
      "##ketch": 5031,
      "##water": 5032,
      "##58": 5033,
      "##576": 5034,
      "##5288": 5035,
      "##first": 5036,
      "##21": 5037,
      "##43": 5038,
      "##458": 5039,
      "##7e": 5040,
      "##71": 5041,
      "##1g": 5042,
      "##18": 5043,
      "##129": 5044,
      "##170": 5045,
      "##846": 5046,
      "##85288": 5047,
      "##8170": 5048,
      "##93": 5049,
      "##385288": 5050,
      "##62": 5051,
      "##644": 5052,
      "##623": 5053,
      "##60e": 5054,
      "##6458": 5055,
      "##6385288": 5056,
      "##rece": 5057,
      "##itor": 5058,
      "##itter": 5059,
      "##arment": 5060,
      "##arley": 5061,
      "##oud": 5062,
      "regrade": 5063,
      "##rom": 5064,
      "##roll": 5065,
      "intance": 5066,
      "intialization": 5067,
      "##isation": 5068,
      "##lla": 5069,
      "datainputstream": 5070,
      "array1": 5071,
      "arraybinary": 5072,
      "##emb": 5073,
      "##vert": 5074,
      "##ches": 5075,
      "newheight": 5076,
      "clrs": 5077,
      "structs": 5078,
      "profs": 5079,
      "##ubject": 5080,
      "classcast": 5081,
      "classpath": 5082,
      "##irm": 5083,
      "##perimeter": 5084,
      "alb": 5085,
      "treetermin": 5086,
      "addnode": 5087,
      "outofbound": 5088,
      "link1": 5089,
      "indexout": 5090,
      "stackover": 5091,
      "##ams": 5092,
      "##amm": 5093,
      "##ereader": 5094,
      "##usion": 5095,
      "value2": 5096,
      "value3": 5097,
      "objectinputstream": 5098,
      "lec": 5099,
      "getare": 5100,
      "getperimeter": 5101,
      "##erformat": 5102,
      "enque": 5103,
      "unbox": 5104,
      "unbu": 5105,
      "10n": 5106,
      "102": 5107,
      "103": 5108,
      "1048": 5109,
      "referrece": 5110,
      "resizes": 5111,
      "resizable": 5112,
      "method5": 5113,
      "method6": 5114,
      "##ocode": 5115,
      "graph2": 5116,
      "childindex": 5117,
      "##outs": 5118,
      "overcharge": 5119,
      "##ains": 5120,
      "bool": 5121,
      "used3": 5122,
      "dfsgraph": 5123,
      "##00000": 5124,
      "subinterface": 5125,
      "gochas": 5126,
      "booleanvalue": 5127,
      "booleanhas": 5128,
      "push23": 5129,
      "doublevalue": 5130,
      "doubleobject": 5131,
      "foot": 5132,
      "vscode": 5133,
      "##crib": 5134,
      "n0​": 5135,
      "deparment": 5136,
      "##ancy": 5137,
      "findnode": 5138,
      "findelement": 5139,
      "fileinputstream": 5140,
      "arg2": 5141,
      "arg1": 5142,
      "arg3": 5143,
      "logk": 5144,
      "##ishing": 5145,
      "cormen": 5146,
      "recursions": 5147,
      "initializes": 5148,
      "longvalue": 5149,
      "infl": 5150,
      "infix": 5151,
      "appends": 5152,
      "shortvalue": 5153,
      "##standards": 5154,
      "carrano": 5155,
      "utas": 5156,
      "bytevalue": 5157,
      "genericstack": 5158,
      "floatvalue": 5159,
      "4028": 5160,
      "40129": 5161,
      "deletefirst": 5162,
      "charvalue": 5163,
      "avl": 5164,
      "webp1": 5165,
      "webp3": 5166,
      "webpround": 5167,
      "webpdfs": 5168,
      "webpbfs": 5169,
      "308": 5170,
      "30am": 5171,
      "concaten": 5172,
      "##book": 5173,
      "127": 5174,
      "12pm": 5175,
      "##ificationexception": 5176,
      "1000logn": 5177,
      "100000000": 5178,
      "factorially": 5179,
      "superclass": 5180,
      "superinterface": 5181,
      "superlinear": 5182,
      "15th": 5183,
      "324": 5184,
      "3241": 5185,
      "fall20": 5186,
      "numberformat": 5187,
      "filereader": 5188,
      "netbeans": 5189,
      "academicstandards": 5190,
      "𝑛𝑛or": 5191,
      "𝑛𝑛nodes": 5192,
      "cs262": 5193,
      "##landau": 5194,
      "##arlytrees": 5195,
      "explainable": 5196,
      "1321": 5197,
      "13644": 5198,
      "45pm": 5199,
      "l05": 5200,
      "l02": 5201,
      "l01": 5202,
      "l03": 5203,
      "l06": 5204,
      "c1​": 5205,
      "c2​": 5206,
      "instantiation": 5207,
      "##2465": 5208,
      "##248170": 5209,
      "##2902": 5210,
      "##44e": 5211,
      "##70e": 5212,
      "linkedlistnode": 5213,
      "destpos": 5214,
      "concurrentmod": 5215,
      "toolset": 5216,
      "bufferedinputstream": 5217,
      "bufferedreader": 5218,
      "srcpos": 5219,
      "1818": 5220,
      "48h": 5221,
      "432902": 5222,
      "5n2": 5223,
      "647": 5224,
      "648": 5225,
      "807": 5226,
      "808": 5227,
      "##2346": 5228,
      "##1570e": 5229,
      "breakpoint": 5230,
      "strassen": 5231,
      "##dollars": 5232,
      "categorizes": 5233,
      "alg2": 5234,
      "alg1": 5235,
      "5things": 5236,
      "generatesubs": 5237,
      "36288": 5238,
      "xss1g": 5239,
      "##412465": 5240,
      "##48623": 5241,
      "##7693": 5242,
      "##13to": 5243,
      "##1348623": 5244,
      "##ofboundsex": 5245,
      "junit": 5246,
      "gigabytes": 5247,
      "gnarley": 5248,
      "##atype": 5249,
      "parsed": 5250,
      "decrement": 5251,
      "gtas": 5252,
      "cyberdollars": 5253,
      "chatgpt": 5254,
      "megabytes": 5255,
      "datatype": 5256,
      "peppering": 5257,
      "pseudocode": 5258,
      "asymtotic": 5259,
      "reflexivity": 5260,
      "bipartite": 5261,
      "xmx": 5262,
      "codesketch": 5263,
      "jvm": 5264,
      "lafore": 5265,
      "rj13to": 5266,
      "v88": 5267,
      "nontrivial": 5268,
      "bubblesort": 5269,
      "dijkstra": 5270,
      "1n3": 5271,
      "2𝑘𝑘": 5272,
      "535": 5273,
      "6171": 5274,
      "797693": 5275,
      "768": 5276,
      "700ms": 5277,
      "94065": 5278,
      "996": 5279,
      "93landau": 5280,
      "giscard": 5281,
      "jgrasp": 5282,
      "mynode": 5283,
      "ℎmust": 5284,
      "→subject": 5285,
      "∴2h": 5286,
      "today": 5287,
      "gnarlytrees": 5288,
      "n2": 5289,
      "##smsg": 5290,
      "##43248170": 5291,
      "##84643248170": 5292,
      "##6458412465": 5293,
      "##638528860e": 5294,
      "intanceof": 5295,
      "arraybinarysearch": 5296,
      "classcastexception": 5297,
      "treeterminologies": 5298,
      "addnodeafter": 5299,
      "outofboundsmsg": 5300,
      "indexoutofboundsex": 5301,
      "stackoverflow": 5302,
      "getarea": 5303,
      "enqueuer": 5304,
      "unboxed": 5305,
      "unbuffered": 5306,
      "1048576": 5307,
      "booleanhasnext": 5308,
      "push232": 5309,
      "40282346": 5310,
      "4012984643248170": 5311,
      "concatenation": 5312,
      "fall2025": 5313,
      "numberformatexception": 5314,
      "1364444": 5315,
      "concurrentmodificationexception": 5316,
      "432902e": 5317,
      "generatesubsets": 5318,
      "3628800": 5319,
      "##13486231570e": 5320,
      "79769313486231570e": 5321,
      "940656458412465": 5322,
      "indexoutofboundsexception": 5323,
      "40282346638528860e": 5324,
      "40129846432481707e": 5325,
      "94065645841246544e": 5326,
      "bul": 5327,
      "bab": 5328,
      "crow": 5329,
      "cry": 5330,
      "hom": 5331,
      "kid": 5332,
      "lat": 5333,
      "mi": 5334,
      "men": 5335,
      "mass": 5336,
      "mort": 5337,
      "rot": 5338,
      "sed": 5339,
      "ul": 5340,
      "##rig": 5341,
      "##vin": 5342,
      "##aim": 5343,
      "##lan": 5344,
      "##bc": 5345,
      "##han": 5346,
      "##gon": 5347,
      "##kins": 5348,
      "##fl": 5349,
      "##ato": 5350,
      "##lets": 5351,
      "stre": 5352,
      "##mph": 5353,
      "##ront": 5354,
      "##ister": 5355,
      "##eness": 5356,
      "##sey": 5357,
      "##iling": 5358,
      "##amb": 5359,
      "mag": 5360,
      "##ander": 5361,
      "ros": 5362,
      "##key": 5363,
      "##berg": 5364,
      "esc": 5365,
      "hyp": 5366,
      "bol": 5367,
      "bull": 5368,
      "cand": 5369,
      "fle": 5370,
      "kil": 5371,
      "north": 5372,
      "vo": 5373,
      "vac": 5374,
      "wo": 5375,
      "wat": 5376,
      "##cra": 5377,
      "##off": 5378,
      "##rit": 5379,
      "##ters": 5380,
      "##ij": 5381,
      "##zer": 5382,
      "##mon": 5383,
      "##pes": 5384,
      "##gers": 5385,
      "##ki": 5386,
      "##win": 5387,
      "##jo": 5388,
      "##stored": 5389,
      "##ald": 5390,
      "##ram": 5391,
      "stock": 5392,
      "inn": 5393,
      "##enn": 5394,
      "##ena": 5395,
      "##utes": 5396,
      "##che": 5397,
      "##ada": 5398,
      "prom": 5399,
      "##amed": 5400,
      "##used": 5401,
      "##iel": 5402,
      "getstored": 5403,
      "##cking": 5404,
      "haw": 5405,
      "disp": 5406,
      "tri": 5407,
      "##ashed": 5408,
      "getstoredobject": 5409,
      "bill": 5410,
      "card": 5411,
      "fab": 5412,
      "hay": 5413,
      "lay": 5414,
      "nic": 5415,
      "ps": 5416,
      "pac": 5417,
      "south": 5418,
      "wall": 5419,
      "ze": 5420,
      "##rate": 5421,
      "##ners": 5422,
      "##aks": 5423,
      "##uit": 5424,
      "##mond": 5425,
      "##ped": 5426,
      "##fe": 5427,
      "##iner": 5428,
      "ther": 5429,
      "##arm": 5430,
      "##oura": 5431,
      "##any": 5432,
      "##roph": 5433,
      "##urb": 5434,
      "fort": 5435,
      "whe": 5436,
      "##ower": 5437,
      "##owed": 5438,
      "news": 5439,
      "##ulf": 5440,
      "##ulated": 5441,
      "##iously": 5442,
      "##cript": 5443,
      "##aked": 5444,
      "law": 5445,
      "##shire": 5446,
      "##arable": 5447,
      "##ography": 5448,
      "revol": 5449,
      "ath": 5450,
      "bos": 5451,
      "cu": 5452,
      "coun": 5453,
      "ded": 5454,
      "fed": 5455,
      "hen": 5456,
      "hem": 5457,
      "jer": 5458,
      "mut": 5459,
      "mich": 5460,
      "nor": 5461,
      "pra": 5462,
      "rain": 5463,
      "sou": 5464,
      "sen": 5465,
      "sent": 5466,
      "sab": 5467,
      "watch": 5468,
      "##va": 5469,
      "##iro": 5470,
      "##iate": 5471,
      "##ipped": 5472,
      "##lands": 5473,
      "##yer": 5474,
      "##pic": 5475,
      "##kin": 5476,
      "##fact": 5477,
      "##ston": 5478,
      "##sters": 5479,
      "##ala": 5480,
      "##aling": 5481,
      "##alth": 5482,
      "##alog": 5483,
      "##ingly": 5484,
      "sto": 5485,
      "##arr": 5486,
      "rene": 5487,
      "inh": 5488,
      "##asc": 5489,
      "##ller": 5490,
      "##cher": 5491,
      "##iring": 5492,
      "##unk": 5493,
      "prem": 5494,
      "mand": 5495,
      "##lock": 5496,
      "##ums": 5497,
      "##ola": 5498,
      "##ails": 5499,
      "##oney": 5500,
      "##akers": 5501,
      "phys": 5502,
      "##lessly": 5503,
      "##place": 5504,
      "techn": 5505,
      "snow": 5506,
      "broad": 5507,
      "terr": 5508,
      "##stein": 5509,
      "ax": 5510,
      "bed": 5511,
      "burn": 5512,
      "bay": 5513,
      "cit": 5514,
      "cath": 5515,
      "cell": 5516,
      "dam": 5517,
      "ger": 5518,
      "gab": 5519,
      "han": 5520,
      "house": 5521,
      "jac": 5522,
      "kar": 5523,
      "mun": 5524,
      "night": 5525,
      "pin": 5526,
      "rich": 5527,
      "sac": 5528,
      "tun": 5529,
      "vict": 5530,
      "##ded": 5531,
      "##rick": 5532,
      "##sc": 5533,
      "##ii": 5534,
      "##ique": 5535,
      "##lig": 5536,
      "##lers": 5537,
      "##bra": 5538,
      "##gate": 5539,
      "##erc": 5540,
      "##inate": 5541,
      "##atives": 5542,
      "thor": 5543,
      "##ora": 5544,
      "##oral": 5545,
      "##onic": 5546,
      "##rey": 5547,
      "##nding": 5548,
      "##iser": 5549,
      "##uth": 5550,
      "ange": 5551,
      "who": 5552,
      "whit": 5553,
      "##ota": 5554,
      "##oting": 5555,
      "##eman": 5556,
      "##ado": 5557,
      "##ilt": 5558,
      "##ently": 5559,
      "conv": 5560,
      "##ife": 5561,
      "##aming": 5562,
      "##ima": 5563,
      "tax": 5564,
      "maj": 5565,
      "unp": 5566,
      "##illa": 5567,
      "##illy": 5568,
      "##eps": 5569,
      "spl": 5570,
      "spect": 5571,
      "dism": 5572,
      "mob": 5573,
      "##erman": 5574,
      "trib": 5575,
      "gover": 5576,
      "scar": 5577,
      "##ags": 5578,
      "##wards": 5579,
      "blood": 5580,
      "merc": 5581,
      "hydro": 5582,
      "aqu": 5583,
      "bus": 5584,
      "bern": 5585,
      "cd": 5586,
      "cul": 5587,
      "cav": 5588,
      "cult": 5589,
      "clean": 5590,
      "ec": 5591,
      "fu": 5592,
      "fan": 5593,
      "fig": 5594,
      "jur": 5595,
      "mars": 5596,
      "nut": 5597,
      "nap": 5598,
      "pig": 5599,
      "park": 5600,
      "rod": 5601,
      "rac": 5602,
      "rig": 5603,
      "rap": 5604,
      "slo": 5605,
      "tit": 5606,
      "tick": 5607,
      "vent": 5608,
      "wild": 5609,
      "wol": 5610,
      "##oke": 5611,
      "##don": 5612,
      "##van": 5613,
      "##nie": 5614,
      "##aint": 5615,
      "##ipping": 5616,
      "##lam": 5617,
      "##bi": 5618,
      "##more": 5619,
      "##hi": 5620,
      "##wing": 5621,
      "##rel": 5622,
      "##uel": 5623,
      "##uting": 5624,
      "ado": 5625,
      "exce": 5626,
      "##aded": 5627,
      "##inter": 5628,
      "clar": 5629,
      "##irt": 5630,
      "hel": 5631,
      "##ourn": 5632,
      "##ika": 5633,
      "##mos": 5634,
      "##astic": 5635,
      "trad": 5636,
      "##imm": 5637,
      "##ials": 5638,
      "##illed": 5639,
      "##illing": 5640,
      "rom": 5641,
      "qual": 5642,
      "quart": 5643,
      "##ounds": 5644,
      "##tte": 5645,
      "abd": 5646,
      "##kee": 5647,
      "conte": 5648,
      "gold": 5649,
      "##resh": 5650,
      "##oms": 5651,
      "##agon": 5652,
      "##ugs": 5653,
      "##rance": 5654,
      "bomb": 5655,
      "invest": 5656,
      "##under": 5657,
      "sky": 5658,
      "motor": 5659,
      "anth": 5660,
      "barb": 5661,
      "milit": 5662,
      "micro": 5663,
      "ay": 5664,
      "ah": 5665,
      "aer": 5666,
      "ara": 5667,
      "bir": 5668,
      "civ": 5669,
      "cran": 5670,
      "dor": 5671,
      "dod": 5672,
      "dav": 5673,
      "dip": 5674,
      "fem": 5675,
      "fib": 5676,
      "gi": 5677,
      "gir": 5678,
      "gent": 5679,
      "gang": 5680,
      "hot": 5681,
      "hoo": 5682,
      "hang": 5683,
      "jack": 5684,
      "ky": 5685,
      "kick": 5686,
      "lor": 5687,
      "mist": 5688,
      "mast": 5689,
      "mind": 5690,
      "pil": 5691,
      "son": 5692,
      "sme": 5693,
      "sad": 5694,
      "sco": 5695,
      "ske": 5696,
      "serv": 5697,
      "ton": 5698,
      "ven": 5699,
      "vill": 5700,
      "wre": 5701,
      "##och": 5702,
      "##dr": 5703,
      "##rid": 5704,
      "##ria": 5705,
      "##ae": 5706,
      "##aine": 5707,
      "##ih": 5708,
      "##ipe": 5709,
      "##lor": 5710,
      "##bing": 5711,
      "##ban": 5712,
      "##uing": 5713,
      "##uce": 5714,
      "##pet": 5715,
      "##pass": 5716,
      "##hire": 5717,
      "##gl": 5718,
      "##wed": 5719,
      "##fa": 5720,
      "##fall": 5721,
      "##ja": 5722,
      "##eric": 5723,
      "##inn": 5724,
      "##inated": 5725,
      "##eding": 5726,
      "##itude": 5727,
      "##iced": 5728,
      "##aled": 5729,
      "stran": 5730,
      "##istan": 5731,
      "cos": 5732,
      "##llo": 5733,
      "##lls": 5734,
      "##lyn": 5735,
      "##sent": 5736,
      "##ila": 5737,
      "cla": 5738,
      "##irs": 5739,
      "##orts": 5740,
      "conce": 5741,
      "##the": 5742,
      "asp": 5743,
      "##ival": 5744,
      "##mont": 5745,
      "##aste": 5746,
      "sher": 5747,
      "mah": 5748,
      "comparable": 5749,
      "##arts": 5750,
      "suff": 5751,
      "##clus": 5752,
      "##claim": 5753,
      "##tered": 5754,
      "##eping": 5755,
      "##ained": 5756,
      "##comm": 5757,
      "##encies": 5758,
      "##omy": 5759,
      "collect": 5760,
      "host": 5761,
      "##apped": 5762,
      "counter": 5763,
      "optim": 5764,
      "buck": 5765,
      "##ups": 5766,
      "##ashing": 5767,
      "##okes": 5768,
      "cross": 5769,
      "cou": 5770,
      "cant": 5771,
      "cel": 5772,
      "dal": 5773,
      "dro": 5774,
      "dow": 5775,
      "ey": 5776,
      "fish": 5777,
      "ic": 5778,
      "ib": 5779,
      "jan": 5780,
      "ker": 5781,
      "lou": 5782,
      "mes": 5783,
      "mit": 5784,
      "mig": 5785,
      "mount": 5786,
      "sex": 5787,
      "tu": 5788,
      "van": 5789,
      "vib": 5790,
      "##ec": 5791,
      "##oe": 5792,
      "##omet": 5793,
      "##val": 5794,
      "##away": 5795,
      "##ias": 5796,
      "##lon": 5797,
      "##lia": 5798,
      "##bon": 5799,
      "##bly": 5800,
      "##born": 5801,
      "##ugh": 5802,
      "##zy": 5803,
      "##po": 5804,
      "##wick": 5805,
      "##ji": 5806,
      "##oned": 5807,
      "##rep": 5808,
      "##alist": 5809,
      "tom": 5810,
      "tow": 5811,
      "ine": 5812,
      "inj": 5813,
      "incon": 5814,
      "neut": 5815,
      "cooper": 5816,
      "##cha": 5817,
      "##ida": 5818,
      "chron": 5819,
      "##ulating": 5820,
      "##aches": 5821,
      "##ami": 5822,
      "##antly": 5823,
      "##ikes": 5824,
      "lev": 5825,
      "ship": 5826,
      "gran": 5827,
      "##mmy": 5828,
      "##cker": 5829,
      "##uster": 5830,
      "##tering": 5831,
      "arr2": 5832,
      "overl": 5833,
      "mol": 5834,
      "##0000": 5835,
      "##quent": 5836,
      "tend": 5837,
      "##udd": 5838,
      "contra": 5839,
      "##fts": 5840,
      "##opath": 5841,
      "apolog": 5842,
      "deter": 5843,
      "##ension": 5844,
      "result2": 5845,
      "school": 5846,
      "homo": 5847,
      "##ugg": 5848,
      "##iana": 5849,
      "##hips": 5850,
      "cru": 5851,
      "##anna": 5852,
      "##arily": 5853,
      "##ogen": 5854,
      "tostore": 5855,
      "smallerarr": 5856,
      "az": 5857,
      "bh": 5858,
      "bath": 5859,
      "blow": 5860,
      "cad": 5861,
      "dil": 5862,
      "dream": 5863,
      "east": 5864,
      "gas": 5865,
      "hed": 5866,
      "hill": 5867,
      "kim": 5868,
      "lic": 5869,
      "len": 5870,
      "lau": 5871,
      "match": 5872,
      "national": 5873,
      "ow": 5874,
      "pap": 5875,
      "rab": 5876,
      "sant": 5877,
      "sque": 5878,
      "sau": 5879,
      "tal": 5880,
      "tub": 5881,
      "tort": 5882,
      "vit": 5883,
      "vide": 5884,
      "##ont": 5885,
      "##osis": 5886,
      "##di": 5887,
      "##right": 5888,
      "##rich": 5889,
      "##rating": 5890,
      "##nce": 5891,
      "##iance": 5892,
      "##burn": 5893,
      "##bel": 5894,
      "##uation": 5895,
      "##hr": 5896,
      "##hand": 5897,
      "##gent": 5898,
      "##fish": 5899,
      "##era": 5900,
      "##eration": 5901,
      "##inations": 5902,
      "thick": 5903,
      "##esh": 5904,
      "##oning": 5905,
      "##rell": 5906,
      "##itz": 5907,
      "##itors": 5908,
      "##icated": 5909,
      "##ali": 5910,
      "##arth": 5911,
      "react": 5912,
      "invent": 5913,
      "##mps": 5914,
      "##asm": 5915,
      "##rog": 5916,
      "cow": 5917,
      "##etics": 5918,
      "##urt": 5919,
      "anim": 5920,
      "##cho": 5921,
      "orch": 5922,
      "clim": 5923,
      "##acking": 5924,
      "bea": 5925,
      "##irk": 5926,
      "##izer": 5927,
      "##pel": 5928,
      "outl": 5929,
      "##aph": 5930,
      "##appe": 5931,
      "cann": 5932,
      "##aya": 5933,
      "##using": 5934,
      "##asts": 5935,
      "insp": 5936,
      "##cked": 5937,
      "roy": 5938,
      "quant": 5939,
      "##ounded": 5940,
      "disapp": 5941,
      "overt": 5942,
      "##ables": 5943,
      "impl": 5944,
      "impress": 5945,
      "##udes": 5946,
      "twe": 5947,
      "##umin": 5948,
      "##icked": 5949,
      "##oman": 5950,
      "plant": 5951,
      "##iction": 5952,
      "##ishes": 5953,
      "corn": 5954,
      "##ailed": 5955,
      "##ailing": 5956,
      "##logist": 5957,
      "##logical": 5958,
      "bru": 5959,
      "geor": 5960,
      "##itters": 5961,
      "##ried": 5962,
      "##bell": 5963,
      "boy": 5964,
      "flu": 5965,
      "auth": 5966,
      "##inson": 5967,
      "phen": 5968,
      "##ashes": 5969,
      "transl": 5970,
      "recogn": 5971,
      "brand": 5972,
      "esp": 5973,
      "##market": 5974,
      "##arant": 5975,
      "colon": 5976,
      "capital": 5977,
      "cele": 5978,
      "critic": 5979,
      "wheel": 5980,
      "a1": 5981,
      "austr": 5982,
      "b1": 5983,
      "b3": 5984,
      "bou": 5985,
      "bang": 5986,
      "batt": 5987,
      "cass": 5988,
      "cert": 5989,
      "dut": 5990,
      "dub": 5991,
      "dark": 5992,
      "dick": 5993,
      "eu": 5994,
      "ell": 5995,
      "eye": 5996,
      "fat": 5997,
      "fut": 5998,
      "fel": 5999,
      "gle": 6000,
      "gut": 6001,
      "gard": 6002,
      "germ": 6003,
      "hus": 6004,
      "hind": 6005,
      "jam": 6006,
      "jump": 6007,
      "ka": 6008,
      "les": 6009,
      "lad": 6010,
      "lyn": 6011,
      "lag": 6012,
      "mir": 6013,
      "nit": 6014,
      "nig": 6015,
      "nik": 6016,
      "ol": 6017,
      "por": 6018,
      "pul": 6019,
      "pant": 6020,
      "ran": 6021,
      "tan": 6022,
      "va": 6023,
      "vic": 6024,
      "vig": 6025,
      "voc": 6026,
      "vel": 6027,
      "woo": 6028,
      "yu": 6029,
      "##dale": 6030,
      "##dog": 6031,
      "##now": 6032,
      "##sed": 6033,
      "##sen": 6034,
      "##set": 6035,
      "##tic": 6036,
      "##iating": 6037,
      "##bar": 6038,
      "##bert": 6039,
      "##band": 6040,
      "##bling": 6041,
      "##bird": 6042,
      "##bby": 6043,
      "##zo": 6044,
      "##max": 6045,
      "##pie": 6046,
      "##hy": 6047,
      "##weight": 6048,
      "##fort": 6049,
      "##fire": 6050,
      "##aton": 6051,
      "##aters": 6052,
      "##organ": 6053,
      "##nts": 6054,
      "##rew": 6055,
      "##itate": 6056,
      "##itated": 6057,
      "##ioned": 6058,
      "##rac": 6059,
      "sty": 6060,
      "touch": 6061,
      "ree": 6062,
      "reass": 6063,
      "##asing": 6064,
      "##isl": 6065,
      "##eted": 6066,
      "##ury": 6067,
      "strat": 6068,
      "clo": 6069,
      "##acked": 6070,
      "##irl": 6071,
      "sec": 6072,
      "depend": 6073,
      "som": 6074,
      "##ulates": 6075,
      "##aching": 6076,
      "retre": 6077,
      "dog": 6078,
      "doct": 6079,
      "##oured": 6080,
      "##unction": 6081,
      "##iah": 6082,
      "explo": 6083,
      "##ims": 6084,
      "shel": 6085,
      "pret": 6086,
      "##ipper": 6087,
      "une": 6088,
      "uncon": 6089,
      "compl": 6090,
      "##anda": 6091,
      "##gram": 6092,
      "##alled": 6093,
      "##ocr": 6094,
      "constit": 6095,
      "spir": 6096,
      "undert": 6097,
      "##coming": 6098,
      "mos": 6099,
      "desp": 6100,
      "consult": 6101,
      "conserv": 6102,
      "subt": 6103,
      "##umble": 6104,
      "minim": 6105,
      "##crimin": 6106,
      "##conom": 6107,
      "manif": 6108,
      "##osh": 6109,
      "##oma": 6110,
      "scra": 6111,
      "modern": 6112,
      "corp": 6113,
      "##aka": 6114,
      "carp": 6115,
      "bron": 6116,
      "holl": 6117,
      "##ugging": 6118,
      "champ": 6119,
      "perpet": 6120,
      "occup": 6121,
      "rede": 6122,
      "transform": 6123,
      "##ifications": 6124,
      "harmon": 6125,
      "hyper": 6126,
      "irre": 6127,
      "hero": 6128,
      "secret": 6129,
      "radio": 6130,
      "sweet": 6131,
      "validation": 6132,
      "social": 6133,
      "polit": 6134,
      "govern": 6135,
      "ak": 6136,
      "amp": 6137,
      "bic": 6138,
      "bure": 6139,
      "bun": 6140,
      "bush": 6141,
      "bag": 6142,
      "bird": 6143,
      "bah": 6144,
      "bapt": 6145,
      "cer": 6146,
      "cin": 6147,
      "cens": 6148,
      "coup": 6149,
      "dy": 6150,
      "dw": 6151,
      "did": 6152,
      "dumb": 6153,
      "eco": 6154,
      "fet": 6155,
      "fuck": 6156,
      "fresh": 6157,
      "gor": 6158,
      "gon": 6159,
      "gly": 6160,
      "gil": 6161,
      "gam": 6162,
      "gill": 6163,
      "gib": 6164,
      "iron": 6165,
      "jon": 6166,
      "king": 6167,
      "lit": 6168,
      "lav": 6169,
      "lun": 6170,
      "lim": 6171,
      "lip": 6172,
      "mack": 6173,
      "mck": 6174,
      "nas": 6175,
      "nag": 6176,
      "ov": 6177,
      "pon": 6178,
      "pic": 6179,
      "pull": 6180,
      "ry": 6181,
      "ron": 6182,
      "ric": 6183,
      "rav": 6184,
      "rud": 6185,
      "rick": 6186,
      "sar": 6187,
      "tap": 6188,
      "tam": 6189,
      "uph": 6190,
      "viv": 6191,
      "zoo": 6192,
      "##ew": 6193,
      "##ees": 6194,
      "##eur": 6195,
      "##ci": 6196,
      "##can": 6197,
      "##oons": 6198,
      "##rus": 6199,
      "##riend": 6200,
      "##rison": 6201,
      "##tc": 6202,
      "##aid": 6203,
      "##iat": 6204,
      "##iac": 6205,
      "##iment": 6206,
      "##iqu": 6207,
      "##iary": 6208,
      "##bl": 6209,
      "##bers": 6210,
      "##backs": 6211,
      "##ua": 6212,
      "##uity": 6213,
      "##umm": 6214,
      "##uated": 6215,
      "##my": 6216,
      "##mat": 6217,
      "##mar": 6218,
      "##gal": 6219,
      "##gie": 6220,
      "##wa": 6221,
      "##wich": 6222,
      "##fc": 6223,
      "##fo": 6224,
      "##eria": 6225,
      "##erved": 6226,
      "##oria": 6227,
      "##ories": 6228,
      "##ede": 6229,
      "##lene": 6230,
      "##ito": 6231,
      "##ales": 6232,
      "##alism": 6233,
      "##inging": 6234,
      "##ington": 6235,
      "##ods": 6236,
      "##rain": 6237,
      "##rass": 6238,
      "stim": 6239,
      "story": 6240,
      "stabil": 6241,
      "reb": 6242,
      "rect": 6243,
      "rever": 6244,
      "inhib": 6245,
      "##mpton": 6246,
      "##asy": 6247,
      "##anne": 6248,
      "##roc": 6249,
      "##roy": 6250,
      "##isa": 6251,
      "cock": 6252,
      "colo": 6253,
      "advert": 6254,
      "##mented": 6255,
      "##celer": 6256,
      "##igan": 6257,
      "press": 6258,
      "##asses": 6259,
      "##inted": 6260,
      "cler": 6261,
      "clin": 6262,
      "proph": 6263,
      "progress": 6264,
      "bell": 6265,
      "industr": 6266,
      "weak": 6267,
      "hell": 6268,
      "conj": 6269,
      "congr": 6270,
      "##ths": 6271,
      "chem": 6272,
      "youn": 6273,
      "##acher": 6274,
      "returnmax": 6275,
      "pand": 6276,
      "##lists": 6277,
      "symp": 6278,
      "lew": 6279,
      "##imate": 6280,
      "##ppy": 6281,
      "grass": 6282,
      "##pher": 6283,
      "##phone": 6284,
      "##grad": 6285,
      "roman": 6286,
      "curt": 6287,
      "resist": 6288,
      "resur": 6289,
      "resid": 6290,
      "##arted": 6291,
      "install": 6292,
      "##ocation": 6293,
      "##clos": 6294,
      "##ardo": 6295,
      "spot": 6296,
      "dish": 6297,
      "trou": 6298,
      "contract": 6299,
      "love": 6300,
      "##cry": 6301,
      "scot": 6302,
      "amaz": 6303,
      "comme": 6304,
      "depress": 6305,
      "plat": 6306,
      "maxim": 6307,
      "##isha": 6308,
      "##wear": 6309,
      "educ": 6310,
      "bright": 6311,
      "friend": 6312,
      "bloo": 6313,
      "blind": 6314,
      "peri": 6315,
      "##atively": 6316,
      "##nell": 6317,
      "emphas": 6318,
      "employ": 6319,
      "flav": 6320,
      "transm": 6321,
      "guarant": 6322,
      "raj": 6323,
      "##lence": 6324,
      "laure": 6325,
      "emer": 6326,
      "brain": 6327,
      "breath": 6328,
      "##berry": 6329,
      "harv": 6330,
      "barn": 6331,
      "immun": 6332,
      "decor": 6333,
      "negot": 6334,
      "mete": 6335,
      "##contin": 6336,
      "legisl": 6337,
      "osc": 6338,
      "subsid": 6339,
      "##bridge": 6340,
      "mygenericins": 6341,
      "##rants": 6342,
      "john": 6343,
      "adopt": 6344,
      "investig": 6345,
      "celebr": 6346,
      "ack": 6347,
      "ampl": 6348,
      "bot": 6349,
      "bust": 6350,
      "bond": 6351,
      "cata": 6352,
      "cort": 6353,
      "cater": 6354,
      "dent": 6355,
      "dread": 6356,
      "divers": 6357,
      "daw": 6358,
      "euro": 6359,
      "furn": 6360,
      "fert": 6361,
      "fant": 6362,
      "fasc": 6363,
      "gy": 6364,
      "gest": 6365,
      "gust": 6366,
      "hs": 6367,
      "hes": 6368,
      "hut": 6369,
      "hub": 6370,
      "hart": 6371,
      "hop": 6372,
      "hatch": 6373,
      "iv": 6374,
      "ip": 6375,
      "jose": 6376,
      "kin": 6377,
      "kat": 6378,
      "kra": 6379,
      "lod": 6380,
      "lac": 6381,
      "lem": 6382,
      "lap": 6383,
      "lam": 6384,
      "liv": 6385,
      "lik": 6386,
      "lie": 6387,
      "lux": 6388,
      "mul": 6389,
      "mary": 6390,
      "moth": 6391,
      "mother": 6392,
      "mira": 6393,
      "ny": 6394,
      "nin": 6395,
      "nick": 6396,
      "oce": 6397,
      "pad": 6398,
      "pent": 6399,
      "purs": 6400,
      "pitt": 6401,
      "pier": 6402,
      "rat": 6403,
      "ray": 6404,
      "riv": 6405,
      "rum": 6406,
      "river": 6407,
      "sie": 6408,
      "sound": 6409,
      "sick": 6410,
      "sag": 6411,
      "tod": 6412,
      "ug": 6413,
      "uk": 6414,
      "upt": 6415,
      "utt": 6416,
      "vul": 6417,
      "yor": 6418,
      "##dra": 6419,
      "##rous": 6420,
      "##rics": 6421,
      "##rian": 6422,
      "##tion": 6423,
      "##iar": 6424,
      "##iot": 6425,
      "##iam": 6426,
      "##iates": 6427,
      "##lk": 6428,
      "##lif": 6429,
      "##body": 6430,
      "##ume": 6431,
      "##uits": 6432,
      "##ycl": 6433,
      "##hm": 6434,
      "##hall": 6435,
      "##hart": 6436,
      "##got": 6437,
      "##gger": 6438,
      "##wan": 6439,
      "##west": 6440,
      "##watch": 6441,
      "##face": 6442,
      "##erate": 6443,
      "##inity": 6444,
      "##inating": 6445,
      "##ati": 6446,
      "##orates": 6447,
      "##state": 6448,
      "##reh": 6449,
      "##rett": 6450,
      "##lem": 6451,
      "##itan": 6452,
      "##itis": 6453,
      "##itating": 6454,
      "##icing": 6455,
      "##icient": 6456,
      "##ician": 6457,
      "##alized": 6458,
      "##odies": 6459,
      "##rage": 6460,
      "stro": 6461,
      "stub": 6462,
      "storm": 6463,
      "stren": 6464,
      "tooth": 6465,
      "toler": 6466,
      "##arn": 6467,
      "##ares": 6468,
      "##oul": 6469,
      "inqu": 6470,
      "inject": 6471,
      "##acle": 6472,
      "##rob": 6473,
      "##rome": 6474,
      "##rose": 6475,
      "##isers": 6476,
      "cool": 6477,
      "coinc": 6478,
      "##eto": 6479,
      "##etically": 6480,
      "##atable": 6481,
      "##urch": 6482,
      "anch": 6483,
      "advent": 6484,
      "##oto": 6485,
      "##ems": 6486,
      "##ema": 6487,
      "##cel": 6488,
      "exhib": 6489,
      "##uctive": 6490,
      "##chant": 6491,
      "pron": 6492,
      "##idal": 6493,
      "##idity": 6494,
      "##iders": 6495,
      "##inth": 6496,
      "beck": 6497,
      "alt": 6498,
      "season": 6499,
      "##esty": 6500,
      "##izations": 6501,
      "soph": 6502,
      "hend": 6503,
      "heav": 6504,
      "outs": 6505,
      "conse": 6506,
      "conqu": 6507,
      "##apy": 6508,
      "##aping": 6509,
      "cher": 6510,
      "chuck": 6511,
      "##ulpt": 6512,
      "##esses": 6513,
      "##erton": 6514,
      "##iveness": 6515,
      "##ersh": 6516,
      "##ership": 6517,
      "##oop": 6518,
      "##ouring": 6519,
      "paul": 6520,
      "##asting": 6521,
      "##una": 6522,
      "##imon": 6523,
      "shop": 6524,
      "tact": 6525,
      "##oids": 6526,
      "unin": 6527,
      "compress": 6528,
      "##iller": 6529,
      "roll": 6530,
      "sett": 6531,
      "resc": 6532,
      "reson": 6533,
      "resol": 6534,
      "respect": 6535,
      "instit": 6536,
      "sug": 6537,
      "sust": 6538,
      "nom": 6539,
      "nomin": 6540,
      "##rows": 6541,
      "memor": 6542,
      "##iley": 6543,
      "spark": 6544,
      "disl": 6545,
      "dispos": 6546,
      "imper": 6547,
      "defend": 6548,
      "trick": 6549,
      "##kel": 6550,
      "assert": 6551,
      "assemb": 6552,
      "reprod": 6553,
      "##uded": 6554,
      "consp": 6555,
      "##umes": 6556,
      "recip": 6557,
      "mend": 6558,
      "##ought": 6559,
      "manu": 6560,
      "ima": 6561,
      "##osa": 6562,
      "##osph": 6563,
      "sculpt": 6564,
      "plac": 6565,
      "coron": 6566,
      "##boy": 6567,
      "##iology": 6568,
      "##ague": 6569,
      "##aunt": 6570,
      "##aken": 6571,
      "carn": 6572,
      "brun": 6573,
      "##ugged": 6574,
      "##ologist": 6575,
      "acceler": 6576,
      "##rier": 6577,
      "buff": 6578,
      "buzz": 6579,
      "narc": 6580,
      "bog": 6581,
      "flor": 6582,
      "grie": 6583,
      "pharm": 6584,
      "surv": 6585,
      "surre": 6586,
      "entertain": 6587,
      "smart": 6588,
      "ramp": 6589,
      "##lessness": 6590,
      "krist": 6591,
      "cruc": 6592,
      "##graphy": 6593,
      "princip": 6594,
      "veget": 6595,
      "regist": 6596,
      "harb": 6597,
      "reform": 6598,
      "oblig": 6599,
      "patri": 6600,
      "salv": 6601,
      "conform": 6602,
      "diver": 6603,
      "craw": 6604,
      "morph": 6605,
      "##umps": 6606,
      "straight": 6607,
      "communic": 6608,
      "earth": 6609,
      "extre": 6610,
      "##aughter": 6611,
      "liqu": 6612,
      "godd": 6613,
      "ethn": 6614,
      "photograph": 6615,
      "##borough": 6616,
      "elev": 6617,
      "budd": 6618,
      "sharp": 6619,
      "absor": 6620,
      "ult": 6621,
      "##craft": 6622,
      "mobil": 6623,
      "civil": 6624,
      "diplo": 6625,
      "meteor": 6626,
      "ale": 6627,
      "aust": 6628,
      "bm": 6629,
      "bil": 6630,
      "bast": 6631,
      "bart": 6632,
      "bib": 6633,
      "blog": 6634,
      "cm": 6635,
      "cir": 6636,
      "cup": 6637,
      "cash": 6638,
      "dh": 6639,
      "dj": 6640,
      "dial": 6641,
      "dorm": 6642,
      "dress": 6643,
      "dys": 6644,
      "damp": 6645,
      "econom": 6646,
      "fing": 6647,
      "fue": 6648,
      "fir": 6649,
      "flic": 6650,
      "face": 6651,
      "fond": 6652,
      "father": 6653,
      "fulf": 6654,
      "gw": 6655,
      "gren": 6656,
      "gym": 6657,
      "hod": 6658,
      "hast": 6659,
      "him": 6660,
      "hib": 6661,
      "hors": 6662,
      "hung": 6663,
      "hook": 6664,
      "hipp": 6665,
      "ice": 6666,
      "jen": 6667,
      "journ": 6668,
      "kam": 6669,
      "kay": 6670,
      "ling": 6671,
      "lan": 6672,
      "lig": 6673,
      "lex": 6674,
      "lub": 6675,
      "lands": 6676,
      "luck": 6677,
      "mp": 6678,
      "mam": 6679,
      "mim": 6680,
      "mong": 6681,
      "mull": 6682,
      "mamm": 6683,
      "nort": 6684,
      "noo": 6685,
      "nich": 6686,
      "oly": 6687,
      "overs": 6688,
      "ott": 6689,
      "pi": 6690,
      "pas": 6691,
      "pill": 6692,
      "padd": 6693,
      "pitch": 6694,
      "porn": 6695,
      "rou": 6696,
      "ss": 6697,
      "sut": 6698,
      "sid": 6699,
      "sile": 6700,
      "song": 6701,
      "tac": 6702,
      "til": 6703,
      "tant": 6704,
      "tum": 6705,
      "vin": 6706,
      "wy": 6707,
      "wis": 6708,
      "wag": 6709,
      "wash": 6710,
      "xx": 6711,
      "zh": 6712,
      "##eu": 6713,
      "##een": 6714,
      "##ech": 6715,
      "##cil": 6716,
      "##cers": 6717,
      "##oh": 6718,
      "##rial": 6719,
      "##rical": 6720,
      "##rates": 6721,
      "##ridge": 6722,
      "##vy": 6723,
      "##vable": 6724,
      "##night": 6725,
      "##nel": 6726,
      "##tv": 6727,
      "##aa": 6728,
      "##ape": 6729,
      "##action": 6730,
      "##iant": 6731,
      "##lar": 6732,
      "##lay": 6733,
      "##lies": 6734,
      "##long": 6735,
      "##bro": 6736,
      "##bie": 6737,
      "##bility": 6738,
      "##uge": 6739,
      "##upt": 6740,
      "##zing": 6741,
      "##mes": 6742,
      "##mith": 6743,
      "##mers": 6744,
      "##pin": 6745,
      "##pat": 6746,
      "##pan": 6747,
      "##hn": 6748,
      "##hem": 6749,
      "##hard": 6750,
      "##hole": 6751,
      "##gre": 6752,
      "##gets": 6753,
      "##ket": 6754,
      "##wall": 6755,
      "##walk": 6756,
      "##ffs": 6757,
      "##front": 6758,
      "##ju": 6759,
      "##erving": 6760,
      "##atri": 6761,
      "thunder": 6762,
      "##orated": 6763,
      "##onia": 6764,
      "##onian": 6765,
      "##sts": 6766,
      "##sted": 6767,
      "##storm": 6768,
      "##stown": 6769,
      "##eder": 6770,
      "##reat": 6771,
      "##lend": 6772,
      "##lett": 6773,
      "##leton": 6774,
      "##itarian": 6775,
      "##icles": 6776,
      "##alia": 6777,
      "##alities": 6778,
      "##alists": 6779,
      "##ingle": 6780,
      "##oding": 6781,
      "##rael": 6782,
      "ster": 6783,
      "stere": 6784,
      "stag": 6785,
      "##ouch": 6786,
      "rent": 6787,
      "reun": 6788,
      "reck": 6789,
      "##acc": 6790,
      "##acious": 6791,
      "##ani": 6792,
      "##aned": 6793,
      "##aning": 6794,
      "##ania": 6795,
      "##rot": 6796,
      "##rol": 6797,
      "##isted": 6798,
      "inters": 6799,
      "intens": 6800,
      "##isf": 6801,
      "##isco": 6802,
      "##isms": 6803,
      "cob": 6804,
      "islam": 6805,
      "##urer": 6806,
      "##urity": 6807,
      "analog": 6808,
      "##rays": 6809,
      "##mental": 6810,
      "##menting": 6811,
      "whist": 6812,
      "##otes": 6813,
      "##otion": 6814,
      "##cell": 6815,
      "##igo": 6816,
      "##igs": 6817,
      "##chem": 6818,
      "##ador": 6819,
      "##adow": 6820,
      "##idly": 6821,
      "##see": 6822,
      "##iler": 6823,
      "##inton": 6824,
      "prost": 6825,
      "propos": 6826,
      "alco": 6827,
      "##enth": 6828,
      "##estone": 6829,
      "solo": 6830,
      "health": 6831,
      "##orting": 6832,
      "concent": 6833,
      "##aped": 6834,
      "##iful": 6835,
      "##iffs": 6836,
      "asc": 6837,
      "##ulations": 6838,
      "##essing": 6839,
      "##aved": 6840,
      "##amy": 6841,
      "dol": 6842,
      "##ayed": 6843,
      "##aying": 6844,
      "##iva": 6845,
      "##usc": 6846,
      "##atics": 6847,
      "##ourne": 6848,
      "##iki": 6849,
      "##iking": 6850,
      "##mob": 6851,
      "exped": 6852,
      "leon": 6853,
      "##imb": 6854,
      "##imer": 6855,
      "shell": 6856,
      "preced": 6857,
      "##ipl": 6858,
      "##ipher": 6859,
      "##mming": 6860,
      "compos": 6861,
      "compli": 6862,
      "##phy": 6863,
      "##ptic": 6864,
      "rose": 6865,
      "##alling": 6866,
      "##arting": 6867,
      "##ouses": 6868,
      "hamp": 6869,
      "sud": 6870,
      "sund": 6871,
      "nov": 6872,
      "apprec": 6873,
      "##ounding": 6874,
      "##arding": 6875,
      "##athy": 6876,
      "##athan": 6877,
      "##athers": 6878,
      "spo": 6879,
      "disag": 6880,
      "disrupt": 6881,
      "##abs": 6882,
      "##copic": 6883,
      "##encing": 6884,
      "##iors": 6885,
      "desert": 6886,
      "myth": 6887,
      "trig": 6888,
      "trip": 6889,
      "assass": 6890,
      "repub": 6891,
      "##uding": 6892,
      "##ushed": 6893,
      "##ushing": 6894,
      "consol": 6895,
      "contrad": 6896,
      "recre": 6897,
      "recru": 6898,
      "loy": 6899,
      "pel": 6900,
      "commission": 6901,
      "##cred": 6902,
      "##conn": 6903,
      "##icking": 6904,
      "##llen": 6905,
      "##lley": 6906,
      "##anship": 6907,
      "circum": 6908,
      "##osoph": 6909,
      "americ": 6910,
      "depos": 6911,
      "##enses": 6912,
      "##active": 6913,
      "relie": 6914,
      "logic": 6915,
      "##atern": 6916,
      "##ictions": 6917,
      "##ishment": 6918,
      "##ernand": 6919,
      "cord": 6920,
      "##rying": 6921,
      "##yman": 6922,
      "##ago": 6923,
      "##agan": 6924,
      "##auc": 6925,
      "##standing": 6926,
      "evange": 6927,
      "brid": 6928,
      "highly": 6929,
      "counting": 6930,
      "##issions": 6931,
      "##ologists": 6932,
      "##iano": 6933,
      "##uality": 6934,
      "##atches": 6935,
      "##atched": 6936,
      "wrest": 6937,
      "bund": 6938,
      "matt": 6939,
      "flat": 6940,
      "flag": 6941,
      "flash": 6942,
      "grat": 6943,
      "conduct": 6944,
      "transcend": 6945,
      "##anking": 6946,
      "##oking": 6947,
      "crist": 6948,
      "cris": 6949,
      "supervis": 6950,
      "##aha": 6951,
      "joy": 6952,
      "attract": 6953,
      "supplement": 6954,
      "obsc": 6955,
      "##shot": 6956,
      "reflect": 6957,
      "liber": 6958,
      "##ounced": 6959,
      "##anned": 6960,
      "##arians": 6961,
      "##aneous": 6962,
      "brook": 6963,
      "##ova": 6964,
      "naz": 6965,
      "##lson": 6966,
      "steph": 6967,
      "labor": 6968,
      "crack": 6969,
      "excav": 6970,
      "franc": 6971,
      "franch": 6972,
      "mcm": 6973,
      "respond": 6974,
      "oppress": 6975,
      "paraly": 6976,
      "synch": 6977,
      "brown": 6978,
      "accomp": 6979,
      "##attering": 6980,
      "august": 6981,
      "year": 6982,
      "##unts": 6983,
      "campa": 6984,
      "##uffed": 6985,
      "epid": 6986,
      "medic": 6987,
      "##ground": 6988,
      "gross": 6989,
      "##airs": 6990,
      "restriction": 6991,
      "meaning": 6992,
      "polar": 6993,
      "sanct": 6994,
      "diagn": 6995,
      "shoot": 6996,
      "punct": 6997,
      "##rooms": 6998,
      "philosoph": 6999,
      "pyth": 7000,
      "##cribed": 7001,
      "influ": 7002,
      "kidn": 7003,
      "escal": 7004,
      "hypoth": 7005,
      "innov": 7006,
      "dispens": 7007,
      "zeal": 7008,
      "##ourage": 7009,
      "terror": 7010,
      "dismiss": 7011,
      "##keeper": 7012,
      "gentle": 7013,
      "towns": 7014,
      "orchest": 7015,
      "bureau": 7016,
      "congrat": 7017,
      "commem": 7018,
      "period": 7019,
      "manufact": 7020,
      "imagin": 7021,
      "olymp": 7022,
      "ae": 7023,
      "bin": 7024,
      "bing": 7025,
      "bod": 7026,
      "bree": 7027,
      "bug": 7028,
      "ces": 7029,
      "came": 7030,
      "caf": 7031,
      "die": 7032,
      "duck": 7033,
      "dwell": 7034,
      "eb": 7035,
      "ess": 7036,
      "fid": 7037,
      "fest": 7038,
      "fight": 7039,
      "fract": 7040,
      "fren": 7041,
      "flex": 7042,
      "firm": 7043,
      "gur": 7044,
      "gif": 7045,
      "gate": 7046,
      "gast": 7047,
      "game": 7048,
      "gag": 7049,
      "gaz": 7050,
      "gamb": 7051,
      "hr": 7052,
      "hack": 7053,
      "hav": 7054,
      "hust": 7055,
      "hitch": 7056,
      "horn": 7057,
      "hij": 7058,
      "ig": 7059,
      "ille": 7060,
      "ja": 7061,
      "jes": 7062,
      "jess": 7063,
      "jay": 7064,
      "jord": 7065,
      "ku": 7066,
      "kan": 7067,
      "kiss": 7068,
      "las": 7069,
      "lut": 7070,
      "lil": 7071,
      "lia": 7072,
      "lingu": 7073,
      "laugh": 7074,
      "loud": 7075,
      "mex": 7076,
      "mant": 7077,
      "mour": 7078,
      "mall": 7079,
      "mix": 7080,
      "madd": 7081,
      "mouth": 7082,
      "nation": 7083,
      "nad": 7084,
      "pp": 7085,
      "pit": 7086,
      "pod": 7087,
      "pist": 7088,
      "pix": 7089,
      "panc": 7090,
      "pict": 7091,
      "ras": 7092,
      "rust": 7093,
      "rib": 7094,
      "rail": 7095,
      "rag": 7096,
      "rational": 7097,
      "sod": 7098,
      "sas": 7099,
      "sul": 7100,
      "sight": 7101,
      "sadd": 7102,
      "sense": 7103,
      "tet": 7104,
      "tig": 7105,
      "tex": 7106,
      "tack": 7107,
      "tib": 7108,
      "tong": 7109,
      "valent": 7110,
      "veter": 7111,
      "ww": 7112,
      "wit": 7113,
      "wet": 7114,
      "wiz": 7115,
      "ward": 7116,
      "wire": 7117,
      "yam": 7118,
      "##eer": 7119,
      "##eav": 7120,
      "##elle": 7121,
      "##cat": 7122,
      "##cut": 7123,
      "##cies": 7124,
      "##ois": 7125,
      "##occ": 7126,
      "##dp": 7127,
      "##des": 7128,
      "##days": 7129,
      "##rest": 7130,
      "##rim": 7131,
      "##rill": 7132,
      "##rition": 7133,
      "##vie": 7134,
      "##nis": 7135,
      "##net": 7136,
      "##nam": 7137,
      "##nett": 7138,
      "##sm": 7139,
      "##sse": 7140,
      "##sets": 7141,
      "##tub": 7142,
      "##top": 7143,
      "##ao": 7144,
      "##ael": 7145,
      "##imo": 7146,
      "##iative": 7147,
      "##iety": 7148,
      "##bin": 7149,
      "##uary": 7150,
      "##umber": 7151,
      "##uating": 7152,
      "##uces": 7153,
      "##umpt": 7154,
      "##zed": 7155,
      "##zel": 7156,
      "##yth": 7157,
      "##yard": 7158,
      "##mas": 7159,
      "##mate": 7160,
      "##maker": 7161,
      "##pal": 7162,
      "##pol": 7163,
      "##pool": 7164,
      "##power": 7165,
      "##hal": 7166,
      "##har": 7167,
      "##hus": 7168,
      "##hill": 7169,
      "##hol": 7170,
      "##hel": 7171,
      "##hetic": 7172,
      "##gi": 7173,
      "##gm": 7174,
      "##gue": 7175,
      "##gth": 7176,
      "##grow": 7177,
      "##gling": 7178,
      "##gging": 7179,
      "##gged": 7180,
      "##kers": 7181,
      "##wal": 7182,
      "##fit": 7183,
      "##fight": 7184,
      "##fold": 7185,
      "##friend": 7186,
      "##jud": 7187,
      "##joy": 7188,
      "##ince": 7189,
      "##atures": 7190,
      "##orph": 7191,
      "##orous": 7192,
      "##orating": 7193,
      "##ntly": 7194,
      "##stall": 7195,
      "##edly": 7196,
      "##iters": 7197,
      "##itory": 7198,
      "##itte": 7199,
      "##itudes": 7200,
      "##ndon": 7201,
      "##nded": 7202,
      "##icate": 7203,
      "##alg": 7204,
      "##alle": 7205,
      "##alan": 7206,
      "##oded": 7207,
      "##rah": 7208,
      "##raction": 7209,
      "##mel": 7210,
      "stu": 7211,
      "stun": 7212,
      "stead": 7213,
      "staff": 7214,
      "toy": 7215,
      "tour": 7216,
      "##arse": 7217,
      "rend": 7218,
      "rear": 7219,
      "reput": 7220,
      "rejo": 7221,
      "inex": 7222,
      "incl": 7223,
      "##mping": 7224,
      "##aco": 7225,
      "##acing": 7226,
      "##acies": 7227,
      "##asia": 7228,
      "##anian": 7229,
      "##rov": 7230,
      "##isting": 7231,
      "##istry": 7232,
      "intr": 7233,
      "intent": 7234,
      "intim": 7235,
      "##enna": 7236,
      "##isions": 7237,
      "arc": 7238,
      "arist": 7239,
      "coo": 7240,
      "cov": 7241,
      "cold": 7242,
      "coast": 7243,
      "cott": 7244,
      "cogn": 7245,
      "isol": 7246,
      "israel": 7247,
      "##etam": 7248,
      "##etta": 7249,
      "##urg": 7250,
      "andre": 7251,
      "##llers": 7252,
      "anarch": 7253,
      "adher": 7254,
      "##rayed": 7255,
      "forb": 7256,
      "whis": 7257,
      "##emon": 7258,
      "strate": 7259,
      "exh": 7260,
      "exch": 7261,
      "exter": 7262,
      "##uctions": 7263,
      "##cht": 7264,
      "##chi": 7265,
      "##chester": 7266,
      "##adi": 7267,
      "##ective": 7268,
      "priest": 7269,
      "##idate": 7270,
      "##ilities": 7271,
      "##inte": 7272,
      "orph": 7273,
      "clut": 7274,
      "cloth": 7275,
      "clock": 7276,
      "claim": 7277,
      "proc": 7278,
      "prote": 7279,
      "pont": 7280,
      "beat": 7281,
      "bent": 7282,
      "bear": 7283,
      "##iration": 7284,
      "##irts": 7285,
      "alf": 7286,
      "sel": 7287,
      "seam": 7288,
      "treas": 7289,
      "indis": 7290,
      "indul": 7291,
      "dece": 7292,
      "delic": 7293,
      "weird": 7294,
      "sold": 7295,
      "confer": 7296,
      "convey": 7297,
      "conven": 7298,
      "congress": 7299,
      "cham": 7300,
      "chim": 7301,
      "chand": 7302,
      "chop": 7303,
      "##ifer": 7304,
      "nucle": 7305,
      "##ulator": 7306,
      "##ulous": 7307,
      "publish": 7308,
      "##erto": 7309,
      "##erty": 7310,
      "##ante": 7311,
      "##anted": 7312,
      "door": 7313,
      "atl": 7314,
      "##lding": 7315,
      "##ourse": 7316,
      "printelement": 7317,
      "pain": 7318,
      "pale": 7319,
      "paint": 7320,
      "traff": 7321,
      "synd": 7322,
      "##iminal": 7323,
      "##immer": 7324,
      "withdra": 7325,
      "##atorial": 7326,
      "shock": 7327,
      "tamp": 7328,
      "maid": 7329,
      "grav": 7330,
      "gramm": 7331,
      "##ipes": 7332,
      "##mmod": 7333,
      "envis": 7334,
      "unpro": 7335,
      "visual": 7336,
      "complic": 7337,
      "compens": 7338,
      "##phones": 7339,
      "hah": 7340,
      "hair": 7341,
      "habit": 7342,
      "suffer": 7343,
      "abb": 7344,
      "abol": 7345,
      "##tery": 7346,
      "accum": 7347,
      "spin": 7348,
      "spons": 7349,
      "sports": 7350,
      "arrlist": 7351,
      "disg": 7352,
      "discre": 7353,
      "disappe": 7354,
      "discrimin": 7355,
      "unders": 7356,
      "overth": 7357,
      "##ainable": 7358,
      "moment": 7359,
      "##ulture": 7360,
      "myst": 7361,
      "mymarket": 7362,
      "truck": 7363,
      "trump": 7364,
      "tel": 7365,
      "teen": 7366,
      "replic": 7367,
      "report": 7368,
      "##uds": 7369,
      "##udge": 7370,
      "##ushes": 7371,
      "contam": 7372,
      "subd": 7373,
      "##ghan": 7374,
      "##umn": 7375,
      "##umed": 7376,
      "##uman": 7377,
      "elab": 7378,
      "peace": 7379,
      "mans": 7380,
      "butt": 7381,
      "##osing": 7382,
      "##omin": 7383,
      "##omic": 7384,
      "scrap": 7385,
      "apost": 7386,
      "##oli": 7387,
      "idi": 7388,
      "pla": 7389,
      "moder": 7390,
      "##ensible": 7391,
      "##icts": 7392,
      "##icted": 7393,
      "correl": 7394,
      "backst": 7395,
      "temper": 7396,
      "##inking": 7397,
      "##some": 7398,
      "erupt": 7399,
      "##ifier": 7400,
      "knock": 7401,
      "##creen": 7402,
      "##orship": 7403,
      "evac": 7404,
      "##eling": 7405,
      "carc": 7406,
      "carb": 7407,
      "brut": 7408,
      "brig": 7409,
      "schol": 7410,
      "geograph": 7411,
      "fright": 7412,
      "frustr": 7413,
      "cs310ers": 7414,
      "chair": 7415,
      "##issa": 7416,
      "accent": 7417,
      "##ucing": 7418,
      "summar": 7419,
      "humb": 7420,
      "intercept": 7421,
      "interact": 7422,
      "interrupt": 7423,
      "##nesses": 7424,
      "##bey": 7425,
      "sax": 7426,
      "fluct": 7427,
      "aggress": 7428,
      "phon": 7429,
      "surf": 7430,
      "##ashi": 7431,
      "op2": 7432,
      "op1": 7433,
      "transport": 7434,
      "archit": 7435,
      "##whel": 7436,
      "guer": 7437,
      "smith": 7438,
      "faith": 7439,
      "skin": 7440,
      "##ilipp": 7441,
      "crus": 7442,
      "superst": 7443,
      "##lena": 7444,
      "margin": 7445,
      "launch": 7446,
      "emig": 7447,
      "pleas": 7448,
      "brad": 7449,
      "##works": 7450,
      "wax": 7451,
      "attrib": 7452,
      "refrig": 7453,
      "##umbling": 7454,
      "##umbled": 7455,
      "obt": 7456,
      "obst": 7457,
      "obstruct": 7458,
      "patron": 7459,
      "immig": 7460,
      "config": 7461,
      "confid": 7462,
      "confront": 7463,
      "irrit": 7464,
      "glor": 7465,
      "rehe": 7466,
      "steep": 7467,
      "##olds": 7468,
      "parlia": 7469,
      "accommod": 7470,
      "herb": 7471,
      "estim": 7472,
      "color": 7473,
      "wonder": 7474,
      "embar": 7475,
      "##casting": 7476,
      "##uffy": 7477,
      "virgin": 7478,
      "electr": 7479,
      "electro": 7480,
      "electron": 7481,
      "histor": 7482,
      "##build": 7483,
      "astron": 7484,
      "horr": 7485,
      "##obia": 7486,
      "extract": 7487,
      "symbol": 7488,
      "catalog": 7489,
      "foreach": 7490,
      "volunt": 7491,
      "silver": 7492,
      "slee": 7493,
      "sleep": 7494,
      "##ulsion": 7495,
      "murder": 7496,
      "##holders": 7497,
      "##ships": 7498,
      "sprink": 7499,
      "battle": 7500,
      "borrow": 7501,
      "odd": 7502,
      "football": 7503,
      "crypt": 7504,
      "stret": 7505,
      "vacc": 7506,
      "triump": 7507,
      "revolution": 7508,
      "counse": 7509,
      "inhab": 7510,
      "gabrie": 7511,
      "sacr": 7512,
      "angel": 7513,
      "business": 7514,
      "cultiv": 7515,
      "contempl": 7516,
      "anthrop": 7517,
      "birth": 7518,
      "##ogenic": 7519,
      "authent": 7520,
      "retreived": 7521,
      "industrial": 7522,
      "sympath": 7523,
      "dishon": 7524,
      "acknow": 7525,
      "fertil": 7526,
      "suggest": 7527,
      "republic": 7528,
      "printelements": 7529,
      "mymarketplace": 7530,
      "aj": 7531,
      "aar": 7532,
      "age": 7533,
      "aim": 7534,
      "amm": 7535,
      "bb": 7536,
      "bac": 7537,
      "bis": 7538,
      "bam": 7539,
      "bert": 7540,
      "beth": 7541,
      "bark": 7542,
      "bail": 7543,
      "bry": 7544,
      "bitch": 7545,
      "boun": 7546,
      "baby": 7547,
      "bios": 7548,
      "cc": 7549,
      "cb": 7550,
      "cig": 7551,
      "capac": 7552,
      "cush": 7553,
      "cough": 7554,
      "cri": 7555,
      "cauc": 7556,
      "dv": 7557,
      "dn": 7558,
      "dere": 7559,
      "drow": 7560,
      "dust": 7561,
      "dab": 7562,
      "derm": 7563,
      "dang": 7564,
      "dry": 7565,
      "dimin": 7566,
      "dura": 7567,
      "dump": 7568,
      "ee": 7569,
      "era": 7570,
      "eld": 7571,
      "emm": 7572,
      "eph": 7573,
      "elo": 7574,
      "erect": 7575,
      "emin": 7576,
      "ft": 7577,
      "fy": 7578,
      "fou": 7579,
      "fly": 7580,
      "ful": 7581,
      "gray": 7582,
      "gem": 7583,
      "gay": 7584,
      "goth": 7585,
      "gau": 7586,
      "glen": 7587,
      "gather": 7588,
      "gene": 7589,
      "hd": 7590,
      "hit": 7591,
      "hil": 7592,
      "hap": 7593,
      "hun": 7594,
      "hip": 7595,
      "herm": 7596,
      "hide": 7597,
      "hars": 7598,
      "hann": 7599,
      "hills": 7600,
      "honey": 7601,
      "ira": 7602,
      "jos": 7603,
      "jag": 7604,
      "jane": 7605,
      "jaw": 7606,
      "jama": 7607,
      "jih": 7608,
      "kw": 7609,
      "kon": 7610,
      "kent": 7611,
      "kill": 7612,
      "kath": 7613,
      "led": 7614,
      "lis": 7615,
      "lur": 7616,
      "lith": 7617,
      "lid": 7618,
      "lanc": 7619,
      "lunch": 7620,
      "mr": 7621,
      "ml": 7622,
      "mh": 7623,
      "mcl": 7624,
      "mush": 7625,
      "muse": 7626,
      "muff": 7627,
      "nb": 7628,
      "nh": 7629,
      "ner": 7630,
      "nest": 7631,
      "nie": 7632,
      "nurs": 7633,
      "oo": 7634,
      "ot": 7635,
      "oz": 7636,
      "ont": 7637,
      "oak": 7638,
      "oran": 7639,
      "pir": 7640,
      "pest": 7641,
      "pere": 7642,
      "pink": 7643,
      "piss": 7644,
      "pump": 7645,
      "punt": 7646,
      "punch": 7647,
      "ri": 7648,
      "rar": 7649,
      "ris": 7650,
      "rut": 7651,
      "rif": 7652,
      "rip": 7653,
      "race": 7654,
      "rough": 7655,
      "raf": 7656,
      "russ": 7657,
      "rash": 7658,
      "ratt": 7659,
      "ruth": 7660,
      "slic": 7661,
      "sap": 7662,
      "sard": 7663,
      "sni": 7664,
      "tb": 7665,
      "tat": 7666,
      "ted": 7667,
      "tid": 7668,
      "tay": 7669,
      "tens": 7670,
      "trop": 7671,
      "tatt": 7672,
      "ves": 7673,
      "vest": 7674,
      "vand": 7675,
      "verm": 7676,
      "vick": 7677,
      "vern": 7678,
      "vio": 7679,
      "vene": 7680,
      "wer": 7681,
      "wing": 7682,
      "wig": 7683,
      "wick": 7684,
      "witch": 7685,
      "worth": 7686,
      "##cal": 7687,
      "##car": 7688,
      "##case": 7689,
      "##cient": 7690,
      "##oes": 7691,
      "##oll": 7692,
      "##omen": 7693,
      "##obs": 7694,
      "##die": 7695,
      "##dles": 7696,
      "##dling": 7697,
      "##rh": 7698,
      "##rin": 7699,
      "##ril": 7700,
      "##rator": 7701,
      "##rough": 7702,
      "##vest": 7703,
      "##no": 7704,
      "##nat": 7705,
      "##non": 7706,
      "##nant": 7707,
      "##nia": 7708,
      "##norm": 7709,
      "##si": 7710,
      "##su": 7711,
      "##scious": 7712,
      "##ti": 7713,
      "##tz": 7714,
      "##aver": 7715,
      "##aire": 7716,
      "##aze": 7717,
      "##lot": 7718,
      "##lest": 7719,
      "##lio": 7720,
      "##life": 7721,
      "##bow": 7722,
      "##base": 7723,
      "##blo": 7724,
      "##uv": 7725,
      "##ui": 7726,
      "##zes": 7727,
      "##yan": 7728,
      "##yll": 7729,
      "##yers": 7730,
      "##mill": 7731,
      "##master": 7732,
      "##pack": 7733,
      "##pace": 7734,
      "##hot": 7735,
      "##hop": 7736,
      "##haw": 7737,
      "##gas": 7738,
      "##gro": 7739,
      "##gun": 7740,
      "##gence": 7741,
      "##gies": 7742,
      "##ku": 7743,
      "##kh": 7744,
      "##kind": 7745,
      "##wl": 7746,
      "##wart": 7747,
      "##wide": 7748,
      "##woman": 7749,
      "##far": 7750,
      "##function": 7751,
      "##x00": 7752,
      "##just": 7753,
      "##jected": 7754,
      "##eries": 7755,
      "##inist": 7756,
      "##inis": 7757,
      "##instein": 7758,
      "##atin": 7759,
      "thin": 7760,
      "therm": 7761,
      "##esis": 7762,
      "##orse": 7763,
      "##orations": 7764,
      "##onal": 7765,
      "##onder": 7766,
      "##onne": 7767,
      "theat": 7768,
      "##edy": 7769,
      "##edic": 7770,
      "##ret": 7771,
      "##real": 7772,
      "##rection": 7773,
      "##leigh": 7774,
      "##lete": 7775,
      "##iti": 7776,
      "##itary": 7777,
      "##itty": 7778,
      "##itual": 7779,
      "##itative": 7780,
      "##itzer": 7781,
      "##nda": 7782,
      "##ndy": 7783,
      "##icide": 7784,
      "##icides": 7785,
      "##icism": 7786,
      "##icians": 7787,
      "##alt": 7788,
      "##aler": 7789,
      "##alous": 7790,
      "##oda": 7791,
      "##ione": 7792,
      "##ionist": 7793,
      "##rained": 7794,
      "##mean": 7795,
      "sta": 7796,
      "stal": 7797,
      "station": 7798,
      "stoo": 7799,
      "stall": 7800,
      "stone": 7801,
      "stalk": 7802,
      "stup": 7803,
      "stipul": 7804,
      "stamp": 7805,
      "tox": 7806,
      "topp": 7807,
      "tomb": 7808,
      "town": 7809,
      "tough": 7810,
      "##oust": 7811,
      "recept": 7812,
      "reject": 7813,
      "regener": 7814,
      "inver": 7815,
      "##anger": 7816,
      "##roe": 7817,
      "##ross": 7818,
      "##isters": 7819,
      "##istically": 7820,
      "##enberg": 7821,
      "##isan": 7822,
      "##uent": 7823,
      "coh": 7824,
      "coff": 7825,
      "##etary": 7826,
      "##etting": 7827,
      "##ettes": 7828,
      "##urd": 7829,
      "##uration": 7830,
      "##urers": 7831,
      "##llig": 7832,
      "ital": 7833,
      "ana": 7834,
      "adam": 7835,
      "##raying": 7836,
      "forg": 7837,
      "##mentation": 7838,
      "whisk": 7839,
      "##oters": 7840,
      "##otted": 7841,
      "##emic": 7842,
      "##eming": 7843,
      "##emble": 7844,
      "##igner": 7845,
      "exert": 7846,
      "expend": 7847,
      "exting": 7848,
      "exclus": 7849,
      "##vere": 7850,
      "##owing": 7851,
      "##ections": 7852,
      "pri": 7853,
      "##idation": 7854,
      "##sea": 7855,
      "##ilia": 7856,
      "##ilder": 7857,
      "##intend": 7858,
      "orn": 7859,
      "orb": 7860,
      "orth": 7861,
      "clare": 7862,
      "prope": 7863,
      "prosec": 7864,
      "prosecut": 7865,
      "pomp": 7866,
      "bee": 7867,
      "bever": 7868,
      "alas": 7869,
      "alert": 7870,
      "##enter": 7871,
      "##ented": 7872,
      "##ental": 7873,
      "seat": 7874,
      "sevent": 7875,
      "indo": 7876,
      "death": 7877,
      "##estation": 7878,
      "##izers": 7879,
      "##lical": 7880,
      "hein": 7881,
      "heath": 7882,
      "##gel": 7883,
      "##geon": 7884,
      "convent": 7885,
      "##thy": 7886,
      "##apes": 7887,
      "chi": 7888,
      "chin": 7889,
      "chest": 7890,
      "chore": 7891,
      "chip": 7892,
      "chance": 7893,
      "church": 7894,
      "nud": 7895,
      "youtub": 7896,
      "##amas": 7897,
      "##amation": 7898,
      "cance": 7899,
      "##urned": 7900,
      "retro": 7901,
      "retire": 7902,
      "retrie": 7903,
      "##fers": 7904,
      "##antry": 7905,
      "doll": 7906,
      "##usions": 7907,
      "##iker": 7908,
      "pak": 7909,
      "##listed": 7910,
      "##ieu": 7911,
      "tran": 7912,
      "train": 7913,
      "traum": 7914,
      "syl": 7915,
      "sym": 7916,
      "##une": 7917,
      "lee": 7918,
      "##imming": 7919,
      "##yne": 7920,
      "shack": 7921,
      "shif": 7922,
      "sham": 7923,
      "shall": 7924,
      "shame": 7925,
      "share": 7926,
      "shaw": 7927,
      "prel": 7928,
      "pref": 7929,
      "mak": 7930,
      "maur": 7931,
      "##gery": 7932,
      "aller": 7933,
      "##qual": 7934,
      "grace": 7935,
      "##iping": 7936,
      "##ipts": 7937,
      "##ippers": 7938,
      "enfor": 7939,
      "enchant": 7940,
      "intellig": 7941,
      "exagger": 7942,
      "una": 7943,
      "unbe": 7944,
      "##grav": 7945,
      "##grams": 7946,
      "##illo": 7947,
      "##ption": 7948,
      "rox": 7949,
      "##ilda": 7950,
      "reserv": 7951,
      "quar": 7952,
      "quot": 7953,
      "##oused": 7954,
      "##cca": 7955,
      "instr": 7956,
      "instig": 7957,
      "instinct": 7958,
      "##ocratic": 7959,
      "##ocene": 7960,
      "haz": 7961,
      "dough": 7962,
      "suc": 7963,
      "suit": 7964,
      "supre": 7965,
      "novel": 7966,
      "apple": 7967,
      "appra": 7968,
      "appet": 7969,
      "apprent": 7970,
      "aber": 7971,
      "aband": 7972,
      "##usts": 7973,
      "##usters": 7974,
      "##ardy": 7975,
      "##outing": 7976,
      "spa": 7977,
      "spart": 7978,
      "spokes": 7979,
      "disco": 7980,
      "discontin": 7981,
      "overd": 7982,
      "overre": 7983,
      "overse": 7984,
      "overhe": 7985,
      "overwhel": 7986,
      "##ibles": 7987,
      "##cos": 7988,
      "##comb": 7989,
      "##resses": 7990,
      "moz": 7991,
      "moor": 7992,
      "moon": 7993,
      "##ultural": 7994,
      "impe": 7995,
      "imperson": 7996,
      "verte": 7997,
      "defe": 7998,
      "tru": 7999,
      "paras": 8000,
      "priorit": 8001,
      "teas": 8002,
      "##icals": 8003,
      "assess": 8004,
      "kee": 8005,
      "kell": 8006,
      "contact": 8007,
      "contend": 8008,
      "##metric": 8009,
      "##uming": 8010,
      "fox": 8011,
      "foss": 8012,
      "record": 8013,
      "lob": 8014,
      "loath": 8015,
      "##fted": 8016,
      "pee": 8017,
      "commerc": 8018,
      "##rene": 8019,
      "##igns": 8020,
      "##ignment": 8021,
      "maneu": 8022,
      "butch": 8023,
      "##llect": 8024,
      "sixt": 8025,
      "##oses": 8026,
      "##omed": 8027,
      "scor": 8028,
      "score": 8029,
      "scand": 8030,
      "scient": 8031,
      "scream": 8032,
      "##olk": 8033,
      "##olis": 8034,
      "##olved": 8035,
      "commen": 8036,
      "comfort": 8037,
      "##ancies": 8038,
      "deton": 8039,
      "pled": 8040,
      "plun": 8041,
      "plum": 8042,
      "plag": 8043,
      "##idel": 8044,
      "##enson": 8045,
      "##ensen": 8046,
      "##anging": 8047,
      "solid": 8048,
      "argent": 8049,
      "##activ": 8050,
      "relig": 8051,
      "relax": 8052,
      "corner": 8053,
      "corrupt": 8054,
      "##inals": 8055,
      "##wel": 8056,
      "postp": 8057,
      "infra": 8058,
      "infring": 8059,
      "##orde": 8060,
      "knight": 8061,
      "##aux": 8062,
      "advis": 8063,
      "advoc": 8064,
      "evap": 8065,
      "##aki": 8066,
      "carr": 8067,
      "carol": 8068,
      "brib": 8069,
      "schoo": 8070,
      "hold": 8071,
      "##boards": 8072,
      "##ugal": 8073,
      "cycl": 8074,
      "frig": 8075,
      "highlight": 8076,
      "blur": 8077,
      "blaz": 8078,
      "##rances": 8079,
      "perme": 8080,
      "perse": 8081,
      "downs": 8082,
      "##rians": 8083,
      "##wardly": 8084,
      "handic": 8085,
      "bump": 8086,
      "exempl": 8087,
      "offend": 8088,
      "interfer": 8089,
      "interrog": 8090,
      "remark": 8091,
      "fear": 8092,
      "##otherapy": 8093,
      "numer": 8094,
      "boot": 8095,
      "flour": 8096,
      "flaw": 8097,
      "agree": 8098,
      "grim": 8099,
      "ground": 8100,
      "griff": 8101,
      "condem": 8102,
      "condens": 8103,
      "calif": 8104,
      "calib": 8105,
      "phosph": 8106,
      "philipp": 8107,
      "surpr": 8108,
      "surround": 8109,
      "cheer": 8110,
      "##onda": 8111,
      "##books": 8112,
      "entit": 8113,
      "enthus": 8114,
      "##ulent": 8115,
      "##asha": 8116,
      "##ports": 8117,
      "raff": 8118,
      "##anked": 8119,
      "protest": 8120,
      "##ensively": 8121,
      "##sses": 8122,
      "##sson": 8123,
      "##ropri": 8124,
      "fault": 8125,
      "##oken": 8126,
      "sketch": 8127,
      "crick": 8128,
      "crunch": 8129,
      "cave": 8130,
      "caus": 8131,
      "grey": 8132,
      "ante": 8133,
      "antib": 8134,
      "antagon": 8135,
      "marx": 8136,
      "marty": 8137,
      "marvel": 8138,
      "##para": 8139,
      "laz": 8140,
      "lake": 8141,
      "drink": 8142,
      "braz": 8143,
      "brah": 8144,
      "distract": 8145,
      "disturb": 8146,
      "persu": 8147,
      "dragon": 8148,
      "wave": 8149,
      "waver": 8150,
      "breast": 8151,
      "##ediat": 8152,
      "synthes": 8153,
      "obsess": 8154,
      "##berries": 8155,
      "robert": 8156,
      "snap": 8157,
      "prospect": 8158,
      "jeffer": 8159,
      "##anny": 8160,
      "alien": 8161,
      "##ogue": 8162,
      "##awa": 8163,
      "brom": 8164,
      "hyster": 8165,
      "metab": 8166,
      "confess": 8167,
      "##elling": 8168,
      "glut": 8169,
      "##burgh": 8170,
      "scrib": 8171,
      "##ucker": 8172,
      "delight": 8173,
      "deliver": 8174,
      "steam": 8175,
      "afford": 8176,
      "franco": 8177,
      "mcd": 8178,
      "mcdon": 8179,
      "malays": 8180,
      "penet": 8181,
      "serge": 8182,
      "morning": 8183,
      "belong": 8184,
      "columb": 8185,
      "legit": 8186,
      "financ": 8187,
      "substit": 8188,
      "substant": 8189,
      "##ographic": 8190,
      "subscrib": 8191,
      "millen": 8192,
      "##cape": 8193,
      "##going": 8194,
      "epist": 8195,
      "petition": 8196,
      "##grounds": 8197,
      "sweat": 8198,
      "##liness": 8199,
      "urban": 8200,
      "ordin": 8201,
      "aston": 8202,
      "astro": 8203,
      "horse": 8204,
      "horiz": 8205,
      "##obic": 8206,
      "precip": 8207,
      "turk": 8208,
      "socio": 8209,
      "melan": 8210,
      "cataly": 8211,
      "##ooked": 8212,
      "susp": 8213,
      "awa": 8214,
      "##writing": 8215,
      "admir": 8216,
      "judge": 8217,
      "renov": 8218,
      "photos": 8219,
      "##hhh": 8220,
      "##hoods": 8221,
      "##holder": 8222,
      "ghost": 8223,
      "koh": 8224,
      "##break": 8225,
      "ultra": 8226,
      "kilo": 8227,
      "waterf": 8228,
      "hawai": 8229,
      "fabric": 8230,
      "##cription": 8231,
      "feder": 8232,
      "souther": 8233,
      "citiz": 8234,
      "sacra": 8235,
      "victor": 8236,
      "thorough": 8237,
      "major": 8238,
      "culmin": 8239,
      "juris": 8240,
      "tradition": 8241,
      "arab": 8242,
      "##commun": 8243,
      "eyel": 8244,
      "##ught": 8245,
      "##represent": 8246,
      "ineff": 8247,
      "##quently": 8248,
      "##opathic": 8249,
      "deterior": 8250,
      "beaut": 8251,
      "disappro": 8252,
      "disappoint": 8253,
      "georg": 8254,
      "phenomen": 8255,
      "austral": 8256,
      "vigil": 8257,
      "##piece": 8258,
      "colomb": 8259,
      "young": 8260,
      "guarantee": 8261,
      "oscill": 8262,
      "ocean": 8263,
      "pitts": 8264,
      "strength": 8265,
      "reciproc": 8266,
      "extrem": 8267,
      "gymn": 8268,
      "lubric": 8269,
      "stereoty": 8270,
      "disagree": 8271,
      "synchron": 8272,
      "illeg": 8273,
      "##integr": 8274,
      "architect": 8275,
      "parliament": 8276,
      "embarrass": 8277,
      "extingu": 8278,
      "2nd": 8279,
      "aest": 8280,
      "aus": 8281,
      "aph": 8282,
      "aft": 8283,
      "acr": 8284,
      "amen": 8285,
      "auction": 8286,
      "aster": 8287,
      "aunt": 8288,
      "amph": 8289,
      "bs": 8290,
      "bp": 8291,
      "bj": 8292,
      "bass": 8293,
      "biz": 8294,
      "bour": 8295,
      "bind": 8296,
      "bare": 8297,
      "border": 8298,
      "bish": 8299,
      "beng": 8300,
      "bak": 8301,
      "bara": 8302,
      "batter": 8303,
      "bung": 8304,
      "bbc": 8305,
      "cv": 8306,
      "ct": 8307,
      "cray": 8308,
      "city": 8309,
      "clement": 8310,
      "cere": 8311,
      "cia": 8312,
      "cous": 8313,
      "cum": 8314,
      "caps": 8315,
      "cron": 8316,
      "cze": 8317,
      "cudd": 8318,
      "dd": 8319,
      "ding": 8320,
      "dion": 8321,
      "dand": 8322,
      "dill": 8323,
      "dart": 8324,
      "dum": 8325,
      "dens": 8326,
      "dug": 8327,
      "dred": 8328,
      "ditch": 8329,
      "dwar": 8330,
      "daz": 8331,
      "dirt": 8332,
      "eis": 8333,
      "emo": 8334,
      "eun": 8335,
      "eug": 8336,
      "egy": 8337,
      "eradic": 8338,
      "eras": 8339,
      "echo": 8340,
      "fen": 8341,
      "fay": 8342,
      "fres": 8343,
      "fail": 8344,
      "falk": 8345,
      "fier": 8346,
      "fash": 8347,
      "fiance": 8348,
      "fernand": 8349,
      "gan": 8350,
      "gul": 8351,
      "glow": 8352,
      "gord": 8353,
      "gull": 8354,
      "gott": 8355,
      "hat": 8356,
      "hic": 8357,
      "hing": 8358,
      "hort": 8359,
      "hour": 8360,
      "hud": 8361,
      "hans": 8362,
      "hots": 8363,
      "ion": 8364,
      "imb": 8365,
      "iran": 8366,
      "ji": 8367,
      "jin": 8368,
      "jet": 8369,
      "jap": 8370,
      "jim": 8371,
      "jail": 8372,
      "jug": 8373,
      "jok": 8374,
      "jacks": 8375,
      "ki": 8376,
      "km": 8377,
      "ket": 8378,
      "kore": 8379,
      "kab": 8380,
      "kings": 8381,
      "kare": 8382,
      "kos": 8383,
      "kau": 8384,
      "kitt": 8385,
      "kara": 8386,
      "kirk": 8387,
      "lp": 8388,
      "lion": 8389,
      "liz": 8390,
      "leth": 8391,
      "lust": 8392,
      "lich": 8393,
      "lud": 8394,
      "lond": 8395,
      "lank": 8396,
      "lump": 8397,
      "lamb": 8398,
      "lenn": 8399,
      "mv": 8400,
      "mt": 8401,
      "mm": 8402,
      "mine": 8403,
      "mike": 8404,
      "mould": 8405,
      "mud": 8406,
      "mens": 8407,
      "mish": 8408,
      "mund": 8409,
      "mons": 8410,
      "mitch": 8411,
      "mission": 8412,
      "message": 8413,
      "nr": 8414,
      "np": 8415,
      "nod": 8416,
      "nour": 8417,
      "nast": 8418,
      "nab": 8419,
      "nib": 8420,
      "nash": 8421,
      "nerv": 8422,
      "oc": 8423,
      "oy": 8424,
      "og": 8425,
      "ooo": 8426,
      "oph": 8427,
      "pv": 8428,
      "pn": 8429,
      "pes": 8430,
      "pure": 8431,
      "pert": 8432,
      "piv": 8433,
      "pine": 8434,
      "pall": 8435,
      "plow": 8436,
      "pens": 8437,
      "puss": 8438,
      "pran": 8439,
      "patch": 8440,
      "pane": 8441,
      "pediat": 8442,
      "rp": 8443,
      "ring": 8444,
      "rode": 8445,
      "ration": 8446,
      "rack": 8447,
      "rus": 8448,
      "roth": 8449,
      "rapp": 8450,
      "rhe": 8451,
      "rico": 8452,
      "sd": 8453,
      "sigh": 8454,
      "sik": 8455,
      "scept": 8456,
      "sail": 8457,
      "sinc": 8458,
      "sedi": 8459,
      "sulf": 8460,
      "tc": 8461,
      "tt": 8462,
      "tm": 8463,
      "tin": 8464,
      "tes": 8465,
      "ting": 8466,
      "tul": 8467,
      "tus": 8468,
      "tast": 8469,
      "tip": 8470,
      "tart": 8471,
      "tues": 8472,
      "torn": 8473,
      "ui": 8474,
      "uh": 8475,
      "umb": 8476,
      "vl": 8477,
      "vas": 8478,
      "vap": 8479,
      "vik": 8480,
      "vine": 8481,
      "vom": 8482,
      "vag": 8483,
      "vault": 8484,
      "vamp": 8485,
      "voy": 8486,
      "wi": 8487,
      "wra": 8488,
      "wint": 8489,
      "wand": 8490,
      "ware": 8491,
      "wren": 8492,
      "wield": 8493,
      "wish": 8494,
      "wink": 8495,
      "wool": 8496,
      "wander": 8497,
      "woman": 8498,
      "xv": 8499,
      "xen": 8500,
      "yo": 8501,
      "yan": 8502,
      "yard": 8503,
      "yield": 8504,
      "yang": 8505,
      "yester": 8506,
      "yah": 8507,
      "zo": 8508,
      "zen": 8509,
      "zig": 8510,
      "##ev": 8511,
      "##ea": 8512,
      "##eon": 8513,
      "##ean": 8514,
      "##eus": 8515,
      "##eenth": 8516,
      "##cus": 8517,
      "##cie": 8518,
      "##cia": 8519,
      "##cence": 8520,
      "##card": 8521,
      "##care": 8522,
      "##cup": 8523,
      "##oa": 8524,
      "##overs": 8525,
      "##oles": 8526,
      "##oise": 8527,
      "##oys": 8528,
      "##du": 8529,
      "##ders": 8530,
      "##dler": 8531,
      "##rations": 8532,
      "##rust": 8533,
      "##rio": 8534,
      "##rals": 8535,
      "##via": 8536,
      "##vio": 8537,
      "##vak": 8538,
      "##nar": 8539,
      "##nan": 8540,
      "##nut": 8541,
      "##nest": 8542,
      "##nish": 8543,
      "##screen": 8544,
      "##tor": 8545,
      "##table": 8546,
      "##town": 8547,
      "##ais": 8548,
      "##aments": 8549,
      "##arance": 8550,
      "##ixt": 8551,
      "##iations": 8552,
      "##iator": 8553,
      "##iences": 8554,
      "##iques": 8555,
      "##lr": 8556,
      "##lis": 8557,
      "##lie": 8558,
      "##lier": 8559,
      "##lift": 8560,
      "##lined": 8561,
      "##law": 8562,
      "##lished": 8563,
      "##bble": 8564,
      "##bek": 8565,
      "##bone": 8566,
      "##bag": 8567,
      "##bled": 8568,
      "##bted": 8569,
      "##bourne": 8570,
      "##uk": 8571,
      "##uper": 8572,
      "##uates": 8573,
      "##urance": 8574,
      "##zh": 8575,
      "##zier": 8576,
      "##mad": 8577,
      "##mates": 8578,
      "##mother": 8579,
      "##mouth": 8580,
      "##manship": 8581,
      "##pit": 8582,
      "##pur": 8583,
      "##pot": 8584,
      "##pow": 8585,
      "##pent": 8586,
      "##post": 8587,
      "##poon": 8588,
      "##how": 8589,
      "##gic": 8590,
      "##gus": 8591,
      "##gart": 8592,
      "##gated": 8593,
      "##game": 8594,
      "##gled": 8595,
      "##ggy": 8596,
      "##girl": 8597,
      "##kn": 8598,
      "##kill": 8599,
      "##wo": 8600,
      "##wd": 8601,
      "##with": 8602,
      "##wling": 8603,
      "##wash": 8604,
      "##fy": 8605,
      "##fw": 8606,
      "##fra": 8607,
      "##fig": 8608,
      "##fast": 8609,
      "##fty": 8610,
      "##fare": 8611,
      "##father": 8612,
      "##jah": 8613,
      "##erun": 8614,
      "##erick": 8615,
      "##erian": 8616,
      "##erves": 8617,
      "##inas": 8618,
      "##inent": 8619,
      "##inos": 8620,
      "##inform": 8621,
      "thy": 8622,
      "thra": 8623,
      "thir": 8624,
      "thom": 8625,
      "thurs": 8626,
      "threat": 8627,
      "##eses": 8628,
      "##oric": 8629,
      "##orig": 8630,
      "##orable": 8631,
      "##orative": 8632,
      "##orrh": 8633,
      "##nton": 8634,
      "##oni": 8635,
      "##sting": 8636,
      "##stan": 8637,
      "##start": 8638,
      "##stick": 8639,
      "##stop": 8640,
      "##stead": 8641,
      "##stones": 8642,
      "##stroph": 8643,
      "##edo": 8644,
      "##edd": 8645,
      "##edding": 8646,
      "##rels": 8647,
      "##rehe": 8648,
      "##lee": 8649,
      "##lev": 8650,
      "##lent": 8651,
      "##itic": 8652,
      "##itas": 8653,
      "##iture": 8654,
      "##itus": 8655,
      "##itious": 8656,
      "##itates": 8657,
      "##itism": 8658,
      "##itals": 8659,
      "##nders": 8660,
      "##ndered": 8661,
      "##icy": 8662,
      "##ican": 8663,
      "##icity": 8664,
      "##icial": 8665,
      "##icular": 8666,
      "##iciency": 8667,
      "##odyn": 8668,
      "##ionate": 8669,
      "##ionable": 8670,
      "##rase": 8671,
      "##raine": 8672,
      "##racy": 8673,
      "stur": 8674,
      "stir": 8675,
      "stap": 8676,
      "stif": 8677,
      "stick": 8678,
      "stitch": 8679,
      "stunt": 8680,
      "stroll": 8681,
      "tourn": 8682,
      "##cton": 8683,
      "##aro": 8684,
      "##arat": 8685,
      "##arus": 8686,
      "##aria": 8687,
      "##ario": 8688,
      "##arms": 8689,
      "##arming": 8690,
      "##armed": 8691,
      "rey": 8692,
      "reve": 8693,
      "really": 8694,
      "recl": 8695,
      "reop": 8696,
      "revel": 8697,
      "reiter": 8698,
      "rebound": 8699,
      "reaff": 8700,
      "reappe": 8701,
      "reorgan": 8702,
      "inau": 8703,
      "inade": 8704,
      "inacc": 8705,
      "incred": 8706,
      "##aca": 8707,
      "##acer": 8708,
      "##acity": 8709,
      "##acles": 8710,
      "neb": 8711,
      "neur": 8712,
      "neck": 8713,
      "negle": 8714,
      "##asis": 8715,
      "##asper": 8716,
      "##asive": 8717,
      "##roid": 8718,
      "##rote": 8719,
      "##rolled": 8720,
      "##rocket": 8721,
      "##rogen": 8722,
      "##ista": 8723,
      "##istent": 8724,
      "##istence": 8725,
      "intrig": 8726,
      "##ench": 8727,
      "##enger": 8728,
      "##enance": 8729,
      "##isive": 8730,
      "##isons": 8731,
      "##iscover": 8732,
      "arn": 8733,
      "ark": 8734,
      "arsen": 8735,
      "##uez": 8736,
      "cole": 8737,
      "coch": 8738,
      "cobb": 8739,
      "isa": 8740,
      "ish": 8741,
      "island": 8742,
      "##utt": 8743,
      "##uter": 8744,
      "##utation": 8745,
      "##utive": 8746,
      "##eta": 8747,
      "##urally": 8748,
      "##uries": 8749,
      "##llor": 8750,
      "anx": 8751,
      "anat": 8752,
      "anni": 8753,
      "adap": 8754,
      "advers": 8755,
      "forth": 8756,
      "whoo": 8757,
      "##vement": 8758,
      "##oter": 8759,
      "##emed": 8760,
      "##emia": 8761,
      "##emaker": 8762,
      "##ige": 8763,
      "##igra": 8764,
      "excess": 8765,
      "exerc": 8766,
      "exclaim": 8767,
      "##vern": 8768,
      "##chn": 8769,
      "##chen": 8770,
      "##chool": 8771,
      "##ady": 8772,
      "##aders": 8773,
      "##ados": 8774,
      "##adel": 8775,
      "##adium": 8776,
      "prest": 8777,
      "price": 8778,
      "prison": 8779,
      "##idence": 8780,
      "##idated": 8781,
      "##idents": 8782,
      "##assed": 8783,
      "##assing": 8784,
      "##ilation": 8785,
      "##ilers": 8786,
      "##ilated": 8787,
      "##ilized": 8788,
      "##ilian": 8789,
      "##ilton": 8790,
      "##into": 8791,
      "##inty": 8792,
      "club": 8793,
      "clap": 8794,
      "clam": 8795,
      "clich": 8796,
      "clog": 8797,
      "claw": 8798,
      "clamp": 8799,
      "proof": 8800,
      "proclaim": 8801,
      "popp": 8802,
      "pool": 8803,
      "poison": 8804,
      "bew": 8805,
      "beet": 8806,
      "##uba": 8807,
      "##uber": 8808,
      "##irming": 8809,
      "##irmed": 8810,
      "##pert": 8811,
      "alo": 8812,
      "ald": 8813,
      "alger": 8814,
      "alter": 8815,
      "seab": 8816,
      "seaf": 8817,
      "indones": 8818,
      "defer": 8819,
      "decent": 8820,
      "deuts": 8821,
      "##lict": 8822,
      "wear": 8823,
      "weap": 8824,
      "weld": 8825,
      "weigh": 8826,
      "wealth": 8827,
      "sob": 8828,
      "soy": 8829,
      "sof": 8830,
      "sooo": 8831,
      "solicit": 8832,
      "hey": 8833,
      "hep": 8834,
      "hear": 8835,
      "##gee": 8836,
      "cong": 8837,
      "conclud": 8838,
      "congreg": 8839,
      "##imet": 8840,
      "##tha": 8841,
      "##thal": 8842,
      "##through": 8843,
      "##apore": 8844,
      "chic": 8845,
      "chan": 8846,
      "chro": 8847,
      "chant": 8848,
      "chill": 8849,
      "chart": 8850,
      "choc": 8851,
      "chick": 8852,
      "chel": 8853,
      "chalk": 8854,
      "chimp": 8855,
      "chrom": 8856,
      "chlor": 8857,
      "##ifice": 8858,
      "##ateful": 8859,
      "##ulu": 8860,
      "##ulus": 8861,
      "##ulatory": 8862,
      "##achment": 8863,
      "##achers": 8864,
      "##anth": 8865,
      "dock": 8866,
      "##ayers": 8867,
      "##ivan": 8868,
      "##ivable": 8869,
      "atmos": 8870,
      "##oom": 8871,
      "##archy": 8872,
      "##ighth": 8873,
      "tyr": 8874,
      "typh": 8875,
      "##iko": 8876,
      "##mology": 8877,
      "##listic": 8878,
      "tract": 8879,
      "trave": 8880,
      "trash": 8881,
      "##unc": 8882,
      "##unks": 8883,
      "##unken": 8884,
      "iterative": 8885,
      "ley": 8886,
      "leh": 8887,
      "leve": 8888,
      "leop": 8889,
      "##iman": 8890,
      "##immed": 8891,
      "##ppet": 8892,
      "shit": 8893,
      "shen": 8894,
      "shab": 8895,
      "shield": 8896,
      "shak": 8897,
      "shri": 8898,
      "shakes": 8899,
      "prejud": 8900,
      "worship": 8901,
      "##version": 8902,
      "tai": 8903,
      "taunt": 8904,
      "mara": 8905,
      "mail": 8906,
      "maga": 8907,
      "maha": 8908,
      "magg": 8909,
      "##gering": 8910,
      "allah": 8911,
      "insult": 8912,
      "##irsty": 8913,
      "##quer": 8914,
      "##quin": 8915,
      "grant": 8916,
      "##iped": 8917,
      "##mmer": 8918,
      "enqu": 8919,
      "encl": 8920,
      "enact": 8921,
      "envelo": 8922,
      "encomp": 8923,
      "enlight": 8924,
      "enrich": 8925,
      "enlar": 8926,
      "enjoy": 8927,
      "intellect": 8928,
      "unm": 8929,
      "unh": 8930,
      "unle": 8931,
      "unac": 8932,
      "unve": 8933,
      "unch": 8934,
      "unse": 8935,
      "unlo": 8936,
      "unfor": 8937,
      "uncont": 8938,
      "unjust": 8939,
      "##mbling": 8940,
      "compr": 8941,
      "comprom": 8942,
      "compreh": 8943,
      "##phin": 8944,
      "##phere": 8945,
      "##illes": 8946,
      "##illion": 8947,
      "bypass": 8948,
      "ross": 8949,
      "##inely": 8950,
      "quint": 8951,
      "##ousing": 8952,
      "institution": 8953,
      "##ocracy": 8954,
      "hab": 8955,
      "haird": 8956,
      "harass": 8957,
      "suck": 8958,
      "nove": 8959,
      "appla": 8960,
      "##clusion": 8961,
      "abra": 8962,
      "abort": 8963,
      "absent": 8964,
      "abnorm": 8965,
      "##usting": 8966,
      "endeav": 8967,
      "endanger": 8968,
      "accident": 8969,
      "constitution": 8970,
      "willi": 8971,
      "william": 8972,
      "spat": 8973,
      "spra": 8974,
      "spar": 8975,
      "span": 8976,
      "spoo": 8977,
      "splint": 8978,
      "splend": 8979,
      "disput": 8980,
      "dispers": 8981,
      "disreg": 8982,
      "disgu": 8983,
      "dispro": 8984,
      "disclos": 8985,
      "disconn": 8986,
      "disqual": 8987,
      "disintegr": 8988,
      "underm": 8989,
      "overc": 8990,
      "##ffe": 8991,
      "##abe": 8992,
      "##abad": 8993,
      "##abeth": 8994,
      "##amen": 8995,
      "##coe": 8996,
      "##col": 8997,
      "##encer": 8998,
      "##ressed": 8999,
      "mole": 9000,
      "moist": 9001,
      "mold": 9002,
      "moham": 9003,
      "mocking": 9004,
      "crew": 9005,
      "creep": 9006,
      "##eke": 9007,
      "implic": 9008,
      "imprison": 9009,
      "deform": 9010,
      "myster": 9011,
      "##quet": 9012,
      "##quez": 9013,
      "truth": 9014,
      "##keeping": 9015,
      "paraph": 9016,
      "parado": 9017,
      "team": 9018,
      "assault": 9019,
      "repr": 9020,
      "##ients": 9021,
      "singapore": 9022,
      "kel": 9023,
      "kend": 9024,
      "twent": 9025,
      "twitter": 9026,
      "##ounted": 9027,
      "##metry": 9028,
      "subordin": 9029,
      "goss": 9030,
      "golds": 9031,
      "fold": 9032,
      "recess": 9033,
      "recons": 9034,
      "lomb": 9035,
      "lovel": 9036,
      "lobby": 9037,
      "##arez": 9038,
      "##fting": 9039,
      "eliz": 9040,
      "pend": 9041,
      "pear": 9042,
      "peas": 9043,
      "pelle": 9044,
      "meh": 9045,
      "meat": 9046,
      "meet": 9047,
      "partner": 9048,
      "privat": 9049,
      "##itively": 9050,
      "underst": 9051,
      "underpin": 9052,
      "manch": 9053,
      "##llows": 9054,
      "six": 9055,
      "##oss": 9056,
      "##osity": 9057,
      "scam": 9058,
      "scoo": 9059,
      "scott": 9060,
      "##opa": 9061,
      "##opic": 9062,
      "##opol": 9063,
      "lets": 9064,
      "apo": 9065,
      "##olith": 9066,
      "commend": 9067,
      "depr": 9068,
      "deploy": 9069,
      "##anca": 9070,
      "##ancer": 9071,
      "pluck": 9072,
      "##gina": 9073,
      "##angers": 9074,
      "popul": 9075,
      "##ateral": 9076,
      "##icting": 9077,
      "##ishable": 9078,
      "##erns": 9079,
      "thank": 9080,
      "##inky": 9081,
      "##week": 9082,
      "##engers": 9083,
      "##boat": 9084,
      "##soph": 9085,
      "infilt": 9086,
      "ruff": 9087,
      "warrant": 9088,
      "slur": 9089,
      "verd": 9090,
      "discern": 9091,
      "##fulness": 9092,
      "multic": 9093,
      "afric": 9094,
      "##eled": 9095,
      "##eless": 9096,
      "carbon": 9097,
      "brist": 9098,
      "brill": 9099,
      "britt": 9100,
      "bridge": 9101,
      "schm": 9102,
      "hob": 9103,
      "holo": 9104,
      "holly": 9105,
      "hobb": 9106,
      "geomet": 9107,
      "##ugu": 9108,
      "cyc": 9109,
      "fried": 9110,
      "blu": 9111,
      "blan": 9112,
      "blond": 9113,
      "throws": 9114,
      "##ologically": 9115,
      "##range": 9116,
      "perce": 9117,
      "percept": 9118,
      "persec": 9119,
      "swed": 9120,
      "swall": 9121,
      "swamp": 9122,
      "##uals": 9123,
      "download": 9124,
      "lifes": 9125,
      "hander": 9126,
      "wrist": 9127,
      "##lington": 9128,
      "buoy": 9129,
      "flood": 9130,
      "semin": 9131,
      "##apsed": 9132,
      "remode": 9133,
      "remind": 9134,
      "feed": 9135,
      "feather": 9136,
      "##bec": 9137,
      "##beat": 9138,
      "unsat": 9139,
      "boyc": 9140,
      "sara": 9141,
      "agu": 9142,
      "aggrav": 9143,
      "grin": 9144,
      "grind": 9145,
      "origin": 9146,
      "demar": 9147,
      "demol": 9148,
      "falcon": 9149,
      "auton": 9150,
      "freel": 9151,
      "surpass": 9152,
      "chew": 9153,
      "cheese": 9154,
      "redes": 9155,
      "##ondo": 9156,
      "concert": 9157,
      "##rington": 9158,
      "enter": 9159,
      "entrep": 9160,
      "##ulence": 9161,
      "transition": 9162,
      "transpl": 9163,
      "archae": 9164,
      "polymer": 9165,
      "##while": 9166,
      "guit": 9167,
      "guild": 9168,
      "smugg": 9169,
      "rah": 9170,
      "##leys": 9171,
      "faint": 9172,
      "benz": 9173,
      "##oko": 9174,
      "skate": 9175,
      "##iliar": 9176,
      "##iliation": 9177,
      "##dell": 9178,
      "crust": 9179,
      "criminal": 9180,
      "perman": 9181,
      "##graphic": 9182,
      "caes": 9183,
      "cara": 9184,
      "gregor": 9185,
      "antiqu": 9186,
      "marl": 9187,
      "##paid": 9188,
      "##paper": 9189,
      "##plan": 9190,
      "omn": 9191,
      "emot": 9192,
      "filip": 9193,
      "dru": 9194,
      "drif": 9195,
      "drive": 9196,
      "drumm": 9197,
      "veh": 9198,
      "##vised": 9199,
      "##world": 9200,
      "##working": 9201,
      "bloss": 9202,
      "waist": 9203,
      "benef": 9204,
      "##addy": 9205,
      "regrett": 9206,
      "harm": 9207,
      "encycl": 9208,
      "barg": 9209,
      "freed": 9210,
      "refin": 9211,
      "refres": 9212,
      "refund": 9213,
      "refurb": 9214,
      "refresh": 9215,
      "##umbles": 9216,
      "obl": 9217,
      "patt": 9218,
      "immort": 9219,
      "##ysics": 9220,
      "libert": 9221,
      "liberal": 9222,
      "prosper": 9223,
      "jean": 9224,
      "jeop": 9225,
      "jewell": 9226,
      "##ouncing": 9227,
      "##heads": 9228,
      "controvers": 9229,
      "##lected": 9230,
      "##arium": 9231,
      "##aney": 9232,
      "salam": 9233,
      "##ogy": 9234,
      "purport": 9235,
      "purchas": 9236,
      "viet": 9237,
      "broth": 9238,
      "brother": 9239,
      "annex": 9240,
      "##fordshire": 9241,
      "##rician": 9242,
      "metal": 9243,
[...]
