[PAD]
[UNK]
[CLS]
[SEP]
[MASK]
!
"
#
$
%
&
'
(
)
*
+
,
-
.
/
0
1
2
3
4
5
6
7
8
9
:
;
<
=
>
?
@
[
\
]
^
_
a
b
c
d
e
f
g
h
i
j
k
l
m
n
o
p
q
r
s
t
u
v
w
x
y
z
{
|
}
~
¦
©
®
°
·
º
ø
α
β
γ
δ
ε
θ
λ
μ
π
σ
φ
ω
а
в
и
н
с
෍
​
‍
–
—
’
“
”
•
…
ℎ
™
→
−
∴
≤
≥
⌈
⌉
⌊
⌋
─
═
▀
▄
█
░
▒
▓
■
□
▪
▬
▶
►
○
●
◕
★
☆
☒
☺
♂
♡
♥
♦
♪
♫
♬
✅
✓
✔
✨
❤
⠀
ツ



𝑂
𝑘
𝑛
🇸
🇺
🍆
🎃
🎵
🎶
🏻
👀
👉
👌
👍
👏
💀
💕
💖
💜
💦
💩
💪
💯
💰
🔥
🗿
😀
😁
😂
😃
😄
😅
😆
😈
😉
😊
😋
😍
😎
😏
😐
😒
😔
😘
😛
😜
😞
😡
😢
😤
😩
😫
😬
😭
😱
😳
🙂
🙃
🙄
🙏
🚨
🤔
🤗
🤣
🤤
🤷
##0
##e
##c
##o
##d
##r
##v
##n
##s
##t
##a
##i
##l
##b
##u
##z
##y
##m
##p
##h
##g
##k
##w
##5
##f
##x
##2
##q
##j
##4
##7
##1
##8
##9
##3
##6
##‍
##♂
##𝑘
##𝑛
##а
##🏻
##​
##ℎ
##🇸
##𝑂
##er
##in
##at
th
##es
##or
##nt
##on
the
##st
##ed
##re
##le
##it
##nd
##ic
##al
##ing
##od
##ion
##ra
##me
st
to
##ct
##ar
##ou
of
re
in
##mp
##ode
##ac
ne
##as
##an
##ro
##ist
int
##en
##is
node
ar
##ue
co
is
##ut
##et
##ata
##ur
##ation
and
##ll
it
an
ad
data
##ray
for
##mple
##ment
wh
list
##ve
##ot
array
##em
##ly
str
##ce
##ig
ex
##uct
##ver
##ch
##ad
##ity
##ow
##ect
##ith
pr
##id
##se
new
##ass
##il
##int
##ex
or
cl
if
##ack
struct
pro
lin
po
be
##ub
##ure
class
##ir
##per
al
##xt
##ent
next
se
tre
on
ind
de
##est
##iz
##lic
add
we
so
##pe
he
##ge
##ort
out
con
link
##ime
##ble
##th
##ap
index
ch
##if
nu
stack
you
as
##ate
that
not
##ul
##ess
tree
linked
time
pub
public
##ach
are
us
##av
##am
can
##bj
##urn
##ert
##ithm
##ize
ret
##fer
##gor
##alue
##lement
return
algor
algorithm
structure
##ant
obj
comple
do
element
##ay
size
##iv
##ers
at
fro
##ore
##ere
##oo
##ations
this
##us
##ld
##arch
value
##atic
oper
jav
##igh
ty
##our
print
##ik
imple
some
que
##fs
pa
complex
from
head
##mo
##list
##ie
##ast
##ions
implement
tra
sy
adj
##un
what
iter
object
##ia
exp
le
get
java
##eth
##age
##im
null
with
##der
search
##pp
##yn
item
complexity
##ator
sh
pre
wor
##vers
ta
ma
##amic
dyn
##ive
dynamic
##ger
static
##oid
all
ins
##irst
##qu
gra
##ip
##ures
first
##mm
##put
##erf
remo
big
##stem
point
en
system
##ight
need
inte
exa
void
un
##ck
each
vis
##mb
##ial
comp
insert
##ph
##and
10
structures
refer
has
##gra
arraylist
##aly
use
how
analy
##ill
iterator
##pt
##ary
visit
integer
##odes
##apac
by
##ase
##apacity
##ty
queue
ro
##rent
##ence
##ace
##ild
set
nodes
##ine
##sis
cur
##all
res
arrays
qu
analysis
up
##art
top
##ous
##cc
inst
meth
progra
method
typ
##oc
remove
code
##ally
prev
order
##ory
ha
dou
su
operations
##data
no
##row
app
##ated
##ener
##orm
graph
##ance
example
##ies
mem
##ound
##ike
memory
elementdata
any
one
##cl
travers
##tt
work
ab
child
##ile
string
more
##mber
##ust
have
##ard
root
##capacity
implementation
##ter
##lo
like
bfs
##ath
visited
using
end
case
##out
##ction
##ep
##ition
##ould
##te
acc
traversal
##ln
sour
const
println
##cept
will
sp
##ics
arr
spe
last
##les
perf
dis
und
##iew
##ning
over
##node
##ff
gener
ed
##ab
sort
##ain
##ib
##ame
dif
##co
##enc
source
##ues
##ress
boo
var
used
##view
lists
mo
##able
cre
spec
number
types
##ther
##mpty
output
##ult
dfs
##ract
##inary
##ek
wik
##ner
##erm
algorithms
imp
##ich
pos
vert
where
type
call
items
binary
your
there
##ior
##ire
##ind
when
fun
def
access
other
des
##00
reference
##ating
perform
bound
my
##ges
##ious
##que
loo
appro
constant
operation
tr
which
##eck
##ke
newnode
differ
para
prior
te
##ical
htt
http
ass
giv
rep
##ient
##ud
input
##ings
##ush
cons
##pend
varia
given
only
cs
sing
pointer
##low
ke
review
tw
cont
trees
##ree
##lean
bas
##ount
specif
quest
##met
eff
heap
sub
go
boolean
##gh
##res
##oth
push
program
double
##um
fo
rec
curr
lo
##are
queues
##ft
##ular
el
pe
grow
same
me
##ong
comm
inner
space
then
notation
20
run
requ
current
##ates
min
parent
function
lect
mid
why
vs
##ice
##ected
##ested
programm
##ruct
##ite
##ices
part
create
##cr
priv
lecture
##ren
line
##con
private
stor
defin
two
##ark
##itive
store
tail
n2
##ign
import
under
##ick
##ough
man
but
##lle
##resent
im
##llow
##ese
questions
represent
##ext
cost
##ans
##irc
follow
effic
circ
##meters
si
about
parameters
##os
dele
##om
doub
##blem
loc
##erface
##ix
problem
sc
these
##op
vertices
am
let
org
ap
different
approach
##urs
does
equ
empty
n0
##ol
##ield
com
aver
##vel
dep
interface
##queue
##anc
id
##af
det
find
instance
pl
stacks
insertion
singly
circular
##ities
else
mod
##ide
right
should
file
##py
children
generics
priority
programming
image
doubly
average
iterators
##ception
term
##read
##gin
comput
##eight
equal
field
##ange
left
##ens
specific
old
##ang
classes
level
pop
##irect
worst
max
main
sol
arg
step
##order
start
see
make
##ks
would
##fore
common
way
##act
fix
##nected
export
want
rel
##very
log
##ater
##its
##ict
previous
its
while
low
##ject
tak
may
##10
##edia
##tra
##class
cour
##dle
##ish
loop
requir
position
##oday
outer
##bles
efficient
depth
##ipedia
wiki
wikipedia
cast
elements
just
path
##ern
##ency
cor
than
init
back
##ail
begin
recurs
middle
mark
paper
remov
works
peek
initial
today
##ments
##inal
seth
adjac
called
mincapacity
setheight
check
every
temp
##ink
##we
##thing
instruct
##eng
bet
gm
sv
##ized
variable
address
upper
post
##bo
nested
things
##array
points
following
svg
##so
long
inf
true
##one
into
er
here
descr
##ces
thr
##ifi
local
both
##ord
methods
##log
important
course
##value
##ually
constants
read
append
act
hasn
leng
##uch
length
project
##ason
key
##ry
##io
##ym
stud
concept
et
delet
lg
also
through
takes
graphs
kn
ru
war
##ag
##line
hasnext
##ead
best
##cre
form
pred
##ose
express
##check
sl
val
##ors
applic
##of
short
##ically
colle
describ
ver
ise
adding
needed
running
prim
disc
isempty
##au
##za
err
math
##abil
##way
prov
edu
thro
adv
table
bread
##ases
##ides
args
##ution
##own
pract
##stand
##ise
expl
good
capacity
##ttle
etc
variables
throttle
breadth
newcapacity
100
gmu
##cess
##ful
##ents
grad
mach
##onym
mult
white
copy
##ider
##uss
##iple
##onymous
result
##anced
cs3
before
##iaz
move
lower
upd
af
ev
complete
most
machine
piaz
performance
piazza
##25
##el
##ak
##ull
##verse
decl
car
deg
##type
abst
quick
know
br
##estine
hash
understand
abstract
##mples
leaf
amort
##ween
linear
expression
##mpl
below
without
examples
such
vertex
fields
between
primitive
lar
adt
2025
##rect
sch
ho
partic
ide
ge
##ared
##app
##board
fact
##ug
predict
cy
##orial
front
after
##ga
warm
discuss
anonymous
correct
fr
compil
ht
high
convers
alloc
##ernal
cs310
keep
simple
bl
##itt
resour
amortized
much
range
collection
2n
##ify
traverse
edges
terms
equals
casting
very
non
ut
enqueue
cha
count
##lp
##iss
prob
##cond
must
##ved
put
contain
throw
eas
##usse
##imit
lang
##ns
extra
##alk
##ematic
consider
##olog
##ian
allow
##ences
later
##ran
proper
mathematic
ac
per
##ization
height
instead
computer
error
iterable
sw
yes
##pport
t2
##ages
usually
means
adjacent
deletion
whiteboard
resources
##ual
bad
##uc
down
##ative
tot
##ector
ens
lot
opt
##atch
##imes
activ
doc
practice
incre
help
cod
##itions
process
lif
##ta
total
ome
##ri
second
summ
basic
storage
detail
util
##ward
modifi
connected
positive
vector
searching
problems
applications
coding
omega
hu
dequeue
rangecheck
hand
web
##ours
bal
wr
##ling
##ml
bu
pack
fast
neigh
##exception
neighb
dur
flo
##rod
lear
those
simpl
limit
##ne
##side
exe
##fits
##orge
##member
easy
sem
##ways
remember
##irected
h1
##tree
##aps
hours
##cle
##ctions
implemented
references
byte
sets
basics
exporter
requires
describes
highest
mathematical
summary
details
##search
mylist
myclass
##ester
exception
sep
##ream
off
##ability
##ivers
inter
implements
generic
final
##xim
particip
introd
returns
expand
shr
approxim
assign
scen
sched
ary
client
note
single
required
recursive
##ntime
##connected
their
rem
edge
multiple
html
float
ban
mat
n3
t1
always
outline
uses
typically
sorted
bounds
definition
removing
concepts
runtime
updated
ensure
40
##ves
traversals
binarysearch
oldvalue
##ness
stored
##man
##ists
fe
##ional
##lf
##lying
##ause
charact
##be
##ants
text
well
##other
happ
##ier
uns
univers
emp
nar
##red
num
##ron
##ars
neighbor
bo
##iated
underlying
many
delete
recursion
give
sa
##cend
aslist
##encil
pencil
something
beginning
scenar
university
##ied
theta
polle
typical
difference
solution
related
loops
docs
package
during
11
fl
##dep
##men
char
setdep
special
setdepth
ag
##bs
##ware
gr
##hip
##iter
student
occ
repe
orig
##ands
exec
dem
fal
inde
##wn
##flow
they
week
hal
##iency
sequ
cond
design
aut
##ins
##ening
pass
##count
##up
state
cal
track
compare
look
narrow
stop
reason
##asure
show
perfect
mason
another
av
ph
##pendent
langu
original
george
independent
cases
free
##ana
once
addition
disconnected
sorting
based
grows
definitions
fixed
values
shortest
grades
modifiers
webp
semester
approximation
clients
scenario
sequence
27
30
##nested
##11
adestine
staticnested
undirected
oldcapacity
##ting
inv
sur
##not
##uction
##ird
che
integ
false
direct
pres
##ivid
inform
red
##led
##fic
##rec
character
##ond
##alu
conc
deb
found
mode
##ring
##boo
functions
try
sim
##wise
##cles
ent
say
##ule
##rees
##ash
##lc
them
##ether
support
think
real
evalu
reach
op
own
##ux
trans
objects
overflow
otherwise
##track
advant
##fg
three
arch
poly
explan
shrink
empir
##ts
somet
useful
##pends
representation
backtrack
office
information
##port
##wh
added
complexities
##moved
needs
topics
working
https
represents
approaches
efficiently
hashing
cycles
compiler
conversions
balanced
faster
participation
introduction
language
sometimes
000
12
50
59
gu
gfg
sm
##ving
##internal
##capacityinternal
dfsrec
adjacency
ensurecapacityinternal
nummoved
pollev
ra
##come
##und
reco
##tes
##ank
prot
wid
##less
##ley
##ensive
##ss
##gn
##llab
poss
##copy
tut
##ilar
ame
##ging
##rop
fa
##ible
bec
anytype
determ
ben
##ok
arraycopy
##ully
catch
sk
cover
##ili
name
##ove
take
descend
integers
because
mot
##her
##ople
##nom
##ze
now
##anges
##istic
##ific
cannot
##imum
amount
similar
##where
russe
##cul
third
wel
exact
require
model
h2
our
##uted
##thod
subclass
people
steps
slides
large
textboo
debug
polynom
tutorial
russell
polynomial
g2
g1
unt
##de
##inc
##aves
doing
expensive
ordered
above
therefore
looks
defined
represented
efficiency
initialization
instructions
readings
students
provides
advanced
declared
understanding
idea
activities
learning
schedule
narrowing
empirical
widening
200
kr
fits
struc
printarray
1000
prevnode
inputarray
instanceof
modcount
factorial
lifo
amethod
##ms
##ives
##ustr
##obj
cr
perm
##graph
super
##aven
##clud
tas
##len
ca
gre
ill
##ering
##tend
##ified
welcome
##ism
ant
cub
##ons
soft
fill
##cest
##for
##meter
ans
construct
mar
talk
##ted
##ining
##ited
stream
assoc
brit
calcul
oh
##min
quad
foc
hard
litt
expect
due
##pa
assu
##pl
##als
seek
maint
eng
place
raven
##ah
ancest
aren
factor
half
archange
focus
maintain
310
aux
destine
ora
##icron
internal
beh
##iend
diffic
book
##ordered
relations
happen
##iterator
little
jo
test
##vey
syllab
compon
tech
rule
property
repeated
auxili
difficult
relationship
maps
##stack
##ets
outside
preorder
units
compile
compared
anything
creating
bounded
parameter
specified
heaps
starting
instruction
describe
degree
conversion
contains
considered
limitations
banana
explanation
streams
associated
british
oracle
syllabus
auxiliary
15
32
##ison
##ift
javase
sometype
unordered
method2
##ards
myiterator
subtree
##usselc
krusselc
om
##king
##ential
far
##aring
##ience
##pm
##fully
##gener
ds
fall
la
walk
em
mater
##cious
##ties
clos
numb
write
illustr
fil
vers
##ee
net
##ational
maybe
##ined
princ
sever
indic
ple
##acks
dr
drop
ve
##word
##nto
##adem
self
##cope
vari
content
motiv
##generic
material
full
inher
uncheck
##eks
assist
degener
academ
optional
demo
unchecked
bra
hint
question
condition
survey
might
sign
##vis
##oup
##vent
conver
expans
blank
dist
sib
##ged
##wor
includ
forward
except
##ading
sin
##cing
##ection
conscious
inherit
ci
##ton
##math
isn
lines
along
shift
specify
doesn
probabil
simplify
cubic
##iendly
onto
pers
##ament
##arithm
been
depends
adds
weiss
links
changes
notations
##ays
prints
leaves
gets
pointers
enough
analyze
bytes
overview
created
calls
storing
equality
solve
logarithm
removed
application
copying
larger
allocate
##ological
allows
properties
activity
assignment
executed
statements
reasonable
software
assume
components
repeatedly
principle
several
degenerate
academic
inheritance
probabilistic
03
22
3n
37
blo
tation
𝑛𝑛
inorder
##velo
##ided
javac
printmath
implemen
mystack
cs2
postorder
omicron
printmathtree
pick
small
dra
ll
sum
##tern
care
##land
##pect
##erv
stand
wa
att
bre
fund
##edi
impro
command
hunt
bene
ok
supp
sure
##add
##ipul
##ibly
ident
cle
synt
subm
obs
##sh
reg
develo
##most
cf
##ww
##mpt
exam
numbers
##work
nat
slow
##element
##oper
##str
##arly
##ationexception
##apt
##uled
overr
general
tell
termin
better
group
##lex
individ
manipul
everything
interview
##vant
##ber
exist
tag
##inders
define
explain
build
individual
could
har
##ood
##ratic
##ulation
avoid
fundament
##ni
##hes
##gle
enc
unf
via
##name
tog
reus
expon
##imin
programmer
##after
projects
discussed
please
since
bar
hc
hon
hier
turn
times
www
##iting
##ints
assum
##metic
measure
increment
improve
hierarch
##ats
comb
socr
underf
backward
keyword
option
huge
exponential
2h
fre
lacks
##ven
##ued
ref
arith
treasure
conn
implementations
tracing
##pped
making
##cks
refers
upside
anywhere
priorities
consists
recap
follows
science
api
maximum
ways
initially
results
completely
declare
friendly
allocating
probing
allowed
swap
lots
increases
helpful
processing
reminders
occurs
freeing
reachable
advantages
raise
possibly
debugging
until
quadratic
version
assistance
logarithmic
carefully
benefits
together
socrates
arithmetic
13
25
300
45
55
67
es
l0
##ffer
##struct
classname
deque
printf
2n2
gradescope
cs211
reusability
underflow
##ax
##umb
##ute
ob
pat
##ole
##mend
##aces
itr
##ten
##ument
##hs
rob
imm
sn
##ys
##ites
##itch
##ade
##ertain
##ols
lib
##ura
##wer
##ored
even
goo
hum
ign
##utions
pros
cho
##ators
##aining
##ances
unsu
je
rand
##get
##oun
##mmend
##ann
prof
dec
recommend
suppress
##ale
##by
##head
##cent
##self
ali
contro
separ
autom
##to
##ores
##lect
##rar
dead
prefer
unl
multip
##pported
unsupported
less
##ntial
##ality
##ari
##ane
##ately
account
life
present
##operationexception
unsupportedoperationexception
sal
##ever
##og
##aw
##ules
##atically
c1
fif
##ots
nos
##anged
pur
vi
##oint
##mark
though
elimin
frid
open
bro
hy
##last
##stream
neg
ann
canv
enab
books
formal
##ologies
feat
honor
random
unlike
c2
icon
pow
wes
##ced
##vious
##ford
itself
##entry
choo
complement
atte
##ilde
instant
##term
constra
effort
##play
clear
##eds
extern
##advant
##imeter
tables
disadvant
request
info
##uchelement
particular
execution
redirect
encaps
nosuchelement
nosuchelementexception
2k
cout
divid
oop
yet
##ov
##nes
##pre
##erning
##atio
##ivity
objection
various
parenthes
##ission
matter
again
cheat
advantage
techni
files
expansion
identify
##ffered
google
friday
external
jd
kh
late
rules
##yle
##ines
often
nearly
covers
whether
alread
changed
notes
algorithmic
printing
within
inserted
referring
topological
sources
generally
inputs
pushing
parents
midterm
coming
finding
computational
logical
taken
checking
instructor
instructors
reading
deleting
forming
formally
provided
grade
update
degrees
predictions
cycle
discussion
correctness
compiling
increase
modifier
simpler
happens
directions
concerning
evaluate
evaluating
##porter
protected
descendants
requirement
subclasses
textbook
textbooks
constructor
calculate
hardware
ancestor
illustration
motivating
signed
exceptions
standards
slower
overruled
automatically
accounting
eliminates
canvas
constraints
encapsulation
dividing
parentheses
already
01
14
21
42
78
87
tilde
##ef
##ric
##war
##24
##29
##44
##70
##input
##asri
nodeins
newdata
newentry
##exporter
linkedlist
operands
getexporter
item2
item1
item3
insertlast
method1
method3
logn
rangecheckfor
addedge
getsize
fifo
jdk
##inputstream
nodeinsert
rangecheckforadd
met
art
##ility
conf
dest
fra
mer
na
##ds
##ler
##ha
##ott
person
ir
##ell
##ians
##ming
##orn
##isk
##izes
gl
norm
##ager
##ily
cop
##pers
repl
##ls
##bur
##itable
##aster
convert
scr
##ault
##uck
extend
env
##nings
profess
day
view
##yc
##box
fred
##ification
mon
rest
round
wed
##hing
##rad
reh
rele
##ache
##ather
##ords
alex
bit
fit
foo
sit
tight
##rib
##ital
inc
iss
polic
del
##usted
viol
dup
##uous
##reg
ste
##licit
##ively
play
draw
natur
di
lab
##gb
##oring
##ionally
##igning
##iron
##ipt
display
consum
goal
##ancing
observ
bub
cra
four
tall
win
##erve
offs
arran
proport
##aged
##uced
board
develop
connect
sr
##ying
still
exc
##pec
organ
invol
engine
recommended
environ
gain
mis
##ara
##lings
##child
bey
##ired
overlo
consist
meas
tempor
infin
home
document
concur
##pective
##urable
suppresswar
normal
environment
suppresswarnings
aff
fran
tok
##ised
sept
##iform
##uling
page
uniform
compar
recover
situ
duplic
den
gc
mc
##old
style
##ouse
##ching
##chas
poor
seque
##ortun
change
##uses
##ills
quite
default
declar
additional
great
##parent
email
fundamental
temporary
mal
sav
##code
##ma
##pos
whole
##izz
nothing
resp
##000
manner
manager
learn
entire
network
##ediate
##nesd
##efined
wednesd
cause
certain
dig
pen
ser
##ham
##ered
##ety
allen
area
domin
someone
trade
explicit
##pping
##quency
anyone
overhead
growth
minimum
everyone
practical
handle
exceptional
repeat
unfortun
negative
proportional
##children
concurrent
sequential
ai
able
away
cache
directed
m2
mor
o2
opp
par
##son
##tle
##ka
thus
stands
tools
prove
popped
seen
chaining
usage
returned
##ivial
operating
pages
syn
expected
least
leading
searches
sharing
worse
pointing
systems
unless
referred
however
suitable
traversed
traversing
moving
performed
twice
contents
programs
records
runs
programmers
parts
stores
defines
importance
images
circle
doubles
locate
plates
computing
computers
mainly
solving
solutions
starts
addressing
conceptually
slide
collections
proving
provide
explores
grading
geeks
allocated
probability
considering
perimeter
seconds
balancing
buffered
limited
participate
introduced
expanding
assignments
scheduling
said
cheating
directly
determine
determining
covered
descendant
exactly
requirements
ancestors
tests
closest
variants
sibling
siblings
blocks
syntax
manipulating
assuming
hierarchy
combining
frequency
aliases
control
separate
deadline
preferred
enables
features
choose
issues
violates
naturally
src
beyond
measurable
tokens
comparison
declaration
##parents
unfortunately
02
18
16
23
211
48
43
5n
65
64
80
brow
o1
o3
opends
squ
##nodes
##trees
##forge
##28
##23
##15
##67
##nds
##inger
inobj
intvalue
node2
node1
datastruct
##adoc
bel
outobj
indexof
javadoc
printparents
implementatio
getclass
sha
dynamicarray
10b
10gb
arraylists
topmost
acco
##index
initialize
intobj
##logn
copyof
adts
##ology
acyc
engr
terminologies
hugecapacity
450
dequeued
instantiated
rehash
geeksforge
opendsa
acyclic
geeksforgeeks
bur
port
tar
##ina
##rap
##aries
##ased
##comp
her
nav
##ock
##sel
##ulate
##ames
##osed
##ished
##aging
break
don
gar
##aced
##istr
##otic
poll
##cont
cent
hos
##even
##time
##ium
##pr
##gest
exper
prod
##iable
unre
succ
comment
comments
est
##ump
##greg
##ision
col
##ille
leg
unw
##ibility
contin
plan
##els
demon
cred
fin
ment
##sy
##uments
##he
##atter
secre
##ably
subst
##ordin
##apping
counteven
aug
dict
os
row
sne
##hor
##ster
##izing
##orted
road
jul
##az
##bound
##use
##gy
##iny
##inks
##itution
stra
tost
admin
dev
notice
##aby
##arks
bank
occur
##force
human
bott
mus
ye
##equ
##ograph
##na
##hib
##att
##orate
offer
##orth
shut
##ques
##osition
behav
cro
cate
din
oct
pc
rout
won
##den
##la
##gment
revis
attend
##lds
##asted
##quis
grand
##arded
equiv
arguments
hosp
kind
##ser
##uro
##ps
##icip
##ody
subs
hope
##ounce
success
demonstr
base
nan
##do
##wood
##icle
stan
##ference
##actic
swim
power
navig
categor
air
emb
event
sect
tent
##over
##ru
##pose
##ero
##ery
##ination
revers
intro
coordin
word
speed
subject
representing
detect
wrong
administr
cn
cap
fac
pd
##earch
##cast
##br
##unt
##ured
##lled
##exp
ask
ascend
##ung
world
research
accord
diff
effect
program2
simp
##aky
hood
aggreg
auto
compareto
##ledge
camp
wait
accompl
behavior
hospital
bran
got
mil
wrap
##ca
##uff
proce
alg
##essage
lever
##cock
##irection
load
descript
##ifying
switch
occas
transfer
anticip
scratch
accomplish
finger
glo
made
rad
ram
sink
vir
##ries
##rix
##mer
##med
thumb
##itivity
##rary
states
##ene
arian
strong
almost
##lication
##ulty
##user
##imize
encount
analyz
bestgeneric
##itting
regular
patient
jeff
purpose
fragment
##radic
overloading
target
bottom
map
oth
pay
smo
##dis
##lish
##uitive
##go
##field
rein
newly
##interface
close
proced
soon
iterate
goals
conceptual
format
avail
phone
skip
##ificant
join
announce
attemp
digit
##selves
credit
mention
ce
cut
der
done
dimit
names
rate
sor
sam
section
wm
##ecess
##ira
##iation
##ios
##erpt
##let
intuitive
##isc
##utations
##llars
prere
##sec
profic
ones
user
operator
insign
unexp
compact
composition
undo
commun
relative
predecess
knowledge
flight
faction
untr
answ
bookmark
laid
obvious
robin
librar
wesley
policy
playlist
bubble
fourth
excerpt
consistent
shape
product
nanot
tentative
administrative
according
prerequis
unexpected
1c
1s
4th
5th
aka
cats
dlc
ep
elect
gpa
io
iee
med
nk
n1
none
pet
ranges
rhs
rather
tern
tiny
v2
v1
wider
wasted
##ave
##gr
##leaf
too
took
around
listed
exists
##adis
##ows
online
addison
operators
printer
implementing
iteration
objectives
searched
dynamically
grader
inserts
visits
quizz
upon
instances
anytime
traverses
likely
ends
undefined
generates
edited
moves
imply
calling
accessor
designing
performing
trivial
tends
basically
subtype
lost
commands
functionality
tailored
managing
costs
followed
locations
averaged
ides
detection
modification
shouldn
compute
populate
commonly
wanted
relation
begins
removes
removal
checked
posted
longest
actually
actively
deletions
warning
expressed
slots
discarded
errors
updating
quickly
linearly
largest
holds
ideas
discussing
compilation
allocation
keeping
containment
ensures
helps
writing
duration
learnt
simplified
shrinks
approximate
assigned
remarks
matrix
fewer
characters
unspec
sample
save
halves
conditions
statement
narrower
shows
invari
preserve
entry
ops
explanations
possible
faulty
skills
permutations
tasks
causes
constructs
calculus
expectations
behind
farther
closer
indicate
indicating
indicates
variety
motivation
converted
expansions
include
includes
including
syntactic
submit
submission
exams
tells
manipulations
builds
fundamentally
hierarchical
immediate
ignore
ignoring
choice
choices
multiply
multiplication
attempt
disadvantage
disadvantages
technique
techniques
article
copies
replaces
##boxing
released
observation
involved
engineering
infinity
situations
duplicates
greatly
saved
wednesdays
opposed
synonymous
browser
##content
secrets
substitution
sneaky
shuttle
dinner
routing
demonstrates
stanford
navigation
sections
pdf
ascending
simply
aggregate
branching
wrapper
proceeds
occasionally
ariane
strongly
others
procedure
available
announcements
dimitri
proficiency
insignificant
predecessor
libraries
prerequisites
ieee
quizzes
unspecified
05
04
09
06
29
2ℎ
36
52
77
85
967
fav
gro
lhs
lisk
masri
n4
nlogn
pal
swe
ter
ten
tim
xss
−1
##day
##air
##bit
##grees
##kes
##20
##41
##48
##46
##76
##13
##65
##𝑛𝑛
##ino
stat
rev
##odeafter
intarray
intstr
##enodeafter
node3
heart
printde
printchildren
printleaf
iterating
javaoo
unvis
insertions
insertafter
1024
haspre
method4
method7
method8
method9
##ormessage
bfsof
bfsdis
endl
myexception
cs11
subtrees
doublearray
2010
parentindex
##eighted
step2
step4
step1
step3
##verywhere
removenodeafter
##ofbound
errormessage
1002
charar
bytecode
recursively
mat2
mat1
unsorted
polleverywhere
1129
author
transitivity
128
59pm
fair
2007
crit
permute
quadradic
036
223
3n2
3n3
372
itr2
itr1
googleuser
147
1415
483
4370
##288
4508
unreference
unweighted
tostring
##abytes
autoboxing
gotchas
wmasri
untrusted
nanotime
1cn
dlcp
ternary
invariants
shuttlecock
dimitriadis
295
775
854
9679
liskov
printdegrees
printleafnodes
unvisited
hasprevious
bfsofgraph
bfsdisconnected
cs112
chararray
googleusercontent
cust
light
mess
##rict
##iet
##itation
##ened
##com
elt
##end
##lin
##ky
##ken
##ising
sell
##ests
##iff
past
##load
mygeneric
recon
##object
fur
hist
ur
##sp
##ses
##amp
##inct
##ano
##oty
##iding
prop
##ief
##unch
##cket
compet
scre
##ops
##well
##alent
jun
mac
##rated
##ny
##sing
##bu
##bal
##ping
ord
##ifies
##ula
##ially
valid
##aking
black
ast
ear
fam
ga
ham
wind
##orp
##oration
##ones
neuro
intern
##ude
appe
##itted
##ney
hor
saf
ts
##cy
##ob
##oy
##olic
##rist
##ville
##ned
##house
##ication
##outh
coll
##uring
##ool
she
prec
unc
##cover
param
##aker
ba
gen
lu
miss
sand
##li
##lines
##ba
##back
##inder
##ature
cook
##ett
##oted
##char
##chan
##ader
##esting
##rence
scal
smaller
restrict
counteven2
custom
ach
tur
wil
##vo
##has
##ony
##eded
##ingu
##rant
rece
ing
##lly
ext
symb
mont
##resp
lock
mean
##augh
ber
cam
flow
gig
had
ms
medi
tang
##ost
##rs
##ball
##point
##gu
##gg
##gan
##ises
collab
##eting
##ids
soc
chap
##ached
##aving
dom
prep
mel
##igned
##akes
##itten
block
cat
dm
dar
dri
li
mcc
side
tor
##ye
theor
##etic
fore
##ubs
##essed
##ook
adjust
diss
depart
acqu
offic
charl
##bury
extends
experi
bid
bach
body
div
mic
master
psy
rh
vol
##oph
##ding
##ipp
##ws
##nted
##icul
##allen
interm
##lling
adapt
altern
select
deal
deep
##antic
##lder
tab
##ips
spring
##enced
trust
contrib
program4
blue
interpre
##mann
guard
##oked
distrib
frank
sellable
aud
du
ever
gn
god
liter
mill
pep
sil
sus
wal
##oon
##ake
##iest
##uate
##zz
##yl
##pri
##aty
##ica
infer
necess
come
##etch
##emy
##ects
##sex
prohib
pol
##atory
prevent
ener
##ightly
mechan
corresp
market
accept
##burg
belie
equivalent
facil
virt
smooth
##secut
achie
psych
correspond
aw
fer
fire
jar
lon
ns
pie
pars
san
sun
was
##ai
##gs
##acy
##ecting
alph
decre
weight
christ
##erson
travel
enh
union
appoint
appropri
court
evol
containing
box
possess
respons
occurrence
propag
screen
safe
bes
cp
cas
cart
dia
eight
gt
mad
march
sat
tro
wood
##round
##aff
##lection
##alty
incomp
##etical
##ural
##urate
exha
##idge
##ils
orient
treat
##imens
challen
##ama
sho
pretend
compan
spread
##ablish
##gins
brief
cyber
country
bench
##annel
sales
##attered
global
favor
reconstruct
bi
bio
dag
gal
hol
ken
ly
land
mond
nou
opport
pun
sle
##ey
##dy
##ral
##iver
##lint
##light
##bed
##uer
##ya
##wr
##inant
##aten
##stra
##alid
##ras
tool
##ros
##room
##ense
arbit
##utable
##etime
adm
force
forget
##idden
decomp
chat
##ifiable
retain
inspect
##grade
discover
impact
parad
tele
meg
##itely
plu
plate
ideal
neighbour
distingu
standard
attack
##she
esse
hyd
incorp
establish
legal
finish
music
##rupt
##comes
further
opportun
amb
bow
dat
dun
eth
ecl
jud
pm
pse
risk
##da
##best
##path
##gress
##worth
##iness
thread
##itives
star
##arian
ren
inequ
near
never
##anner
##istics
##eners
##igm
##iguous
exclud
##iled
send
##esters
##izable
chain
channel
##uls
##iving
lend
magn
inside
unit
quiet
gives
recur
manage
popular
##logy
slightly
##rano
percent
huff
webs
feel
phot
guide
prototy
task
illustrate
distinct
thought
replaced
##print
##charge
pepper
pseud
bon
ball
dan
dimens
ease
hur
live
mas
mur
mart
micron
pan
pot
went
were
##ox
##rd
##ris
##bor
##mod
##ho
##gen
##form
thing
##reed
##eterm
adequ
strict
##ched
##chain
##ither
##ident
##ires
alle
asym
usemy
##erful
enforce
unic
unne
uncle
##ialization
usebest
upload
spaces
repet
##othy
program1
program3
##icks
plot
argument
formula
##condition
basic0
phil
invalid
redd
answer
demograph
attent
reflex
##cently
professional
arrange
development
organization
square
garb
diction
revision
reinforce
driver
department
benchmark
essential
eclip
usemygeneric
usebestgeneric
bip
born
direction
ele
lapt
rub
tk
vary
water
xm
yay
zero
##ez
##eme
##cs
##sa
##iers
##ympt
##pro
##hh
##hood
##hold
##eral
##atible
##ona
##onse
##ste
##stone
##ico
interf
arm
##ette
ang
forum
whate
clue
classified
##irus
indust
consecut
ash
asympt
##ived
worry
words
makes
pointed
setup
##ously
##enery
overall
loose
pears
manual
imag
among
plane
posts
actual
##crete
multi
movement
keeps
resource
password
guid
protoc
antiv
assumpt
##ahn
versa
developer
nature
espec
robust
library
decided
naive
irres
professor
dij
overload
wednesday
continuous
eventual
history
family
internet
symbolic
medium
official
charlie
alternative
energy
virtual
spreadshe
whatever
industry
2f
2pm
3pm
3rd
ble
bud
codes
cab
capt
citation
dll
days
e2
either
fits
fully
gh
hall
hano
hiding
having
jv
ju
ko
k2
k1
kahn
laf
lying
liable
mapping
nx
nth
nlp
pu
p1
ped
rj
ratio
scope
tested
vt
v8
vice
west
xml
##ome
##riendly
##n1
##ship
##ien
##ius
##bre
##gar
##ker
##joint
##ini
theory
##ita
##nder
tower
reverse
reuse
recently
##uts
##eter
forests
listeners
##ote
##ads
##ades
##iles
linux
popping
being
become
becomes
selection
indices
concrete
linking
chapt
chances
noted
publicly
usb
users
usability
completing
completed
dose
doable
dollars
somewhere
paid
paired
getting
shar
precondition
granted
bigger
visible
visibility
comparing
referential
visiting
rock
setting
respective
##artite
topic
nont
##ormat
abs
##loy
accurate
spr
speeds
disk
disaster
disjoint
generate
generated
generating
moved
outputs
positions
whereas
whenever
accessed
accessible
desired
performs
myds
tries
differences
priori
assigning
assessed
contested
contesting
contiguous
pushed
folder
curricul
loiter
meeting
minors
minimize
lectures
privately
defining
definitely
imports
manually
manages
doubling
location
locates
scattered
scanner
letting
placed
modify
modifying
##reader
specification
specifications
levels
solved
solves
seeing
relate
previously
courses
justify
paths
pathological
checks
posting
longs
locality
ready
acts
study
studying
known
##linear
forms
predefined
verbs
verifiable
primitives
advice
practically
exploration
graduate
resulting
declaring
brute
abstractions
amortization
scheme
factors
predicting
warmup
discussions
correcting
compiles
higher
probably
puts
putting
thrown
easier
easily
extras
allowable
properly
mathematically
mathematicians
swapping
options
optimize
lifetime
detailed
utilization
handled
written
bucket
packet
packets
neighbors
simplifies
semantic
semesters
interest
expands
scenes
scheduled
remaining
reminder
floats
banner
##beans
unsigned
scenarios
charged
agreed
weeks
looking
reasons
perfectly
languages
additionally
invoked
integrated
presence
redo
modeling
entries
themselves
supports
supported
supporting
evaluated
reached
empirically
gui
protects
##ssen
determined
determinant
catching
descending
ourselves
permits
permission
permitting
grew
green
cube
filled
calculations
expectation
maintains
maintained
behaves
behave
joh
jobs
component
closed
illustrates
drives
variant
bravo
conditional
signature
perspective
smallest
waiting
attached
identities
submitted
observe
developers
overridden
termination
terminology
grouping
tags
explained
harder
avoids
unfriendly
assumes
assumed
improvement
combo
optionally
connection
immutable
humans
decision
suppressing
aliens
controlled
separates
deadlines
broken
enabling
feature
powerful
choosing
efforts
clearer
requests
destination
merge
nave
copied
extended
professionally
viewing
rounded
rounding
relevant
policies
delta
labels
consumes
consumed
consuming
observable
bubbles
arranges
arranged
organize
involves
gained
consistency
infinite
homework
documentation
affecting
situation
duplicate
denoted
response
penalty
server
dominant
dominates
portable
centers
experience
continued
dictate
years
offers
revisions
attendance
grandchildren
kinda
subsets
successor
swimming
categories
reversal
reversing
coordinate
coordinated
campus
##irectional
description
descriptions
anticipate
anticipated
encounter
encountering
analyzed
analyzing
paying
attempting
attempted
derives
sorry
intuitively
communication
relatively
answers
answering
playlists
timothy
statistics
fairness
critical
lightning
messages
compete
orders
validity
windows
appears
precision
uncertain
missing
scalability
restricted
customized
receive
tangent
collaborate
chapter
prepare
blockchain
dmv
theoretical
acquire
experienced
bidirectional
bachmann
intermediate
adaptability
selected
deepest
contributed
blueprint
interprets
distributions
literally
necessary
prohibited
mechanical
believes
facilities
achieving
longer
pieces
alpha
traveling
enhanced
appointment
appropriate
evolve
possession
responsibility
propagation
besides
incompatible
exhausted
oriented
challenge
companies
salesman
reconstructed
mondays
nouns
arbitrary
decompose
paradigm
plugins
distinguished
incorporate
opportunities
inequality
nearby
excluding
percentage
huffman
websites
prototyping
dimensions
##etermin
adequate
unicode
unneeded
repetitive
reddit
demographics
attentive
garbage
dictionaries
eclipse
laptops
varying
interfaces
consecutive
asymptotic
pearson
imagine
guidance
protocols
antivirus
assumptions
especially
robustness
irrespective
dijk
spreadsheet
hanoi
chapters
curriculum
loitering
07
1n
17
19
1day
2i
24
28
26
2𝑘
31
38
33
3𝑛𝑛
400
53
5000
60
61
63
6ms
7n
79
76
700
767
720
800
8n1
94
99
93
bat
bor
band
da
gun
gall
gisc
henery
jgra
k0
luc
mu
myn
n6
nester
od
ox
o4
py
rid
roo
sens
w4
xms
xlint
ℎm
→s
→not
∴2
≥𝑛𝑛
t
gn
n
𝑂𝑂
𝑘𝑘
##0e
##02
##065
##cer
##dfs
##down
##ration
##rie
##rivial
##next
##sms
##totic
##imp
##bb
##bfs
##binary
##height
##gpt
##ked
##ketch
##water
##58
##576
##5288
##first
##21
##43
##458
##7e
##71
##1g
##18
##129
##170
##846
##85288
##8170
##93
##385288
##62
##644
##623
##60e
##6458
##6385288
##rece
##itor
##itter
##arment
##arley
##oud
regrade
##rom
##roll
intance
intialization
##isation
##lla
datainputstream
array1
arraybinary
##emb
##vert
##ches
newheight
clrs
structs
profs
##ubject
classcast
classpath
##irm
##perimeter
alb
treetermin
addnode
outofbound
link1
indexout
stackover
##ams
##amm
##ereader
##usion
value2
value3
objectinputstream
lec
getare
getperimeter
##erformat
enque
unbox
unbu
10n
102
103
1048
referrece
resizes
resizable
method5
method6
##ocode
graph2
childindex
##outs
overcharge
##ains
bool
used3
dfsgraph
##00000
subinterface
gochas
booleanvalue
booleanhas
push23
doublevalue
doubleobject
foot
vscode
##crib
n0​
deparment
##ancy
findnode
findelement
fileinputstream
arg2
arg1
arg3
logk
##ishing
cormen
recursions
initializes
longvalue
infl
infix
appends
shortvalue
##standards
carrano
utas
bytevalue
genericstack
floatvalue
4028
40129
deletefirst
charvalue
avl
webp1
webp3
webpround
webpdfs
webpbfs
308
30am
concaten
##book
127
12pm
##ificationexception
1000logn
100000000
factorially
superclass
superinterface
superlinear
15th
324
3241
fall20
numberformat
filereader
netbeans
academicstandards
𝑛𝑛or
𝑛𝑛nodes
cs262
##landau
##arlytrees
explainable
1321
13644
45pm
l05
l02
l01
l03
l06
c1​
c2​
instantiation
##2465
##248170
##2902
##44e
##70e
linkedlistnode
destpos
concurrentmod
toolset
bufferedinputstream
bufferedreader
srcpos
1818
48h
432902
5n2
647
648
807
808
##2346
##1570e
breakpoint
strassen
##dollars
categorizes
alg2
alg1
5things
generatesubs
36288
xss1g
##412465
##48623
##7693
##13to
##1348623
##ofboundsex
junit
gigabytes
gnarley
##atype
parsed
decrement
gtas
cyberdollars
chatgpt
megabytes
datatype
peppering
pseudocode
asymtotic
reflexivity
bipartite
xmx
codesketch
jvm
lafore
rj13to
v88
nontrivial
bubblesort
dijkstra
1n3
2𝑘𝑘
535
6171
797693
768
700ms
94065
996
93landau
giscard
jgrasp
mynode
ℎmust
→subject
∴2h
today
gnarlytrees
n2
##smsg
##43248170
##84643248170
##6458412465
##638528860e
intanceof
arraybinarysearch
classcastexception
treeterminologies
addnodeafter
outofboundsmsg
indexoutofboundsex
stackoverflow
getarea
enqueuer
unboxed
unbuffered
1048576
booleanhasnext
push232
40282346
4012984643248170
concatenation
fall2025
numberformatexception
1364444
concurrentmodificationexception
432902e
generatesubsets
3628800
##13486231570e
79769313486231570e
940656458412465
indexoutofboundsexception
40282346638528860e
40129846432481707e
94065645841246544e
bul
bab
crow
cry
hom
kid
lat
mi
men
mass
mort
rot
sed
ul
##rig
##vin
##aim
##lan
##bc
##han
##gon
##kins
##fl
##ato
##lets
stre
##mph
##ront
##ister
##eness
##sey
##iling
##amb
mag
##ander
ros
##key
##berg
esc
hyp
bol
bull
cand
fle
kil
north
vo
vac
wo
wat
##cra
##off
##rit
##ters
##ij
##zer
##mon
##pes
##gers
##ki
##win
##jo
##stored
##ald
##ram
stock
inn
##enn
##ena
##utes
##che
##ada
prom
##amed
##used
##iel
getstored
##cking
haw
disp
tri
##ashed
getstoredobject
bill
card
fab
hay
lay
nic
ps
pac
south
wall
ze
##rate
##ners
##aks
##uit
##mond
##ped
##fe
##iner
ther
##arm
##oura
##any
##roph
##urb
fort
whe
##ower
##owed
news
##ulf
##ulated
##iously
##cript
##aked
law
##shire
##arable
##ography
revol
ath
bos
cu
coun
ded
fed
hen
hem
jer
mut
mich
nor
pra
rain
sou
sen
sent
sab
watch
##va
##iro
##iate
##ipped
##lands
##yer
##pic
##kin
##fact
##ston
##sters
##ala
##aling
##alth
##alog
##ingly
sto
##arr
rene
inh
##asc
##ller
##cher
##iring
##unk
prem
mand
##lock
##ums
##ola
##ails
##oney
##akers
phys
##lessly
##place
techn
snow
broad
terr
##stein
ax
bed
burn
bay
cit
cath
cell
dam
ger
gab
han
house
jac
kar
mun
night
pin
rich
sac
tun
vict
##ded
##rick
##sc
##ii
##ique
##lig
##lers
##bra
##gate
##erc
##inate
##atives
thor
##ora
##oral
##onic
##rey
##nding
##iser
##uth
ange
who
whit
##ota
##oting
##eman
##ado
##ilt
##ently
conv
##ife
##aming
##ima
tax
maj
unp
##illa
##illy
##eps
spl
spect
dism
mob
##erman
trib
gover
scar
##ags
##wards
blood
merc
hydro
aqu
bus
bern
cd
cul
cav
cult
clean
ec
fu
fan
fig
jur
mars
nut
nap
pig
park
rod
rac
rig
rap
slo
tit
tick
vent
wild
wol
##oke
##don
##van
##nie
##aint
##ipping
##lam
##bi
##more
##hi
##wing
##rel
##uel
##uting
ado
exce
##aded
##inter
clar
##irt
hel
##ourn
##ika
##mos
##astic
trad
##imm
##ials
##illed
##illing
rom
qual
quart
##ounds
##tte
abd
##kee
conte
gold
##resh
##oms
##agon
##ugs
##rance
bomb
invest
##under
sky
motor
anth
barb
milit
micro
ay
ah
aer
ara
bir
civ
cran
dor
dod
dav
dip
fem
fib
gi
gir
gent
gang
hot
hoo
hang
jack
ky
kick
lor
mist
mast
mind
pil
son
sme
sad
sco
ske
serv
ton
ven
vill
wre
##och
##dr
##rid
##ria
##ae
##aine
##ih
##ipe
##lor
##bing
##ban
##uing
##uce
##pet
##pass
##hire
##gl
##wed
##fa
##fall
##ja
##eric
##inn
##inated
##eding
##itude
##iced
##aled
stran
##istan
cos
##llo
##lls
##lyn
##sent
##ila
cla
##irs
##orts
conce
##the
asp
##ival
##mont
##aste
sher
mah
comparable
##arts
suff
##clus
##claim
##tered
##eping
##ained
##comm
##encies
##omy
collect
host
##apped
counter
optim
buck
##ups
##ashing
##okes
cross
cou
cant
cel
dal
dro
dow
ey
fish
ic
ib
jan
ker
lou
mes
mit
mig
mount
sex
tu
van
vib
##ec
##oe
##omet
##val
##away
##ias
##lon
##lia
##bon
##bly
##born
##ugh
##zy
##po
##wick
##ji
##oned
##rep
##alist
tom
tow
ine
inj
incon
neut
cooper
##cha
##ida
chron
##ulating
##aches
##ami
##antly
##ikes
lev
ship
gran
##mmy
##cker
##uster
##tering
arr2
overl
mol
##0000
##quent
tend
##udd
contra
##fts
##opath
apolog
deter
##ension
result2
school
homo
##ugg
##iana
##hips
cru
##anna
##arily
##ogen
tostore
smallerarr
az
bh
bath
blow
cad
dil
dream
east
gas
hed
hill
kim
lic
len
lau
match
national
ow
pap
rab
sant
sque
sau
tal
tub
tort
vit
vide
##ont
##osis
##di
##right
##rich
##rating
##nce
##iance
##burn
##bel
##uation
##hr
##hand
##gent
##fish
##era
##eration
##inations
thick
##esh
##oning
##rell
##itz
##itors
##icated
##ali
##arth
react
invent
##mps
##asm
##rog
cow
##etics
##urt
anim
##cho
orch
clim
##acking
bea
##irk
##izer
##pel
outl
##aph
##appe
cann
##aya
##using
##asts
insp
##cked
roy
quant
##ounded
disapp
overt
##ables
impl
impress
##udes
twe
##umin
##icked
##oman
plant
##iction
##ishes
corn
##ailed
##ailing
##logist
##logical
bru
geor
##itters
##ried
##bell
boy
flu
auth
##inson
phen
##ashes
transl
recogn
brand
esp
##market
##arant
colon
capital
cele
critic
wheel
a1
austr
b1
b3
bou
bang
batt
cass
cert
dut
dub
dark
dick
eu
ell
eye
fat
fut
fel
gle
gut
gard
germ
hus
hind
jam
jump
ka
les
lad
lyn
lag
mir
nit
nig
nik
ol
por
pul
pant
ran
tan
va
vic
vig
voc
vel
woo
yu
##dale
##dog
##now
##sed
##sen
##set
##tic
##iating
##bar
##bert
##band
##bling
##bird
##bby
##zo
##max
##pie
##hy
##weight
##fort
##fire
##aton
##aters
##organ
##nts
##rew
##itate
##itated
##ioned
##rac
sty
touch
ree
reass
##asing
##isl
##eted
##ury
strat
clo
##acked
##irl
sec
depend
som
##ulates
##aching
retre
dog
doct
##oured
##unction
##iah
explo
##ims
shel
pret
##ipper
une
uncon
compl
##anda
##gram
##alled
##ocr
constit
spir
undert
##coming
mos
desp
consult
conserv
subt
##umble
minim
##crimin
##conom
manif
##osh
##oma
scra
modern
corp
##aka
carp
bron
holl
##ugging
champ
perpet
occup
rede
transform
##ifications
harmon
hyper
irre
hero
secret
radio
sweet
validation
social
polit
govern
ak
amp
bic
bure
bun
bush
bag
bird
bah
bapt
cer
cin
cens
coup
dy
dw
did
dumb
eco
fet
fuck
fresh
gor
gon
gly
gil
gam
gill
gib
iron
jon
king
lit
lav
lun
lim
lip
mack
mck
nas
nag
ov
pon
pic
pull
ry
ron
ric
rav
rud
rick
sar
tap
tam
uph
viv
zoo
##ew
##ees
##eur
##ci
##can
##oons
##rus
##riend
##rison
##tc
##aid
##iat
##iac
##iment
##iqu
##iary
##bl
##bers
##backs
##ua
##uity
##umm
##uated
##my
##mat
##mar
##gal
##gie
##wa
##wich
##fc
##fo
##eria
##erved
##oria
##ories
##ede
##lene
##ito
##ales
##alism
##inging
##ington
##ods
##rain
##rass
stim
story
stabil
reb
rect
rever
inhib
##mpton
##asy
##anne
##roc
##roy
##isa
cock
colo
advert
##mented
##celer
##igan
press
##asses
##inted
cler
clin
proph
progress
bell
industr
weak
hell
conj
congr
##ths
chem
youn
##acher
returnmax
pand
##lists
symp
lew
##imate
##ppy
grass
##pher
##phone
##grad
roman
curt
resist
resur
resid
##arted
install
##ocation
##clos
##ardo
spot
dish
trou
contract
love
##cry
scot
amaz
comme
depress
plat
maxim
##isha
##wear
educ
bright
friend
bloo
blind
peri
##atively
##nell
emphas
employ
flav
transm
guarant
raj
##lence
laure
emer
brain
breath
##berry
harv
barn
immun
decor
negot
mete
##contin
legisl
osc
subsid
##bridge
mygenericins
##rants
john
adopt
investig
celebr
ack
ampl
bot
bust
bond
cata
cort
cater
dent
dread
divers
daw
euro
furn
fert
fant
fasc
gy
gest
gust
hs
hes
hut
hub
hart
hop
hatch
iv
ip
jose
kin
kat
kra
lod
lac
lem
lap
lam
liv
lik
lie
lux
mul
mary
moth
mother
mira
ny
nin
nick
oce
pad
pent
purs
pitt
pier
rat
ray
riv
rum
river
sie
sound
sick
sag
tod
ug
uk
upt
utt
vul
yor
##dra
##rous
##rics
##rian
##tion
##iar
##iot
##iam
##iates
##lk
##lif
##body
##ume
##uits
##ycl
##hm
##hall
##hart
##got
##gger
##wan
##west
##watch
##face
##erate
##inity
##inating
##ati
##orates
##state
##reh
##rett
##lem
##itan
##itis
##itating
##icing
##icient
##ician
##alized
##odies
##rage
stro
stub
storm
stren
tooth
toler
##arn
##ares
##oul
inqu
inject
##acle
##rob
##rome
##rose
##isers
cool
coinc
##eto
##etically
##atable
##urch
anch
advent
##oto
##ems
##ema
##cel
exhib
##uctive
##chant
pron
##idal
##idity
##iders
##inth
beck
alt
season
##esty
##izations
soph
hend
heav
outs
conse
conqu
##apy
##aping
cher
chuck
##ulpt
##esses
##erton
##iveness
##ersh
##ership
##oop
##ouring
paul
##asting
##una
##imon
shop
tact
##oids
unin
compress
##iller
roll
sett
resc
reson
resol
respect
instit
sug
sust
nom
nomin
##rows
memor
##iley
spark
disl
dispos
imper
defend
trick
##kel
assert
assemb
reprod
##uded
consp
##umes
recip
mend
##ought
manu
ima
##osa
##osph
sculpt
plac
coron
##boy
##iology
##ague
##aunt
##aken
carn
brun
##ugged
##ologist
acceler
##rier
buff
buzz
narc
bog
flor
grie
pharm
surv
surre
entertain
smart
ramp
##lessness
krist
cruc
##graphy
princip
veget
regist
harb
reform
oblig
patri
salv
conform
diver
craw
morph
##umps
straight
communic
earth
extre
##aughter
liqu
godd
ethn
photograph
##borough
elev
budd
sharp
absor
ult
##craft
mobil
civil
diplo
meteor
ale
aust
bm
bil
bast
bart
bib
blog
cm
cir
cup
cash
dh
dj
dial
dorm
dress
dys
damp
econom
fing
fue
fir
flic
face
fond
father
fulf
gw
gren
gym
hod
hast
him
hib
hors
hung
hook
hipp
ice
jen
journ
kam
kay
ling
lan
lig
lex
lub
lands
luck
mp
mam
mim
mong
mull
mamm
nort
noo
nich
oly
overs
ott
pi
pas
pill
padd
pitch
porn
rou
ss
sut
sid
sile
song
tac
til
tant
tum
vin
wy
wis
wag
wash
xx
zh
##eu
##een
##ech
##cil
##cers
##oh
##rial
##rical
##rates
##ridge
##vy
##vable
##night
##nel
##tv
##aa
##ape
##action
##iant
##lar
##lay
##lies
##long
##bro
##bie
##bility
##uge
##upt
##zing
##mes
##mith
##mers
##pin
##pat
##pan
##hn
##hem
##hard
##hole
##gre
##gets
##ket
##wall
##walk
##ffs
##front
##ju
##erving
##atri
thunder
##orated
##onia
##onian
##sts
##sted
##storm
##stown
##eder
##reat
##lend
##lett
##leton
##itarian
##icles
##alia
##alities
##alists
##ingle
##oding
##rael
ster
stere
stag
##ouch
rent
reun
reck
##acc
##acious
##ani
##aned
##aning
##ania
##rot
##rol
##isted
inters
intens
##isf
##isco
##isms
cob
islam
##urer
##urity
analog
##rays
##mental
##menting
whist
##otes
##otion
##cell
##igo
##igs
##chem
##ador
##adow
##idly
##see
##iler
##inton
prost
propos
alco
##enth
##estone
solo
health
##orting
concent
##aped
##iful
##iffs
asc
##ulations
##essing
##aved
##amy
dol
##ayed
##aying
##iva
##usc
##atics
##ourne
##iki
##iking
##mob
exped
leon
##imb
##imer
shell
preced
##ipl
##ipher
##mming
compos
compli
##phy
##ptic
rose
##alling
##arting
##ouses
hamp
sud
sund
nov
apprec
##ounding
##arding
##athy
##athan
##athers
spo
disag
disrupt
##abs
##copic
##encing
##iors
desert
myth
trig
trip
assass
repub
##uding
##ushed
##ushing
consol
contrad
recre
recru
loy
pel
commission
##cred
##conn
##icking
##llen
##lley
##anship
circum
##osoph
americ
depos
##enses
##active
relie
logic
##atern
##ictions
##ishment
##ernand
cord
##rying
##yman
##ago
##agan
##auc
##standing
evange
brid
highly
counting
##issions
##ologists
##iano
##uality
##atches
##atched
wrest
bund
matt
flat
flag
flash
grat
conduct
transcend
##anking
##oking
crist
cris
supervis
##aha
joy
attract
supplement
obsc
##shot
reflect
liber
##ounced
##anned
##arians
##aneous
brook
##ova
naz
##lson
steph
labor
crack
excav
franc
franch
mcm
respond
oppress
paraly
synch
brown
accomp
##attering
august
year
##unts
campa
##uffed
epid
medic
##ground
gross
##airs
restriction
meaning
polar
sanct
diagn
shoot
punct
##rooms
philosoph
pyth
##cribed
influ
kidn
escal
hypoth
innov
dispens
zeal
##ourage
terror
dismiss
##keeper
gentle
towns
orchest
bureau
congrat
commem
period
manufact
imagin
olymp
ae
bin
bing
bod
bree
bug
ces
came
caf
die
duck
dwell
eb
ess
fid
fest
fight
fract
fren
flex
firm
gur
gif
gate
gast
game
gag
gaz
gamb
hr
hack
hav
hust
hitch
horn
hij
ig
ille
ja
jes
jess
jay
jord
ku
kan
kiss
las
lut
lil
lia
lingu
laugh
loud
mex
mant
mour
mall
mix
madd
mouth
nation
nad
pp
pit
pod
pist
pix
panc
pict
ras
rust
rib
rail
rag
rational
sod
sas
sul
sight
sadd
sense
tet
tig
tex
tack
tib
tong
valent
veter
ww
wit
wet
wiz
ward
wire
yam
##eer
##eav
##elle
##cat
##cut
##cies
##ois
##occ
##dp
##des
##days
##rest
##rim
##rill
##rition
##vie
##nis
##net
##nam
##nett
##sm
##sse
##sets
##tub
##top
##ao
##ael
##imo
##iative
##iety
##bin
##uary
##umber
##uating
##uces
##umpt
##zed
##zel
##yth
##yard
##mas
##mate
##maker
##pal
##pol
##pool
##power
##hal
##har
##hus
##hill
##hol
##hel
##hetic
##gi
##gm
##gue
##gth
##grow
##gling
##gging
##gged
##kers
##wal
##fit
##fight
##fold
##friend
##jud
##joy
##ince
##atures
##orph
##orous
##orating
##ntly
##stall
##edly
##iters
##itory
##itte
##itudes
##ndon
##nded
##icate
##alg
##alle
##alan
##oded
##rah
##raction
##mel
stu
stun
stead
staff
toy
tour
##arse
rend
rear
reput
rejo
inex
incl
##mping
##aco
##acing
##acies
##asia
##anian
##rov
##isting
##istry
intr
intent
intim
##enna
##isions
arc
arist
coo
cov
cold
coast
cott
cogn
isol
israel
##etam
##etta
##urg
andre
##llers
anarch
adher
##rayed
forb
whis
##emon
strate
exh
exch
exter
##uctions
##cht
##chi
##chester
##adi
##ective
priest
##idate
##ilities
##inte
orph
clut
cloth
clock
claim
proc
prote
pont
beat
bent
bear
##iration
##irts
alf
sel
seam
treas
indis
indul
dece
delic
weird
sold
confer
convey
conven
congress
cham
chim
chand
chop
##ifer
nucle
##ulator
##ulous
publish
##erto
##erty
##ante
##anted
door
atl
##lding
##ourse
printelement
pain
pale
paint
traff
synd
##iminal
##immer
withdra
##atorial
shock
tamp
maid
grav
gramm
##ipes
##mmod
envis
unpro
visual
complic
compens
##phones
hah
hair
habit
suffer
abb
abol
##tery
accum
spin
spons
sports
arrlist
disg
discre
disappe
discrimin
unders
overth
##ainable
moment
##ulture
myst
mymarket
truck
trump
tel
teen
replic
report
##uds
##udge
##ushes
contam
subd
##ghan
##umn
##umed
##uman
elab
peace
mans
butt
##osing
##omin
##omic
scrap
apost
##oli
idi
pla
moder
##ensible
##icts
##icted
correl
backst
temper
##inking
##some
erupt
##ifier
knock
##creen
##orship
evac
##eling
carc
carb
brut
brig
schol
geograph
fright
frustr
cs310ers
chair
##issa
accent
##ucing
summar
humb
intercept
interact
interrupt
##nesses
##bey
sax
fluct
aggress
phon
surf
##ashi
op2
op1
transport
archit
##whel
guer
smith
faith
skin
##ilipp
crus
superst
##lena
margin
launch
emig
pleas
brad
##works
wax
attrib
refrig
##umbling
##umbled
obt
obst
obstruct
patron
immig
config
confid
confront
irrit
glor
rehe
steep
##olds
parlia
accommod
herb
estim
color
wonder
embar
##casting
##uffy
virgin
electr
electro
electron
histor
##build
astron
horr
##obia
extract
symbol
catalog
foreach
volunt
silver
slee
sleep
##ulsion
murder
##holders
##ships
sprink
battle
borrow
odd
football
crypt
stret
vacc
triump
revolution
counse
inhab
gabrie
sacr
angel
business
cultiv
contempl
anthrop
birth
##ogenic
authent
retreived
industrial
sympath
dishon
acknow
fertil
suggest
republic
printelements
mymarketplace
aj
aar
age
aim
amm
bb
bac
bis
bam
bert
beth
bark
bail
bry
bitch
boun
baby
bios
cc
cb
cig
capac
cush
cough
cri
cauc
dv
dn
dere
drow
dust
dab
derm
dang
dry
dimin
dura
dump
ee
era
eld
emm
eph
elo
erect
emin
ft
fy
fou
fly
ful
gray
gem
gay
goth
gau
glen
gather
gene
hd
hit
hil
hap
hun
hip
herm
hide
hars
hann
hills
honey
ira
jos
jag
jane
jaw
jama
jih
kw
kon
kent
kill
kath
led
lis
lur
lith
lid
lanc
lunch
mr
ml
mh
mcl
mush
muse
muff
nb
nh
ner
nest
nie
nurs
oo
ot
oz
ont
oak
oran
pir
pest
pere
pink
piss
pump
punt
punch
ri
rar
ris
rut
rif
rip
race
rough
raf
russ
rash
ratt
ruth
slic
sap
sard
sni
tb
tat
ted
tid
tay
tens
trop
tatt
ves
vest
vand
verm
vick
vern
vio
vene
wer
wing
wig
wick
witch
worth
##cal
##car
##case
##cient
##oes
##oll
##omen
##obs
##die
##dles
##dling
##rh
##rin
##ril
##rator
##rough
##vest
##no
##nat
##non
##nant
##nia
##norm
##si
##su
##scious
##ti
##tz
##aver
##aire
##aze
##lot
##lest
##lio
##life
##bow
##base
##blo
##uv
##ui
##zes
##yan
##yll
##yers
##mill
##master
##pack
##pace
##hot
##hop
##haw
##gas
##gro
##gun
##gence
##gies
##ku
##kh
##kind
##wl
##wart
##wide
##woman
##far
##function
##x00
##just
##jected
##eries
##inist
##inis
##instein
##atin
thin
therm
##esis
##orse
##orations
##onal
##onder
##onne
theat
##edy
##edic
##ret
##real
##rection
##leigh
##lete
##iti
##itary
##itty
##itual
##itative
##itzer
##nda
##ndy
##icide
##icides
##icism
##icians
##alt
##aler
##alous
##oda
##ione
##ionist
##rained
##mean
sta
stal
station
stoo
stall
stone
stalk
stup
stipul
stamp
tox
topp
tomb
town
tough
##oust
recept
reject
regener
inver
##anger
##roe
##ross
##isters
##istically
##enberg
##isan
##uent
coh
coff
##etary
##etting
##ettes
##urd
##uration
##urers
##llig
ital
ana
adam
##raying
forg
##mentation
whisk
##oters
##otted
##emic
##eming
##emble
##igner
exert
expend
exting
exclus
##vere
##owing
##ections
pri
##idation
##sea
##ilia
##ilder
##intend
orn
orb
orth
clare
prope
prosec
prosecut
pomp
bee
bever
alas
alert
##enter
##ented
##ental
seat
sevent
indo
death
##estation
##izers
##lical
hein
heath
##gel
##geon
convent
##thy
##apes
chi
chin
chest
chore
chip
chance
church
nud
youtub
##amas
##amation
cance
##urned
retro
retire
retrie
##fers
##antry
doll
##usions
##iker
pak
##listed
##ieu
tran
train
traum
syl
sym
##une
lee
##imming
##yne
shack
shif
sham
shall
shame
share
shaw
prel
pref
mak
maur
##gery
aller
##qual
grace
##iping
##ipts
##ippers
enfor
enchant
intellig
exagger
una
unbe
##grav
##grams
##illo
##ption
rox
##ilda
reserv
quar
quot
##oused
##cca
instr
instig
instinct
##ocratic
##ocene
haz
dough
suc
suit
supre
novel
apple
appra
appet
apprent
aber
aband
##usts
##usters
##ardy
##outing
spa
spart
spokes
disco
discontin
overd
overre
overse
overhe
overwhel
##ibles
##cos
##comb
##resses
moz
moor
moon
##ultural
impe
imperson
verte
defe
tru
paras
priorit
teas
##icals
assess
kee
kell
contact
contend
##metric
##uming
fox
foss
record
lob
loath
##fted
pee
commerc
##rene
##igns
##ignment
maneu
butch
##llect
sixt
##oses
##omed
scor
score
scand
scient
scream
##olk
##olis
##olved
commen
comfort
##ancies
deton
pled
plun
plum
plag
##idel
##enson
##ensen
##anging
solid
argent
##activ
relig
relax
corner
corrupt
##inals
##wel
postp
infra
infring
##orde
knight
##aux
advis
advoc
evap
##aki
carr
carol
brib
schoo
hold
##boards
##ugal
cycl
frig
highlight
blur
blaz
##rances
perme
perse
downs
##rians
##wardly
handic
bump
exempl
offend
interfer
interrog
remark
fear
##otherapy
numer
boot
flour
flaw
agree
grim
ground
griff
condem
condens
calif
calib
phosph
philipp
surpr
surround
cheer
##onda
##books
entit
enthus
##ulent
##asha
##ports
raff
##anked
protest
##ensively
##sses
##sson
##ropri
fault
##oken
sketch
crick
crunch
cave
caus
grey
ante
antib
antagon
marx
marty
marvel
##para
laz
lake
drink
braz
brah
distract
disturb
persu
dragon
wave
waver
breast
##ediat
synthes
obsess
##berries
robert
snap
prospect
jeffer
##anny
alien
##ogue
##awa
brom
hyster
metab
confess
##elling
glut
##burgh
scrib
##ucker
delight
deliver
steam
afford
franco
mcd
mcdon
malays
penet
serge
morning
belong
columb
legit
financ
substit
substant
##ographic
subscrib
millen
##cape
##going
epist
petition
##grounds
sweat
##liness
urban
ordin
aston
astro
horse
horiz
##obic
precip
turk
socio
melan
cataly
##ooked
susp
awa
##writing
admir
judge
renov
photos
##hhh
##hoods
##holder
ghost
koh
##break
ultra
kilo
waterf
hawai
fabric
##cription
feder
souther
citiz
sacra
victor
thorough
major
culmin
juris
tradition
arab
##commun
eyel
##ught
##represent
ineff
##quently
##opathic
deterior
beaut
disappro
disappoint
georg
phenomen
austral
vigil
##piece
colomb
young
guarantee
oscill
ocean
pitts
strength
reciproc
extrem
gymn
lubric
stereoty
disagree
synchron
illeg
##integr
architect
parliament
embarrass
extingu
2nd
aest
aus
aph
aft
acr
amen
auction
aster
aunt
amph
bs
bp
bj
bass
biz
bour
bind
bare
border
bish
beng
bak
bara
batter
bung
bbc
cv
ct
cray
city
clement
cere
cia
cous
cum
caps
cron
cze
cudd
dd
ding
dion
dand
dill
dart
dum
dens
dug
dred
ditch
dwar
daz
dirt
eis
emo
eun
eug
egy
eradic
eras
echo
fen
fay
fres
fail
falk
fier
fash
fiance
fernand
gan
gul
glow
gord
gull
gott
hat
hic
hing
hort
hour
hud
hans
hots
ion
imb
iran
ji
jin
jet
jap
jim
jail
jug
jok
jacks
ki
km
ket
kore
kab
kings
kare
kos
kau
kitt
kara
kirk
lp
lion
liz
leth
lust
lich
lud
lond
lank
lump
lamb
lenn
mv
mt
mm
mine
mike
mould
mud
mens
mish
mund
mons
mitch
mission
message
nr
np
nod
nour
nast
nab
nib
nash
nerv
oc
oy
og
ooo
oph
pv
pn
pes
pure
pert
piv
pine
pall
plow
pens
puss
pran
patch
pane
pediat
rp
ring
rode
ration
rack
rus
roth
rapp
rhe
rico
sd
sigh
sik
scept
sail
sinc
sedi
sulf
tc
tt
tm
tin
tes
ting
tul
tus
tast
tip
tart
tues
torn
ui
uh
umb
vl
vas
vap
vik
vine
vom
vag
vault
vamp
voy
wi
wra
wint
wand
ware
wren
wield
wish
wink
wool
wander
woman
xv
xen
yo
yan
yard
yield
yang
yester
yah
zo
zen
zig
##ev
##ea
##eon
##ean
##eus
##eenth
##cus
##cie
##cia
##cence
##card
##care
##cup
##oa
##overs
##oles
##oise
##oys
##du
##ders
##dler
##rations
##rust
##rio
##rals
##via
##vio
##vak
##nar
##nan
##nut
##nest
##nish
##screen
##tor
##table
##town
##ais
##aments
##arance
##ixt
##iations
##iator
##iences
##iques
##lr
##lis
##lie
##lier
##lift
##lined
##law
##lished
##bble
##bek
##bone
##bag
##bled
##bted
##bourne
##uk
##uper
##uates
##urance
##zh
##zier
##mad
##mates
##mother
##mouth
##manship
##pit
##pur
##pot
##pow
##pent
##post
##poon
##how
##gic
##gus
##gart
##gated
##game
##gled
##ggy
##girl
##kn
##kill
##wo
##wd
##with
##wling
##wash
##fy
##fw
##fra
##fig
##fast
##fty
##fare
##father
##jah
##erun
##erick
##erian
##erves
##inas
##inent
##inos
##inform
thy
thra
thir
thom
thurs
threat
##eses
##oric
##orig
##orable
##orative
##orrh
##nton
##oni
##sting
##stan
##start
##stick
##stop
##stead
##stones
##stroph
##edo
##edd
##edding
##rels
##rehe
##lee
##lev
##lent
##itic
##itas
##iture
##itus
##itious
##itates
##itism
##itals
##nders
##ndered
##icy
##ican
##icity
##icial
##icular
##iciency
##odyn
##ionate
##ionable
##rase
##raine
##racy
stur
stir
stap
stif
stick
stitch
stunt
stroll
tourn
##cton
##aro
##arat
##arus
##aria
##ario
##arms
##arming
##armed
rey
reve
really
recl
reop
revel
reiter
rebound
reaff
reappe
reorgan
inau
inade
inacc
incred
##aca
##acer
##acity
##acles
neb
neur
neck
negle
##asis
##asper
##asive
##roid
##rote
##rolled
##rocket
##rogen
##ista
##istent
##istence
intrig
##ench
##enger
##enance
##isive
##isons
##iscover
arn
ark
arsen
##uez
cole
coch
cobb
isa
ish
island
##utt
##uter
##utation
##utive
##eta
##urally
##uries
##llor
anx
anat
anni
adap
advers
forth
whoo
##vement
##oter
##emed
##emia
##emaker
##ige
##igra
excess
exerc
exclaim
##vern
##chn
##chen
##chool
##ady
##aders
##ados
##adel
##adium
prest
price
prison
##idence
##idated
##idents
##assed
##assing
##ilation
##ilers
##ilated
##ilized
##ilian
##ilton
##into
##inty
club
clap
clam
clich
clog
claw
clamp
proof
proclaim
popp
pool
poison
bew
beet
##uba
##uber
##irming
##irmed
##pert
alo
ald
alger
alter
seab
seaf
indones
defer
decent
deuts
##lict
wear
weap
weld
weigh
wealth
sob
soy
sof
sooo
solicit
hey
hep
hear
##gee
cong
conclud
congreg
##imet
##tha
##thal
##through
##apore
chic
chan
chro
chant
chill
chart
choc
chick
chel
chalk
chimp
chrom
chlor
##ifice
##ateful
##ulu
##ulus
##ulatory
##achment
##achers
##anth
dock
##ayers
##ivan
##ivable
atmos
##oom
##archy
##ighth
tyr
typh
##iko
##mology
##listic
tract
trave
trash
##unc
##unks
##unken
iterative
ley
leh
leve
leop
##iman
##immed
##ppet
shit
shen
shab
shield
shak
shri
shakes
prejud
worship
##version
tai
taunt
mara
mail
maga
maha
magg
##gering
allah
insult
##irsty
##quer
##quin
grant
##iped
##mmer
enqu
encl
enact
envelo
encomp
enlight
enrich
enlar
enjoy
intellect
unm
unh
unle
unac
unve
unch
unse
unlo
unfor
uncont
unjust
##mbling
compr
comprom
compreh
##phin
##phere
##illes
##illion
bypass
ross
##inely
quint
##ousing
institution
##ocracy
hab
haird
harass
suck
nove
appla
##clusion
abra
abort
absent
abnorm
##usting
endeav
endanger
accident
constitution
willi
william
spat
spra
spar
span
spoo
splint
splend
disput
dispers
disreg
disgu
dispro
disclos
disconn
disqual
disintegr
underm
overc
##ffe
##abe
##abad
##abeth
##amen
##coe
##col
##encer
##ressed
mole
moist
mold
moham
mocking
crew
creep
##eke
implic
imprison
deform
myster
##quet
##quez
truth
##keeping
paraph
parado
team
assault
repr
##ients
singapore
kel
kend
twent
twitter
##ounted
##metry
subordin
goss
golds
fold
recess
recons
lomb
lovel
lobby
##arez
##fting
eliz
pend
pear
peas
pelle
meh
meat
meet
partner
privat
##itively
underst
underpin
manch
##llows
six
##oss
##osity
scam
scoo
scott
##opa
##opic
##opol
lets
apo
##olith
commend
depr
deploy
##anca
##ancer
pluck
##gina
##angers
popul
##ateral
##icting
##ishable
##erns
thank
##inky
##week
##engers
##boat
##soph
infilt
ruff
warrant
slur
verd
discern
##fulness
multic
afric
##eled
##eless
carbon
brist
brill
britt
bridge
schm
hob
holo
holly
hobb
geomet
##ugu
cyc
fried
blu
blan
blond
throws
##ologically
##range
perce
percept
persec
swed
swall
swamp
##uals
download
lifes
hander
wrist
##lington
buoy
flood
semin
##apsed
remode
remind
feed
feather
##bec
##beat
unsat
boyc
sara
agu
aggrav
grin
grind
origin
demar
demol
falcon
auton
freel
surpass
chew
cheese
redes
##ondo
concert
##rington
enter
entrep
##ulence
transition
transpl
archae
polymer
##while
guit
guild
smugg
rah
##leys
faint
benz
##oko
skate
##iliar
##iliation
##dell
crust
criminal
perman
##graphic
caes
cara
gregor
antiqu
marl
##paid
##paper
##plan
omn
emot
filip
dru
drif
drive
drumm
veh
##vised
##world
##working
bloss
waist
benef
##addy
regrett
harm
encycl
barg
freed
refin
refres
refund
refurb
refresh
##umbles
obl
patt
immort
##ysics
libert
liberal
prosper
jean
jeop
jewell
##ouncing
##heads
controvers
##lected
##arium
##aney
salam
##ogy
purport
purchas
viet
broth
brother
annex
##fordshire
##rician
metal
artist
confisc
fraud
merch
##haz
personal
irreg
##ella
glad
glam
replace
##burse
script
rehabil
fitz
incub
delib
diet
labour
crash
crafts
misunder
misrepresent
affirm
mcg
##izzy
digest
penal
paralle
squad
belg
burg
burgl
centr
central
este
##system
devast
bankrupt
##atters
embra
embell
##casts
##brid
##brush
##uffle
gloss
radical
reinvent
epith
terra
timber
##iffe
reconc
propri
hamm
baff
##liest
##etti
##charged
turb
extr
##aught
camer
##ostic
##guard
societ
domest
melt
melod
catal
darwin
liver
dissem
dissol
bachel
divor
micros
rhyth
interpret
audio
suspend
suspect
suspic
psycho
psychiat
firefight
alphab
christian
cartoon
dialect
satur
satisf
trott
lymph
##wright
##writer
##writers
##worthy
magnet
danie
allev
philanth
eleg
##proof
budget
ghana
halluc
puzz
absol
johns
oxid
##downs
##bbing
##cribe
bullet
babys
crystall
homes
mixt
street
rosen
##ennial
triang
##monds
##criptions
council
deduct
federal
soul
renew
premier
jacob
victim
wholes
ecu
figur
rodrig
titan
wolf
helm
##immy
quarter
##keepers
militar
microb
aeros
femin
giul
pilgr
service
claud
aspir
##clusive
mitig
##ecd
incons
inconven
neutral
chronic
outlaw
euph
mirr
##dogs
##hyd
explos
manifest
ponder
botan
europe
hutch
joseph
motherf
utter
##lifting
imperial
narciss
pharmac
goddam
diplom
gwyn
hibern
silen
##mobile
franchise
accompan
meaningful
python
whisper
extermin
hahah
carcin
refriger
rehears
triumph
acknowled
harsh
iraq
tattoo
venez
ornament
pakistan
instrument
succe
maneuver
enthusi
metabol
czech
egypt
##odynamic
inaug
inadequ
neglect
paradox
reconsider
irregular
4x
au
aro
ais
aid
aure
amo
airst
apt
aga
award
aww
astr
aero
aaa
bc
bn
bt
bode
bly
bant
bore
bere
bik
blist
brent
bout
bain
bount
bren
burs
banc
bact
buch
bau
balk
bats
baz
bisc
bunch
baker
ced
cac
cess
cay
cus
cun
cyn
cull
cring
clen
cerv
cuck
courage
dre
dic
dex
dul
dance
dies
dign
dix
diaz
dak
dian
duc
dund
dah
dale
daff
ez
eg
ef
ej
eve
ech
elic
ecc
eater
eag
etern
eager
eps
egg
fj
fist
fis
fata
fent
fand
fles
fanc
flog
fry
fag
fuss
fug
fiss
gp
gad
gand
gree
gio
gel
gian
gri
gins
gaw
ginger
geral
hi
hm
hw
hin
hou
his
hig
hect
hex
hert
hers
hik
hmm
horm
hark
hick
hug
hilar
hunch
hinder
heter
hiro
hernand
ire
ich
ivan
jp
jod
jour
jab
jol
jak
jee
james
jude
jenn
josh
kl
kk
kes
kor
kod
kir
kap
kun
kand
kard
kang
kern
kry
kling
kins
kitch
kaz
kinder
lv
ln
ls
lt
lass
lack
lent
lill
lum
lans
lact
lone
lak
lup
loun
latter
lakes
living
lloy
litter
lumin
md
ming
mou
mow
moo
mage
mmm
mild
morm
mum
media
mug
mitt
mash
mores
mistr
munch
nd
nv
ng
nac
nur
nach
nam
nim
nix
nord
nause
nts
naw
nipp
nurt
nathan
ost
ore
omb
obe
oreg
oli
oste
olig
pray
ply
pess
pav
pard
plo
peck
pum
peng
pian
pup
pond
plen
pertain
prad
pizz
puff
pino
piet
puls
pimp
pemb
pipe
pension
patern
pione
qa
qw
rc
rn
rs
rt
rw
rf
ral
rul
rach
rush
rans
rank
rapt
rook
ripp
rival
ritual
sic
sig
sir
sif
sate
sach
sire
sark
sans
slog
sway
sak
scent
sene
sony
sister
tv
tia
till
tire
tink
tian
tier
tank
tuck
tiff
torp
tony
taste
ub
uz
um
ure
ump
uter
ulc
uber
ubi
vh
ved
vod
vow
vass
vex
vie
vast
vener
vind
vinc
wic
wad
wir
wort
wast
wran
wester
wank
wah
wob
waste
washing
wicked
xin
xia
ya
yp
yon
yar
yach
yum
yak
yee
yaw
yell
zion
zimb
##eed
##ele
##ely
##eper
##eers
##east
##elo
##eel
##ews
##cro
##cot
##cam
##core
##cill
##cuss
##cience
##cade
##cott
##course
##oir
##olo
##obe
##ometer
##oster
##dad
##dam
##dom
##dream
##rp
##rik
##run
##rine
##rum
##rice
##rup
##rators
##rika
##vity
##vine
##vous
##valu
##nation
##nies
##nier
##nels
##nuts
##named
##sk
##sor
##sur
##spe
##sburg
##sense
##suit
##tly
##aic
##aur
##aul
##aways
##arances
##iour
##ieth
##iard
##iop
##iments
##iators
##iotic
##iencies
##iantly
##lu
##lation
##late
##lav
##like
##lain
##lord
##lied
##lining
##lton
##lane
##bet
##bul
##bies
##bath
##blow
##bred
##bron
##bank
##bons
##bows
##block
##bags
##busters
##uations
##ucks
##uaries
##zon
##zac
##zers
##zie
##zone
##yd
##yt
##ynt
##yder
##yards
##mic
##mal
##mac
##mart
##mund
##made
##making
##pad
##pical
##prod
##pants
##hist
##hore
##hog
##hov
##hatt
##hetics
##houses
##gation
##gments
##gone
##gically
##gler
##giving
##kal
##kies
##kets
##wc
##wre
##wers
##wind
##wol
##wns
##fu
##fin
##fed
##fing
##fly
##found
##fund
##fires
##fried
##je
##jay
##jee
##eror
##erce
##erie
##erable
##inf
##inqu
##inian
##inho
##inberg
##atra
##atan
##atta
##atism
##ativity
tho
thaw
thorn
##esy
##eson
##esian
##ori
##orus
##orrect
##orns
##orne
##once
##onent
##onna
##stal
##star
##stant
##step
##stered
##stock
##edict
##rek
##rets
##leen
##lections
##itant
##itations
##itage
##ndred
##icon
##icus
##icia
##icious
##icans
##alis
##alam
##alay
##alers
##alie
##alistic
##alds
##odor
##odle
##ioning
##ionately
##rand
##rack
##raft
##rade
##meas
##mens
sting
stem
stil
stab
stark
staf
stern
stee
stef
strad
strap
stair
stake
toile
toss
##ctic
##arre
##arial
##arine
##around
rea
reint
reim
rept
rebo
reiss
reward
rebe
reven
rebu
rewr
rebra
reclaim
rebell
reju
inad
inert
inco
ingest
inquis
inexp
insec
##mper
##mpor
##mped
##mpson
##acon
##acular
nev
neil
nett
##asi
##asion
##anim
##anese
##anol
##anza
##rock
##roke
##rolling
##roads
##rogate
##isty
##iston
##istine
##istical
##istrib
intra
intol
intric
##eno
##enas
##enne
##enham
##enburg
##iso
##isse
##isible
##isfact
ard
ariz
arth
arte
armen
arma
##uela
coe
coy
coin
coal
coach
coco
cots
coven
coax
isab
##uto
##utor
##utant
##utical
##utors
##uthor
##eties
##uru
##urious
##urities
##urbed
anders
##llie
##llivan
itiner
ank
anest
anom
anne
annot
angu
anecd
adr
adver
adren
adel
adri
adhes
ford
fores
forest
forese
forfe
foresh
whitt
##vely
##oton
##otent
##otics
##embles
stron
stress
strike
strugg
##iger
##igen
##igans
##igible
exor
exon
excre
exacer
##verted
##chy
##chal
##chet
##change
##chman
##adia
##adder
##adowed
##ectors
##ectomy
##ithe
pry
prin
prime
prun
prud
proud
prince
##ido
##idd
##iday
##idences
##season
newton
##assy
##ilm
##iless
##iliated
##intosh
##expl
clou
clas
clark
click
##acker
promp
prover
proxim
promin
procra
prolong
lind
linco
pom
poet
pope
poop
polish
pocket
beast
belo
belle
beau
belf
beef
befriend
##iry
##iral
##iries
##irling
##irting
##irms
##perform
alm
alp
alon
alge
alam
alder
alab
alum
alto
aldr
##xton
##ente
sev
sea
seb
seed
seag
segreg
segment
trem
tread
ons
indent
indign
indict
dew
dear
degra
deco
deaf
decry
demean
deactiv
dehyd
##estim
##lice
##lics
##licity
##licted
sov
sop
sole
sooth
sovere
##pez
##peg
##peare
##people
##pelled
hew
heaven
outwe
outdo
outrage
outgrow
conve
consent
##apist
##apse
##aphor
##apolis
chr
ches
chas
chub
chie
chast
chile
chib
chry
chau
chief
chrome
##ifa
##iffer
##ifully
nun
notor
notting
##uld
##ulk
##ulators
##essa
##achi
usur
usher
##avs
##ava
##aman
##amous
##amond
##erta
retal
retard
retract
retail
retwe
retros
##lements
##anto
##anta
##antes
##antation
dos
##ayer
##ivas
##ivia
##ivals
frost
##archs
valueof
##atical
tyran
##ikh
queen
queens
pag
##mosa
trav
tram
trap
trace
trail
syd
syner
sympt
symph
##unct
##iably
expos
lea
lean
lead
lege
leader
leban
getpr
##ethe
##agement
##imed
##ppets
##atories
##atorium
shin
shan
shot
shay
shun
shout
shah
shadow
pregn
preclud
preca
wors
worm
worsh
tah
taj
tale
taper
mao
male
dynam
##gered
allot
insur
insect
insight
insol
insuff
##quest
grape
grasp
##iph
##ipur
##ipation
##ipated
##erfield
##erfully
enge
enlist
engra
enorm
enroll
enclos
encry
uni
unint
unus
unab
unpl
unequ
unatt
uncover
unaff
uninter
unbel
unrest
unexpl
##ckets
vision
compass
##phal
##anded
##andra
##andro
##anders
##gran
##grant
##illas
##illers
##pton
role
rome
##inee
##alls
resh
resent
resign
resell
resemb
quil
quinn
upro
##ousness
##cco
##oca
##ocated
code0
preview
haunt
hagg
sup
sullivan
##rowing
appa
##orman
members
##cli
##cled
##closed
##cliffe
##tto
##tta
abund
abras
abbre
aborig
##loe
##loading
##aths
##athon
##atham
##athetic
##athlon
endors
endorse
##tel
##teen
##teenth
accus
accred
spon
sport
spam
spoon
spont
spear
spell
dise
disgra
disres
diseng
displ
disney
disemb
dissent
discred
disinf
undes
overha
edin
edit
edward
##abi
##abwe
##abouts
##ibilities
##coin
##coat
##copes
##ressing
##ression
mog
mock
moss
crem
cream
##nery
impr
impat
imperf
impart
impair
imposs
##iority
##inda
##indle
functon
defic
defra
defense
dese
desk
desper
##atings
loos
tres
trif
trim
triple
tripp
##keys
teles
tender
assy
assim
repro
repay
replen
repair
repost
##uda
##udy
##udder
singular
keen
keyn
twink
twitch
conting
contest
context
bash
subtle
suburb
subpo
gov
gol
##oths
programcli
##umann
font
food
foll
folk
recount
recycl
recuper
lov
##aret
elong
pew
peer
peac
peach
pecul
grown
mega
commit
commod
committe
inneriterator
minor
minister
midw
midfield
partition
partners
##cripts
privile
##rency
##arked
##igne
##ignon
undergrad
##ickers
##oughton
manic
manus
maniac
butter
##oscope
##oscopic
##oming
doubt
locom
##ixes
scan
scur
scall
scorp
##oplan
amy
amer
amate
amuse
amalg
letter
apart
apoc
equip
##olia
##olph
##oline
deport
deprec
idol
##afunction
detach
plain
plough
plumb
plural
plato
plaint
modest
##ensed
##ensions
##angs
##activity
reluct
relinqu
##classified
##dley
justafunction
corv
corinth
backpack
tempt
poster
##boys
##soft
intox
erik
##ifiers
##orders
##logically
##logists
actu
##uchs
##iox
warr
##aga
##agen
##agers
bestse
predom
sled
slam
##offs
verb
discip
discount
discoura
discipl
##zale
##abilities
advance
##utionary
##owns
explor
##cession
copyright
afghan
evident
##elia
##akin
##ulls
##versely
carm
carroll
carria
brat
bride
brides
brian
brisk
brien
##mpled
##mpling
holy
hover
hoff
hollow
hobby
##appropri
##ugated
##uggle
cyt
fring
fruit
fratern
highland
blas
bliss
blacks
blake
##issible
extrad
extrav
extrapol
acid
acrob
acoust
perp
peripher
swift
##ucer
downplay
downcasting
##atching
##tale
##rily
##riers
huck
humph
humming
hundred
handc
bald
balm
wrink
##mlin
buy
buffer
bucking
exempt
semic
##apses
intervent
interven
interchange
shred
shrie
remed
reminis
matthe
fell
feud
fellow
##lfriend
##bee
unsur
empt
emph
empow
emplo
##rons
boe
boat
bold
saw
sale
saud
fled
flaming
flirt
agon
agrs
##bson
gris
grid
grud
grizz
democr
fals
indec
##wned
##flower
condo
autograph
##insky
passage
calc
cali
calm
calam
calder
calvin
showc
aven
phe
pho
phar
phill
surm
cheet
cheap
cheek
presid
preserv
presby
presumpt
redund
rediscover
redistrib
entang
opi
opin
transd
transp
archety
guy
guad
guine
guards
smother
raw
##undy
protection
amend
##rops
determin
skill
motors
crime
tasman
##leneck
cair
greg
greens
illum
illumin
anton
antis
antid
mari
marg
marin
marce
maria
marque
marian
margar
##places
english
behead
behold
job
jock
testimon
##entially
farm
dsinterface
lax
laur
laws
emil
emir
emblem
filmm
driv
drunken
vend
selfish
bras
brace
##vision
distort
district
##veloped
dram
drago
dramat
wake
atten
brewer
fundra
hunts
benefic
clever
##shit
##shop
##shaw
##shirt
regime
registr
##strong
harper
harness
harris
##hesis
encoura
unfold
unfair
baron
barry
barric
freud
refine
refuge
##utely
patter
##olent
robb
robber
immers
snoo
snaps
sniff
##ysical
##uras
##urai
jew
jewe
##ounces
profit
decipher
##lectric
##arius
##aneously
##ogyn
neglig
anno
annoy
powder
##pret
##efe
metast
metaph
metaphor
articul
confuc
confirm
confeder
destro
destruct
destroy
frame
##hampton
##otters
irr
irish
irrig
##ello
##mington
glac
glaz
glimp
glitter
##person
##lsen
##burst
scrut
scrub
scrip
##ucky
daydream
monet
monog
restra
restruct
restau
##atherine
bitter
fool
foolish
incur
incident
incarn
police
delin
steel
steward
steven
stealth
dioc
diamond
consumer
craz
srin
misc
miscon
misde
misinter
misogyn
beyonce
affili
affection
frances
franca
denom
mcn
malt
malay
malign
malfunction
##posed
##position
serb
morb
parl
paris
party
portra
portray
herr
garner
center
##prints
##prising
prodig
succumb
column
##illet
planet
##heim
##heart
##heimer
dictators
sneez
straw
devot
devil
yellow
yemen
##ographer
croc
cros
croat
##laus
##lake
##woods
embod
embro
embry
##overn
##eroy
##eryl
camps
glob
##goes
reinfor
cec
cease
deriv
sorcer
sams
samar
##irable
epis
electric
pett
peter
petro
peters
favour
palmer
##aires
statistic
revital
revamp
custod
##comfort
##liner
##space
##otype
##ckett
screens
blackm
astroph
familiar
gaze
hamilton
internation
international
appell
shepher
luk
lumber
luke
sandwich
##liers
##lique
month
montreal
##respons
berk
##balls
##guin
##guards
collabor
soci
prepar
toro
torrent
acquaint
charlot
divide
volt
##ipps
intermedi
audition
million
wald
##zzy
##ylon
##ylvan
##sexual
energ
awk
awak
sanit
sanction
sunny
christoph
enhance
casual
satan
exhaust
shovel
biom
biograph
keny
kenned
lyric
punish
##lights
hydra
ambass
ethiop
##arianism
##ulsive
magnific
danger
hurt
murm
martin
martine
##boro
##borne
eleph
cabin
captain
pedest
pedoph
##breaker
absurd
sprint
johann
dais
pyram
ridd
ridic
ridicul
##itories
kidd
massac
##ilingual
magda
candid
flee
northern
voice
woe
##aldi
stockp
inno
dispar
billion
cardio
nickel
zeit
##feld
thermo
##ourable
fortun
athe
athlet
counsel
henri
hemorrh
michel
michael
sentiment
sabot
premiers
physio
technical
snowboard
catholic
cellul
jacobs
municip
tunis
##iii
convinc
##imagin
dismant
hydrox
caval
fuj
marshall
nutrition
napole
wolver
adoles
excelle
trades
tradem
abduct
contempt
contempor
bombard
skyrocket
ayr
david
girlfriend
loren
masturb
smel
villain
##glass
cosmo
##lynn
downt
eyes
fisher
louis
mesmer
mountain
mountaine
##points
inev
levi
shipwre
##opathy
homoph
dilig
hedge
kimber
license
laund
squeez
cannib
boyfriend
battles
husband
lady
lynch
vicar
##birds
unconscious
complain
spirit
mosqu
conservation
subtit
subtract
holland
champions
redeem
hypert
amphib
cinem
gonz
glyph
mckin
##foot
stimul
storyte
rectang
advertise
##pheres
resurrect
troubles
amazon
platform
catastroph
fantas
lieut
todd
vulner
vulgar
york
##western
stubborn
heavy
outsour
sustain
conspir
carniv
surviv
biblio
flick
facebook
iceland
landsc
##patrick
whistle
##chemical
alcoh
american
campaign
epidem
kidnap
gentleman
bureaucr
gastro
luther
mexico
tibet
witness
wizard
wiret
##occup
##topl
##etamine
orphan
chamber
abolition
scholars
marginal
obstet
electroly
##building
astronom
sacrific
retreived2
retreived1
bisex
cripp
caucas
dermat
jihad
youtube
tranqu
apprentices
overreact
vertebr
plummet
infrastruct
infringe
californ
cheerle
horizont
citizen
jurisd
##communication
extinguish
bishop
dazz
eugen
jackson
london
ophthal
rheum
vlad
xenoph
##frame
thrash
annih
bewilder
decentral
weapon
##unciation
shakespeare
taiwan
magaz
mahara
williams
elizabeth
##olithic
guitar
encyclop
jeopard
vietnam
bachelor
philanthrop
pilgrim
motherfuck
airstr
kardash
pessim
zimbabwe
reintrod
reimburse
rejuven
adrenal
exacerb
procrast
lincoln
outweigh
chrys
getprice
unbelie
abbrev
disrespect
##ylvania
3x
5k
ao
aa
aq
ain
ait
aur
ave
aly
ace
ase
ail
aub
aort
aime
aam
aik
agra
acl
action
aco
agh
airc
acre
auss
aware
ahh
arom
azer
acry
bf
b2
bess
bav
bie
bia
bage
bim
bcc
bould
bong
bick
bans
bone
buss
bolog
bian
bully
bism
bored
baw
bots
bds
barks
bunk
bakers
bitters
bumble
bilingual
cz
cg
cq
cic
cen
core
corm
cind
cud
cres
cact
cuss
cuc
cumb
cuff
catherine
dc
db
dp
dray
dot
duct
dad
dir
dap
date
dess
dach
dore
dus
dim
dild
dile
dud
dong
dice
danc
dink
deng
duch
dors
dull
dared
dual
dash
dorn
dizz
dpr
duff
dave
dude
dye
dyl
damm
diana
daunt
daughter
dante
danny
daddy
eo
ew
ein
ect
ero
eut
eur
ely
eul
epp
eck
eust
ether
econ
eject
euch
eman
ears
eaves
epa
easter
elder
eros
einstein
esoph
euras
fd
fn
fs
fm
fas
fow
ferm
fount
fare
fict
fitt
fours
fling
fester
fars
fins
fiend
fift
ferv
fines
fatt
fitting
fisc
fetch
fires
fij
fenn
fbi
fidel
fixt
fuchs
flynn
gs
gb
gin
gat
ged
git
gou
gue
gow
giz
gert
gour
gator
gary
gild
gart
gould
gior
glean
gare
gates
gise
gorge
gron
grop
gland
gara
gille
gira
gulf
giro
german
gimm
gaunt
gyne
hv
hp
hg
hue
het
hass
hess
hence
hous
hoc
hath
hong
hens
hbo
hone
hym
hose
hof
hiss
husse
hond
haven
hadd
hott
hered
houth
hool
hudd
honda
ii
ik
iq
ist
iod
ime
ian
iow
imo
ike
ibs
iber
ips
ica
ivo
ibra
jn
jh
jf
jor
jal
jing
jas
jem
jig
jub
jill
jard
jans
jason
jup
jays
jura
jaz
jung
jones
jake
jaff
jae
jinn
jigs
journe
jimmy
kt
kp
kj
kre
kro
kur
kow
kub
kate
kav
koo
kie
kia
kip
kush
kong
kom
kits
kier
kron
kana
kash
kale
kane
kaw
kyle
kios
kamp
katy
kai
kurt
killer
kurd
lc
ld
lr
lm
lh
lj
lime
lul
lant
lus
lions
lace
lance
lite
lark
lough
lord
lull
lug
lah
ladd
lys
lann
lane
lily
lords
lma
linger
lung
lisa
lighth
mn
mb
mue
mata
mce
mch
mate
mere
mous
mile
mek
merm
mick
mits
musse
muc
mcle
mism
mpa
merv
mumb
mura
morn
muck
maced
miff
mrs
mook
mama
money
mourn
mika
mudd
mtv
mgm
nc
nm
nj
nes
ned
nue
nass
nil
nir
nay
nia
nine
nath
nice
nak
nbs
nca
nino
niet
nba
nancy
nbc
nfl
naked
nih
nintend
ou
oat
ole
ove
och
oil
oun
oss
ode
osh
ober
oeu
obey
pt
pk
pf
p2
pj
pis
pate
parch
pound
pud
poth
pans
pug
pne
pester
pied
pts
pund
pals
pats
pari
pots
pills
pony
pye
pipp
pinter
pudd
qi
qat
qing
rv
rb
rk
rin
rant
rere
rour
rik
rall
rally
rings
rare
rang
rivers
rins
rouse
rude
ridge
rasc
rih
riot
riley
rerun
sg
sf
sx
sq
sj
ses
sis
sot
sly
sow
sper
sess
surn
sore
sage
sput
sill
sine
sous
sally
sult
serm
sich
sind
s00
site
scon
sext
sang
sides
sector
sri
sana
sash
soup
sizz
sung
sains
tn
ti
tp
tis
tray
tect
tint
tav
tiv
tie
tek
tide
tiss
tuc
tbs
tup
tether
tux
tons
tumb
tired
tung
tene
tuls
tires
tipper
tusc
uc
ud
uw
uf
ux
umm
ucl
u00
uran
uhh
v0
vc
vu
vm
vp
vf
vor
vou
vet
vid
vil
viz
vive
vase
vign
vix
vanc
vivid
vale
ville
vaz
vaugh
vita
veto
vague
vouch
wc
wv
wn
ws
wt
wu
wex
wack
wap
wav
wyn
wine
wart
wich
wings
wom
wide
wwe
wides
wise
witt
wands
wins
wond
wals
wats
wade
wille
watt
wimp
wife
winter
wipe
xt
xi
xy
xav
yv
yi
yas
yul
yun
yos
yol
yel
yug
yog
yoy
yoko
zed
zan
zur
zap
zach
zain
zum
zag
zamb
zimm
zoe
zucker
##ei
##eb
##eco
##eze
##eering
##eered
##ends
##ezz
##cor
##cur
##cation
##city
##cial
##cart
##cous
##cular
##cester
##cale
##caster
##cyc
##casted
##cery
##cano
##oot
##omo
##opp
##oqu
##opt
##oard
##oks
##oints
##oven
##ocks
##oby
##olyn
##oirs
##ozo
##ogram
##obey
##dan
##due
##dens
##dock
##daughter
##rer
##rat
##rite
##rically
##rative
##roup
##rued
##rina
##rgy
##rero
##vre
##vic
##vet
##vik
##voc
##vance
##vard
##vings
##vency
##vise
##vinc
##vals
##nit
##nal
##nity
##nik
##nard
##neck
##nock
##nished
##number
##sin
##sers
##sight
##sling
##sier
##saw
##tin
##tar
##tch
##tim
##tics
##tles
##tail
##try
##tors
##tails
##aith
##agor
##aus
##aise
##alen
##aired
##aunch
##aids
##agram
##alence
##aghan
##iad
##iaries
##ienced
##iotherapy
##lion
##lass
##lap
##loo
##lus
##lace
##lated
##lag
##lism
##lah
##lords
##links
##lades
##luent
##bn
##bt
##bic
##bod
##bac
##bad
##bent
##bus
##berf
##bard
##beck
##bread
##bits
##bish
##bern
##bio
##bull
##bitt
##bran
##bands
##bana
##bler
##bras
##bago
##uan
##uve
##uly
##uers
##uine
##uance
##uard
##uition
##uco
##uable
##uum
##uities
##upy
##uza
##umen
##uana
##uka
##uki
##uffs
##zor
##zan
##zen
##zig
##zant
##zym
##zheimer
##yr
##yes
##ycle
##yah
##ythe
##mir
##mere
##mus
##mand
##mud
##mish
##mons
##makers
##ple
##par
##pen
##pment
##page
##pill
##part
##press
##pable
##pult
##pole
##psy
##payers
##hou
##hub
##hers
##here
##hound
##hab
##hum
##haven
##hots
##hops
##gut
##gem
##gant
##gations
##gage
##gill
##gary
##gard
##gles
##gings
##gum
##gates
##gency
##gio
##gway
##gons
##gulation
##gene
##gien
##giate
##gths
##kit
##kie
##kim
##know
##kemon
##wit
##wig
##worm
##wning
##wark
##wined
##wold
##wave
##wald
##washed
##waters
##fur
##fth
##fam
##fus
##fun
##fol
##fred
##fell
##fortun
##forth
##finder
##frey
##fiction
##folk
##film
##xon
##xus
##qa
##jas
##jan
##jid
##jack
##jun
##job
##journ
##jamas
##erk
##erations
##erial
##erated
##eros
##erom
##erors
##erals
##inav
##inia
##inction
##atal
##atas
##atro
##atem
##ativ
##atore
##atine
##atile
##atious
##atized
##atting
##atility
##atibility
##atoon
##atography
thw
thre
thic
thur
thad
thigh
thie
thous
thres
thong
thail
thier
threes
thund
thump
##esc
##esa
##esia
##escent
##esha
##esburg
##esome
##orf
##orad
##orex
##orie
##orrow
##orient
##orum
##orney
##orously
##nte
##nty
##nth
##onies
##onics
##onents
##onism
##onium
##onomy
theolog
##sta
##stit
##stic
##sten
##station
##store
##static
##stage
##stated
##string
##stering
##stood
##staking
##staff
##sticks
##strom
##steps
##stairs
##stalg
##eda
##edient
##edness
##edience
##rea
##reb
##reated
##regn
##recht
##leon
##lear
##lell
##leased
##lette
##itent
##itator
##itous
##itical
##itans
##itos
##itian
##itational
##itute
##itators
##itlyn
##itatively
##ndi
##icion
##icist
##icem
##icent
##icable
##icating
##icates
##icidal
##alo
##alm
##alf
##alon
##alment
##alil
##alach
##alus
##allist
##alom
##alone
##alta
##alties
##aldo
##ingen
##ingdon
##odo
##oder
##odles
##ionism
##rae
##raf
##raid
##rake
##ravel
##raged
##rasing
##meal
##mely
##memb
sti
ston
stut
stig
stow
stam
stay
stage
stile
stard
stain
stom
stars
stale
stump
stuff
stiff
styl
staph
stadium
tol
toh
toen
toul
tomo
toast
tosh
tobi
tommy
tolk
##ctr
##cturn
##arl
##aru
##arf
##arin
##arle
##arro
##aroo
##arder
##arns
##arcer
##arbon
##arati
##oux
##ouver
##ouched
##oufl
##oubted
oft
reed
reid
reper
reth
reich
reese
reception
reag
reins
reinc
rework
rena
reload
recharge
render
reilly
rewatch
reaction
reagan
rekind
reimagin
rememb
ina
ink
ingra
inoc
incess
inns
incest
incent
inclus
incrimin
inactiv
inappropri
##mploy
##acly
##acus
##acons
##aculate
nec
neu
nep
neh
neat
neon
neal
neph
neill
nether
neol
nets
neander
nemat
nelson
nepal
##asant
##asley
##asms
##asaki
##anity
##anie
##analy
##anze
##anaugh
##anuel
##anagan
##anova
##roit
##road
##ropy
##roof
##robe
##rots
##rology
##robor
##istak
##istering
##istered
intest
intang
intense
intrus
##eny
##enh
##enet
##enity
##enary
##enos
##enzie
##isal
##isure
##isations
##isans
##isman
##isional
##isfa
ars
arb
arra
armp
aris
arse
arrow
arter
arts
arson
arbor
arrog
##ueling
##uels
##uette
coa
cox
coex
cope
cote
coles
comet
cocon
coward
coss
coher
covent
cowork
cohes
coler
coca
coerc
isl
ism
isot
ischem
##uters
##utory
##utics
##utting
##etor
##eton
##etal
##eters
##etus
##etts
##atant
##urst
##urus
##urous
##urated
##urved
##urian
##urbs
##uristic
##urately
##urgy
##ationary
andy
ander
andro
andres
anderson
andrew
##lli
##llip
##llable
##llors
##llah
ith
italy
ani
anj
anal
anoint
ansel
ancient
anorex
ade
adul
adult
adorn
adrian
forc
fors
fork
forens
foref
forsy
forgot
forerun
##mento
##mentary
whor
whim
whos
whites
whimp
whirl
whims
whoop
##vez
##vements
##otle
##otal
##otam
##otive
##otine
##otta
##otting
##emason
##ember
##emann
##lyde
strik
strip
strick
##cely
##cephal
##iga
##igree
##igley
exquis
exasper
exuber
exclusion
exoplan
exxon
##verns
##verts
##chat
##chie
##chase
##chard
##chmen
##chison
##chair
##chief
##chez
##chlor
##adin
##adan
##adish
##adian
##adows
##oway
##owner
##owitz
prong
prick
pruss
prism
##idt
##idi
##idu
##idy
##idas
##idad
##idav
##idating
##idious
##idian
##send
##sely
##sevel
##sels
newman
newfound
##ilion
##ilis
##ilate
##ilant
##ilty
##ilateral
##intly
orc
orthod
orbit
orwell
cling
clint
clay
clip
clust
clarks
clair
cliff
cloud
clinton
prog
prox
proct
prose
procl
progn
prompt
prolet
progen
prolif
poe
poc
poo
pose
poland
pokemon
bef
bees
bend
beach
beam
beeth
beards
begg
beij
##ube
##uble
##irer
##irth
##irted
##irls
##pern
alc
alv
als
alan
alth
aless
alib
alice
align
alley
alarm
alva
alright
alumin
alarming
alkal
alzheimer
##xtap
##enta
##ention
##entious
sew
sein
seal
seas
sean
seem
seiz
seep
seven
sewer
tren
trek
treason
tremend
onco
indist
indem
indig
indie
india
indirect
indian
indiana
demp
dean
deput
decept
decr
decon
deline
deja
decomm
degrad
deuter
##esta
##eston
##estown
##estyle
##estimate
##izens
##izio
##izoph
##lica
##lich
##lican
##licting
##licited
##liction
##licopt
adder
addict
wea
weir
weath
weather
wendy
somb
solem
##pell
##pelle
##pella
hea
heb
hez
heat
hemp
heir
heck
heine
hears
helen
hehe
hebre
hearth
heirl
hellen
hegem
helicopt
##geist
##geons
##geois
outc
outd
outf
outflow
outland
outfield
outpost
outperform
outnumber
conco
connot
congest
conference
congo
convo
congen
convin
conclus
connell
##imeters
##thest
##apable
##appy
##apolog
chor
chal
chen
chad
chow
chir
chate
churn
chun
chia
chard
chong
chol
chang
cheng
chise
chak
chats
china
chatter
chips
chris
chival
chloe
##ifers
##ifty
##ifix
##ifact
nus
nuff
youth
asi
asm
asper
asia
aspect
ashe
##atee
noth
##ulary
##ulative
##ulah
publ
##achlan
uss
usa
usm
usern
##avin
##avis
##avail
##amin
##amon
##amine
##amoto
##amorph
cana
cany
canon
canop
cancer
canada
canoe
cancell
##ertaint
retra
##gore
##gora
##anti
##antile
##antics
doo
dob
dop
doh
dope
doyle
doming
dogg
##ivoc
##ivated
##ivities
##ivision
##ersome
##ershire
atone
atlet
atkins
atroc
##ooo
##oose
##usa
##usal
##usive
##lda
tyler
##ourt
##oury
##ourg
##iku
##iked
someth
somebody
quebec
paw
pact
pamp
pair
paink
pagan
pauls
pamph
headqu
##iece
##ieved
##asters
##astics
##astical
##astically
tramp
trapp
traject
traged
traitor
syring
syria
adjud
adjourn
##unching
whats
##iao
##iage
##iago
expose
expatri
leo
leic
leap
leary
leak
leah
leather
league
lebron
leisure
getty
##ething
##imal
##imedia
##imately
##imony
withers
withhold
##ppa
##yness
shi
shat
shre
shing
shem
shith
shore
shim
shill
shep
shek
shang
shag
shana
shank
shuff
shiver
shirt
shrew
shudder
prey
prent
prett
precept
precon
prehist
preoccup
tao
taboo
tarant
mae
maas
mais
maver
maul
maine
maker
dynast
##geries
alli
allig
insin
insom
insens
insane
insurg
##qui
##quence
##quins
grab
grave
grapp
graff
graft
gravey
gracious
graham
grands
##ipsy
##ipotent
##mma
##mmed
##mmies
##erfe
bigot
enum
engin
enemy
enjo
enrol
enzym
encephal
##ighton
needle
intel
ung
unst
uned
unis
unass
unread
unso
unman
unins
united
unreg
uncomp
uneven
unhe
unload
unob
uncondition
unimp
unamb
unoff
unlock
unique
uncomm
unnat
unkn
unblock
unanim
unquest
uncomfort
unknow
unravel
unapolog
##cken
##mbs
##mba
##mbat
##mbie
##iality
##ialized
compart
compla
compost
compatri
comprehe
##phi
##phen
##phia
##pherson
##phrase
##phrine
##ando
##andre
##anding
##andan
referee
referend
##grave
##grass
##grading
##graded
##alya
##alyp
howard
howell
##illary
##illery
##illusion
##ptide
visitor
byr
bystand
bylaw
byprod
byzant
roc
roh
rog
roger
rolf
rosh
roma
roche
roller
rooney
##aceous
##inees
##ineering
##inephrine
##siss
curs
curve
curios
##allow
resil
resett
resched
resume
resusc
quin
quir
quay
quiver
quarant
ups
upset
##arte
##arton
##ousal
##ccess
methyl
##ocy
##ocur
##ocity
##ocate
##ocial
##ocating
##ocious
##ocular
##ocop
##ocative
hag
hain
hare
hara
haul
hairc
habs
haze
douche
suv
suz
sura
supr
sugar
suarez
nob
nok
nox
noon
noble
noah
nostr
nozz
nolan
nobody
nostalg
nocturn
appar
apples
appli
appreh
apprehe
appalach
memorial
member
membran
anybody
##cling
##clero
##clair
##cloud
##tton
worker
workload
abc
abu
abre
abate
abom
abhor
abrupt
##ilee
##ileen
##ilever
##mberg
##ustible
##ustroph
##ardi
##los
##loor
##lomer
##lovak
##athed
##athom
ende
endow
endomet
endocr
casey
##outed
##epress
##tebr
##teacher
accol
accla
constell
constrict
##ceptions
willing
spy
spit
spac
spur
spray
splic
spill
spine
spain
spite
sparing
spaw
spino
spiel
spani
sparse
spencer
sporad
speck
speaker
speech
disen
disass
disav
disab
disorder
disown
dismember
disob
dischar
disloy
disarm
displace
disinter
disband
disheart
disobey
disorient
disillusion
unde
unden
undis
undet
undoubted
##nington
overp
overh
overton
overwork
overdo
oversee
overpow
##ffen
##fficient
generation
editor
edmond
eddie
edmund
##aba
##abulary
##ainment
##ibo
##ibs
##ibu
##ibur
##ibble
##ibus
##iberal
##coon
##cogn
##coms
##coma
##ressive
boomer
mov
mom
moll
moly
mose
moore
moff
moons
moody
molly
mosa
mosc
mommy
movie
cree
crev
creme
creation
##ultz
##ultures
##ractor
##ractive
##ractors
##ermal
impass
impul
impedi
implicit
impregn
posit
funni
funnel
defence
deflect
desire
desol
despa
deserved
designer
myr
mys
##quel
##quets
##quential
loom
looph
constantin
trit
trill
trous
trough
trink
truss
parach
paragraph
paramed
teh
tear
temple
teach
teamm
teacher
assad
assail
assured
repar
repent
repud
repos
reported
reposition
repris
repaint
repatri
reprim
##iently
##uders
conson
consort
consens
conspic
consumm
##pendence
singh
singer
kev
keb
kean
keith
keel
kelly
kevin
keefe
twin
twel
contag
basing
basil
basket
##metrical
subc
subl
subj
subse
subun
subcon
substr
subcont
subgr
subsystem
gob
gop
gog
goat
goode
golf
gosh
##gher
##othel
##othian
fol
footh
foster
recapt
curry
loa
lol
lover
lolo
loft
loving
loss
locks
lobb
lopez
lollip
##aren
##arean
##fta
els
elm
elk
elastic
pec
pean
mee
mew
mell
meant
meek
mezz
meij
##ongy
commiss
runes
runner
requis
minn
mina
mini
minnes
mineral
ministry
middles
##itement
##cration
##crated
##renched
##reneur
##rencies
lineback
##coni
##consin
storefront
undercut
underestim
mann
manning
manne
manoe
mangro
mankind
manhatt
butth
button
butler
butters
butcher
##lleys
immen
immeas
##ansas
circuit
siam
##osia
##oske
##oscopy
##oscience
##oslav
##oslovak
##omi
##omes
##omon
##omal
##omatic
##omous
##omics
doubled
##ixed
scav
scant
scour
scound
scree
scare
sciss
scumb
scots
scorn
scaff
scroll
scape
##oping
##opia
##opular
##opian
##opsy
##opotam
amr
ami
amit
amar
amid
amir
amule
amaze
lett
orgasm
apric
april
##ursed
##ursion
##ursions
##olf
##olin
##olar
##olas
##olta
##olitan
comf
comed
##veland
deple
depra
deplo
idios
##affer
detri
detox
detaine
detroit
plut
plund
plank
plaster
plastic
modi
righte
##pylene
##reading
computation
##enshire
##ango
pops
solar
solvent
##ksh
##ksand
##ksha
##kshire
wouldn
wayne
##actively
relaunch
relativ
logan
##itsu
lowe
mayor
##tran
##traction
##trans
courty
courts
courtes
##ishi
castle
castro
justin
pathogen
##erned
##erness
corr
cors
corb
corks
corne
corps
corros
corrid
corrob
correction
corrobor
thanks
backp
beginner
marks
workshe
everybody
templ
##inkley
##weg
##enging
betray
betty
gmail
postmod
posthum
##bok
##bolic
infat
infre
infur
infect
infert
inflow
infield
infirm
infidel
erit
eric
erick
ergon
erdog
ernest
herein
##logic
##logne
reader
actor
##ryl
##iosis
studio
eto
etat
etch
lgbt
kne
knit
knack
knuck
knox
rug
ruin
rupe
ruck
rupt
warren
warwick
##agu
##agic
##agus
##agues
##agne
##agog
former
predis
sla
slut
slap
slav
slim
slip
slight
slings
slug
slash
slump
slaugh
slipper
slaughter
valle
valley
shortfall
college
discord
##zakh
errone
provision
province
##owners
practition
##isecond
goodby
##fuls
grady
machin
##onyms
multid
multif
##ipley
afrika
aficion
evan
evans
evening
##elt
##ela
##elan
##elong
##elier
##aku
##akh
cars
carl
caric
carot
carly
carib
carbo
carne
carson
carpet
quicks
brod
brie
brim
brick
bruce
hasht
larry
larva
schu
schum
schwe
schematic
schwar
schae
schizoph
hog
hock
hobo
hoax
hogan
holder
gear
geek
geys
geoph
geez
geoff
geopol
##appa
##appings
##apprec
##ugation
cyl
cyan
cymb
cybor
cytopl
cybern
aftern
##gae
##gara
##gages
fri
frick
frisk
highs
bled
bless
blight
bloc
blame
blink
blizz
blunt
bluff
blair
blitz
##ittor
##ittle
##ittal
##ittance
nonpro
nonvio
nonchal
utah
chavez
county
countert
counterfe
##issy
##isson
##issive
##issance
##conduct
putin
##nsylvania
extraord
##ologues
##rank
##ranged
##ranean
acet
acety
acquis
perv
perl
peril
perth
perry
percuss
swing
swan
swoo
swans
sword
swag
swank
swords
##ualized
badd
##ucers
##ucible
##ectorate
ensla
lott
totalitarian
##river
##rible
##rium
summer
summers
hua
hump
hugh
handsh
handker
handsome
handgun
webster
bals
balcon
baloch
baltim
writ
wright
writer
buh
bunt
buyer
floor
floss
floyd
##nee
##nez
##neous
##neys
##nelly
semif
##apsing
interl
interde
interesting
interconn
interpol
shroud
remar
remain
remaster
remote
remorse
banks
matr
mats
matte
fee
feb
fein
feas
fever
##bean
##bearing
##bender
##bella
welles
##otherapist
##ierre
unsc
unsett
empath
empire
empower
emperor
##redict
bob
bok
bobs
bogg
bobb
bobc
boston
bobby
bohem
sao
sai
saus
saha
sarah
fla
flas
flue
flut
flot
flip
flound
flab
flame
flank
flatter
flaunt
charge
charism
charming
agar
agent
agency
agric
grr
grub
grate
grunt
##iterate
occupy
demoral
democratic
indebted
indefin
##wny
##flowers
weekend
halle
conde
condomin
autoc
autos
autumn
##insic
passers
##upulous
caled
caliph
avat
avoc
avalan
phu
phy
php
phant
phara
pherom
##anagh
invo
surpl
surfact
surrog
surgeon
##notes
chev
chef
director
president
prescrib
preschool
##ivided
reds
redra
redef
redneck
##onduct
##ondale
concub
concord
concuss
debun
founder
foundation
simon
simult
enthr
opa
transf
transist
transph
transact
transparent
transgress
transcript
transaction
arche
archive
polynes
guj
gunt
guest
guess
gumb
guill
guang
guatem
smur
smack
smir
rais
raul
raine
raft
raza
##unded
recomb
recolle
##anka
protagon
widow
##ssus
##ropolis
fae
faq
benign
bennett
benedict
##oka
##oku
##oker
##okov
ski
skitt
skys
skyl
skirm
##ilians
mott
motion
motif
##isticated
##cules
kris
krug
crut
crim
crush
criter
crimin
crumb
crude
cruel
supers
superman
superfic
superher
supersed
superintend
cale
caut
caul
caution
calend
cavern
caffe
greet
anto
anti
antar
antig
antith
antim
antenna
antiox
cuba
##onson
##onshire
##cestershire
marse
marie
marqu
marath
marlow
mario
maroon
marria
martha
association
britain
britann
ohio
quadrup
focuss
hardy
##papers
##plant
engle
engage
england
engulf
engross
##ahu
##ahan
##ahaw
bookse
joe
jov
joke
joao
##entials
farc
farn
farmer
lamp
laver
laud
lawn
walker
emanc
emiss
emily
emeral
emotion
film
netfl
drug
drift
drunk
veg
vehe
vegg
vegan
academy
bram
brant
brave
brady
bradley
questionna
significant
##vising
distaste
distrust
persist
drain
draper
drake
caret
carey
careg
waik
waff
attach
attache
attorney
brew
breed
improper
commander
hunter
huntington
benefact
oklah
suppl
supposed
clearing
cleveland
synth
submer
obser
##sho
##show
##shots
##shell
region
regard
regional
regiment
##mptive
nato
##opers
##strings
overrun
existential
building
couldn
harle
harry
harvey
harps
harrison
##hesia
encro
encir
encourage
unfav
barre
barra
barth
barcl
barns
barca
barrist
barcel
barbec
honest
turner
freight
frett
freak
freeman
freemason
connor
connois
esper
eski
##structed
##axis
obit
obso
obama
oblique
pattern
patrick
patrol
##oleum
##tenstein
robes
robinson
immedi
snor
snub
snark
snag
snugg
snyder
##yson
##olson
libra
##uracy
goose
humili
humane
ignor
unsuccess
jell
jeann
jelly
jealous
jewel
jehov
##annon
##anners
##annah
profound
decad
decap
decib
##cents
##centric
separat
##toe
##orescence
##rard
unlaw
##ariat
salt
sala
##ogg
##oglo
##ogens
##ogene
##awar
puritan
##marks
##marked
broch
broker
hypers
hybrid
hygien
negro
anna
annie
annab
annivers
announ
bookshel
powell
##cede
##ovo
##ovs
##ovy
khan
##ylene
##ricular
metz
metall
meticul
metcal
metamorph
artic
artem
artich
artific
artisan
artifact
confed
confine
confident
destabil
destiny
frag
frant
fraction
framing
merced
mersey
merkel
nair
##dspe
irrad
irrespons
##eller
##elled
##ellar
##ianship
glou
glas
glass
glitch
gladi
##agery
copper
##burger
dayton
viewer
freder
freddy
monk
monit
monot
monarch
monument
monaster
monster
monograph
monica
monkey
monoch
restock
##raday
relent
alexander
bitcoin
##ribe
incumb
inciner
incorrect
incarcer
policym
dela
deli
delir
##uously
stev
stew
stein
steve
steak
stewart
player
playwright
natural
dias
diarr
##gba
goaltend
crab
craig
winem
winder
winner
excited
organisation
involunt
engineer
gains
gaines
misd
miser
misle
misman
misinform
misfortun
mississ
##arak
##aragu
affidav
france
franken
denver
denmark
denny
denomin
mcne
mcfar
##olding
savage
respir
penn
pena
penins
penitent
pennsylvania
serious
serpent
##hammer
##hamshire
domino
morgan
morris
morrison
morocc
oppos
opponent
parr
parish
##sonic
browns
squint
squir
squab
squish
belt
belated
belarus
shaft
burke
burton
burden
burrit
burdens
porter
portland
portugal
portfol
herod
herbal
herald
navy
##amesh
breakthrough
donate
donald
garcia
centre
century
centimet
centaur
##iums
##prit
expert
producer
unreason
unrecogn
succinct
estrad
colour
colone
unwind
unwitting
unwilling
demonstra
finn
finland
##hea
##hey
##held
##heast
osce
ospre
##horse
julian
juliet
##azy
##azar
device
devol
devalu
devote
deviant
humanity
bottleneck
musl
musket
##ographical
##attie
behaviour
crock
croiss
dinosa
octav
octagon
##laid
grandpa
grandma
grandmother
grandfather
baseball
stanley
swims
airline
airport
airfield
embed
embark
embezz
##ruff
intros
administration
cnn
capit
capric
facade
facility
##casters
##bright
simpson
autobio
campbell
##camp
##cake
proceed
fingerprint
rams
ramon
thumbn
##eney
paycheck
payload
payroll
smoke
smokes
reinstate
reinhard
reinvest
ceo
celine
cemeter
cecil
cutler
derail
derby
soror
sorrow
##iracy
##iracial
##letal
##iscus
##iscipl
community
communique
epit
epic
epile
electroc
medall
medica
pete
petr
petra
peterson
##grid
groo
gros
groom
grocer
paler
palme
palest
sweep
sweethe
terry
territ
tenn
authority
authoritarian
fairy
critiqu
lights
messi
##ending
##enders
##liners
reconn
reconfig
furlong
urs
urch
urugu
##otypes
competition
##opsies
june
junior
macy
macros
macroe
##balance
blackhaw
earn
earl
earnest
famil
gaut
gaul
gaff
gauss
hammo
hammer
hamburg
hammers
neurosc
neurosur
neurotrans
appease
horns
tsun
##cycle
##oya
collar
collier
colloqu
shea
sheer
shear
sheep
precurs
precise
precinct
uncertaint
bailey
genoc
genital
genetic
sandal
##lihood
##baij
customer
turnt
turbo
turkey
wilder
wilson
wilkins
wilhel
##hasa
receivers
ingen
ingred
extort
montana
##aughters
berg
berger
berry
berlin
camero
cambr
camera
cambod
camoufl
msn
##guire
##guarded
society
domic
prepared
melbourne
catacly
dmit
liam
lique
mccon
mccall
mccorm
mccain
mccull
mccarth
mcclell
torch
##year
foreign
foreclos
dissu
dissat
dissert
dissoc
officer
experiment
biden
divest
division
microw
mickey
microph
rhin
rhodes
rhym
volta
volcano
##ippy
intermitt
dealer
dealers
tabl
guardian
franklin
audience
auditor
duo
duke
duran
gnaw
miller
millimet
millisecond
silhou
suscept
walter
##iesta
##zzi
##ylie
##ylaxis
energet
virtu
psychos
psychopath
awesome
ferra
fervent
fergus
firecra
firewall
longh
piece
parson
sanchez
wasn
christie
traveler
propagand
casc
carter
diab
diagon
madrid
madonna
satir
saturn
satisfact
incompet
company
companions
biote
biof
galax
galactic
galvan
holt
kenny
kenya
landf
monday
nouve
punj
##written
##rased
admitted
teleph
teleport
telegraph
telepath
television
##shevik
ambig
ambul
ambros
bowie
datas
dunk
duncan
ethere
judgment
renown
management
website
photo
bonne
baller
balloon
daniel
hurric
hurried
masc
masse
mascul
masquer
murray
murphy
martini
panor
potter
potato
werewol
##oxy
##oxide
##hoe
##hoot
##etermined
##idental
allegor
alleged
unnecess
##icksburg
philip
philadel
ruby
rubber
watercol
waterproof
##holds
army
armstrong
anglo
angles
ashley
buddy
cabb
juan
juke
juven
juxtap
puppet
western
##ienne
##breaking
##etera
rocking
johans
batman
borg
borough
borne
bandw
lucy
lucas
muham
odys
oxy
room
roomm
rooft
roosevel
##embled
alban
album
alberta
##ammy
##ammers
footpath
inflamm
bulb
bulg
bulk
crowd
crowds
homer
miy
miami
menstr
##rigan
##flies
magistr
escap
hypoc
hypnot
hypocr
boliv
bolshevik
bulldo
candle
candidate
candlest
fleet
kilomet
volley
voicem
vacation
women
watert
waters
watersh
##ritic
##ritis
##ijuana
innoc
promot
promisc
hawth
hawke
dispatch
billy
billboard
cardi
nicaragu
pacif
pacific
southeast
walling
wallace
##uitous
##feed
therap
therape
##rophy
fortn
wheat
newslett
newspaper
lawrence
lawyer
athen
athlete
boss
cuis
cumm
cumber
councill
federation
henry
hemat
hemis
jerry
jersey
michigan
michelle
norway
norweg
rainfor
souza
souven
senor
senate
senator
sentine
stopp
renee
reneg
renegot
inhum
inhuman
##ascar
##ascular
premature
physical
technology
axi
axel
bayon
cathed
gerard
gerry
housew
karl
nightcl
nightmar
richard
richards
tunnel
victoria
whoever
majesty
unpopular
unpredict
spectro
spectros
spectacular
tribe
tribes
tribut
tribun
merciless
hydrocar
hydrochlor
bernie
bernard
culture
eccentric
fuk
fanatic
figure
jury
jurgen
marsh
marsha
marshm
nutr
nutt
piggy
parker
parkinson
sloven
slovak
ticket
wolfs
exceed
excels
clarke
helmet
romney
romantic
quarterf
skyd
motorb
motorcyc
anthony
barbar
militia
military
microsoft
ayurved
ahmed
ahmad
aerona
aerodynamic
dodge
davis
fiber
giant
girl
hotel
kyrgy
kickstart
mistaken
pilot
scold
scoff
skept
skeptic
tonight
venge
village
wreck
##ochond
##ridged
##innon
strange
stranger
strangle
cosmet
claire
claustroph
aspira
sheriff
sufficient
collector
counterint
coupl
canter
canton
celest
celib
drool
fisherman
ibm
kerry
loudspe
mitochond
vanqu
vibr
##ometry
##ometric
##poons
##jiang
tomato
tomorrow
inept
injust
neutr
overloo
contracept
homosex
homogene
cruz
##ogenous
azte
bhut
hillary
licens
lenin
laura
lauder
owen
owner
santa
sauce
talib
tuber
video
videot
videog
##belt
##arthur
animal
cannon
cannab
inspir
overturn
cornwall
georget
##bellum
fluor
espn
colonial
austria
australia
boulev
banglades
battal
certific
dutch
eucl
ellipt
eyeb
eyewit
fatig
future
glee
germany
hindu
jamie
kazakh
lesb
niger
nigeria
olive
panty
ranch
tanz
vagin
yuk
##organized
stylist
reassess
stratosph
stratigra
secure
secular
somers
doctr
doctor
unearth
unemploy
unconvinc
complac
constitu
spiritual
##conomic
scramb
corporation
carpenter
bronch
champion
redevelo
irrevoc
secretary
politic
governor
government
amput
birds
baptist
baptism
ceramic
ceremon
couple
dystop
dwind
didn
ecosystem
gonzale
glyco
glycer
gilbert
gamer
gilles
gibson
jonathan
kingdom
lavish
limb
nasa
picn
ryan
ronaldo
ricci
ravi
sarcast
tapest
tamar
uphol
upheav
##iatric
cockro
clerk
clergy
pandora
lewis
grasshop
romania
resurf
troublem
scotts
scotland
bloom
blooms
blinds
blindfold
employer
employee
flavor
lauren
brainstorm
harvard
##continental
oscar
johnny
cataract
catapult
caterpill
dawson
furnish
gyps
gustav
katie
lemon
livest
marys
maryland
miracul
ninet
oceans
penteco
sieg
soundtrack
uganda
ukrain
ukraine
##iotics
##lifted
##rehensible
toothp
anchor
pronounce
altru
sophie
sophom
henderson
hendrick
##imonious
uninhab
rescind
institute
nomad
dislod
defendant
assembl
assembly
coroner
bogota
florida
pharmace
crucifix
principal
registrar
patriot
patriarch
salvador
earthqu
ethnic
photographer
buddh
buddha
aleksand
austin
dialog
dyslex
dysfunction
fingert
fingern
fulfil
fulfill
hodg
himalay
horses
hungary
journal
landsl
mimic
mongol
muller
mammal
northeast
oversh
tacit
tumult
vincent
wisconsin
wagner
xxx
##brook
##broken
##miths
##patient
##gregor
thunderstorm
##reatment
steril
##isfied
##cellular
alcohol
solomon
ascertain
dolph
expedition
leonard
sudden
sunday
assassin
contradict
recruit
commissioner
circumc
circumst
wrestle
flatten
cristo
joyce
brooklyn
nazare
stephen
francisc
francisco
mcmur
paralymp
shooter
philosopher
pythagor
zealand
gentlemen
bureaucra
manufacturer
aeg
binocular
bingham
cesar
cafe
cafes
diego
essay
festival
gaga
hijack
jesse
jesus
jessica
jordan
kuwa
kanye
mourinho
pistach
pancre
pictures
rasp
ragnar
sask
sulph
tiger
tiber
valentine
veterin
veteran
##umption
##grown
stunning
steadfast
stafford
rearrange
inexper
aristocr
cotton
isolation
##urgical
forbid
strateg
exhilar
procure
protege
alfred
indisput
indiscrimin
deceit
soldier
nucleot
publisher
atlanta
painstaking
withdraw
maiden
unprof
abbott
sponsors
disgust
discrep
discreet
discretion
undersc
overthrow
reporter
butterf
plaus
temperament
chairman
saxoph
confidential
steeple
colorado
virginia
astrona
battlefield
cryptocur
inhabit
gabriel
acknowledge
republican
aaron
bryan
babylon
cigare
emma
ephes
genealog
hitler
hannah
jagu
kentucky
lithu
museum
nhl
nestle
ozil
ontario
perez
russia
rattles
sapph
taylor
tropic
##natal
thermodynamic
theatre
stairc
staunch
stalin
stupid
toxic
invertebr
cohen
anaest
prosecution
prosecutor
pompe
alaska
seattle
indoctr
chirop
choreograph
chipm
chancellor
churchill
sylv
prefect
unauthor
hazard
supremac
aberde
abandon
spartan
overwhelming
mozart
impecc
vertebra
kellogg
##reneurs
scandinav
commence
plagiar
argentina
postpone
carolina
persever
griffin
griffith
surprising
protestant
crunchy
anteced
##parable
brazil
wavelen
jefferson
francois
mcdonald
malaysia
columbia
millenn
epistem
astonishing
turkmen
suspense
photosynt
kohl
ultras
hawaii
southern
citizens
arabia
georgia
colombia
pittsburgh
aphrod
amphithe
bizarre
bourgeois
bengal
bungal
ctr
cousin
dionys
fayette
fresco
fiancee
fernandez
gordon
hortic
hudson
imbal
jiang
japan
joker
kiw
korea
karen
kauf
lethar
lanka
lennon
mitchell
ogil
pineapp
prank
pediatric
racket
rapport
sincer
sincere
sulfur
tesla
tuesday
tornado
vapor
yesterday
##evil
##zhou
thomas
thursday
tournament
arnold
arsenal
cochran
isaac
anatom
prisoner
##intyre
cliche
cliches
indonesia
deutsch
conglomer
chicago
chromos
chocol
chelsea
chimpanze
leopold
mailbox
maggie
enlighten
enlarge
unmistak
unhapp
unaccount
hairdress
abraham
absentee
disproport
overcrow
moistur
##ekeeping
twenty
multicultural
africa
hollywood
sweden
redesign
enterpr
entrepreneur
entrepreneurs
skateboard
crustace
caesar
##planes
vehicle
refreshing
obliv
merchand
##hazard
misunderstand
belgium
centrif
embellish
epithel
cameron
societe
liverpool
rhythm
psychoanaly
saturday
johnson
ecuador
rodriguez
inconsist
hahahah
venezuela
czechoslovak
buchan
cunning
dexter
daffod
echel
eccles
eagle
flesh
gandhi
greece
gerald
houston
hispan
hexagon
heterogene
hirosh
hernandez
ireland
ivanov
journey
kangaroo
krypton
kindergart
lloyd
nurse
nixon
oregon
oliver
pengu
rachel
ransom
satell
senegal
tiffany
torpedo
uzbek
ulcer
ubiqu
vincen
worthing
washington
##runner
##valued
##speed
##luence
thompson
toilet
inadvert
inexplic
intoler
arizona
arthur
artefact
coefficient
foresee
strongh
exorc
princess
proverb
algebra
alabama
sebast
chieft
retrospect
tyrann
queensland
sydney
legend
lebanon
shotgun
tajik
insufficient
encrypt
universe
unintent
unequivoc
roleplay
apparent
sponge
spearhead
disgrace
disinfect
edinburgh
editorial
trespass
subpoena
peculiar
megaw
committee
scallop
america
amateur
amalgam
plaintiff
warrior
predominant
sledge
afghanistan
carriage
bridesma
cytok
blasph
extravag
perplex
semiconduct
matthew
unsurprising
democrat
phoen
cheetah
presbyter
opinion
antisem
antidepress
margaret
annoying
confucian
scrutin
restaurant
delinquent
srinivas
miscarr
misdemean
misinterpret
crocod
crosso
embroider
##overnmental
samsung
shepherd
sociopath
toronto
charlotte
awkward
