[PAD]
[UNK]
[CLS]
[SEP]
[MASK]
!
"
#
$
%
&
'
(
)
*
+
,
-
.
/
0
1
2
3
4
5
6
7
8
9
:
;
<
=
>
?
@
[
\
]
^
_
a
b
c
d
e
f
g
h
i
j
k
l
m
n
o
p
q
r
s
t
u
v
w
x
y
z
{
|
}
~
¦
©
®
°
·
º
ø
α
β
γ
δ
ε
θ
λ
μ
π
σ
φ
ω
а
в
и
н
с
෍
​
‍
–
—
’
“
”
•
…
ℎ
™
→
−
∴
≤
≥
⌈
⌉
⌊
⌋
─
═
▀
▄
█
░
▒
▓
■
□
▪
▬
▶
►
○
●
◕
★
☆
☒
☺
♂
♡
♥
♦
♪
♫
♬
✅
✓
✔
✨
❤
⠀
ツ



𝑂
𝑘
𝑛
🇸
🇺
🍆
🎃
🎵
🎶
🏻
👀
👉
👌
👍
👏
💀
💕
💖
💜
💦
💩
💪
💯
💰
🔥
🗿
😀
😁
😂
😃
😄
😅
😆
😈
😉
😊
😋
😍
😎
😏
😐
😒
😔
😘
😛
😜
😞
😡
😢
😤
😩
😫
😬
😭
😱
😳
🙂
🙃
🙄
🙏
🚨
🤔
🤗
🤣
🤤
🤷
##y
##n
##c
##h
##r
##o
##t
##i
##l
##e
##d
##a
##s
##k
##g
##v
##x
##u
##m
##p
##b
##f
##5
##z
##w
##j
##q
##2
##1
##7
##0
##4
##6
##8
##3
##9
##ℎ
##𝑘
##​
##𝑛
##а
##🏻
##𝑂
##‍
##♂
##🇸
##er
##in
##at
th
##es
##or
##nt
##on
##st
the
##ed
##le
##re
##ic
##nd
##ing
##it
##al
##ion
##me
##od
##ra
st
##ct
to
##ou
##ar
re
of
##as
in
ne
##mp
##an
##ac
##ro
##ode
##en
int
ar
##ur
##ist
##et
##ue
co
##is
##ata
##ut
it
is
##ation
##ll
node
an
and
##ment
data
##em
for
##ray
wh
##ve
str
##mple
list
ad
array
##ot
##ce
##ass
##ly
cl
##ex
ex
new
##ect
##uct
pr
##ig
##ub
##id
##se
##ow
##ad
##ity
##ch
##ver
##lic
class
##il
##int
or
pro
##ith
if
ind
##ap
struct
##est
pub
public
##ure
so
##pe
be
##ack
po
se
index
##ge
lin
##ble
out
##iz
##ent
al
##xt
on
add
##per
de
next
we
he
##th
you
con
##ort
##urn
##ir
ret
tre
##bj
nu
return
ch
##av
##ess
##if
##ate
##ime
##am
obj
that
link
us
##ul
##lement
not
##ers
##alue
as
do
stack
can
element
##ach
are
##ize
time
##ay
##iv
##fer
##ant
this
linked
##oo
tree
##atic
##ld
structure
jav
sy
size
##ithm
at
##gor
value
some
iter
##us
##ore
algor
algorithm
print
object
oper
##ert
##ik
ty
imple
##mo
##ie
##ions
##ations
##ator
##igh
##ia
##eth
fro
que
what
comple
java
implement
##age
##ere
head
##our
item
##stem
system
static
##ast
##yn
##un
##arch
##pp
exp
ma
##im
null
get
##amic
dyn
##oid
dynamic
##der
with
wor
##qu
sh
le
##ive
from
ta
iterator
remo
##pt
##ures
##gra
##mm
void
need
un
##erf
pre
complex
##ight
en
ins
##apac
comp
##apacity
search
##mb
##and
structures
use
##eg
##ip
##ill
how
##list
tra
pa
##oc
has
arr
progra
##aly
meth
##ener
method
##ine
##vers
10
analy
integ
##ace
string
cur
insert
complexity
exa
all
##ty
##ase
set
refer
##rent
##cc
##sis
##ial
code
inst
qu
by
big
remove
##ence
analysis
##ous
each
queue
##all
point
##ln
##row
##irst
println
any
gra
##data
first
##put
##ck
su
##art
##ust
integer
##ance
typ
elementdata
up
##ally
arrays
ha
##tt
dou
res
##ild
##ory
no
order
##capacity
app
##fs
ab
##ile
##ks
##ary
##ies
using
operations
##cl
##cept
##ter
##ated
mem
##ound
##ike
##orm
##eneric
prev
##ph
##ard
ro
memory
##te
adj
example
have
##mber
##odes
acc
arraylist
more
will
##ould
##co
##ount
like
case
implementation
##ction
one
##ep
##iew
##ition
nodes
##node
##ame
my
end
##out
el
##ab
child
your
var
##view
over
##ath
##ues
const
boo
##able
##ress
##lo
dis
spe
sp
##ract
top
##les
##ult
##ner
wik
perf
lists
items
##ff
##ib
##ain
##ning
vis
##ther
##ior
type
access
para
und
program
root
operation
##enc
##pend
dif
spec
types
when
number
##ke
##ud
other
imp
newnode
sort
pos
travers
appro
##00
used
prior
sour
varia
htt
http
reference
cs
visit
def
##eck
loo
ed
graph
ass
current
double
tr
bound
des
generic
##ings
algorithms
##ich
fun
mo
call
##ious
review
last
work
##ating
##ind
go
##ical
quest
##ice
inner
source
constant
##lean
##ite
##ek
traversal
perform
##met
heap
##lle
there
same
##erm
where
queues
cre
boolean
stor
##mpty
##ext
##are
##ient
##que
only
arg
##ft
lect
te
which
priv
##ag
##um
programm
differ
min
##ong
cons
tw
private
bas
tail
##ested
but
com
rep
why
vs
rec
##erface
lecture
requ
pe
##gh
fo
##ush
curr
ap
##ang
cont
output
sub
##ign
trees
##ire
##ruct
comm
part
##eng
sing
##ception
specif
count
giv
ke
grow
##inary
questions
am
eff
im
cost
under
mid
##itive
me
binary
leng
run
store
length
loc
##cr
given
##py
##ree
equ
##ates
##meters
##op
push
interface
about
parameters
visited
##oth
does
space
two
##res
input
bfs
lo
##ese
##low
man
org
##ough
##ren
line
##ven
approach
si
##llow
old
import
defin
##ments
just
let
else
##os
instance
##ol
##blem
aver
follow
problem
these
n2
##ics
##ange
##ield
##ix
##ick
elements
##anc
function
##ide
sc
##urs
file
##ans
stacks
main
parent
id
priority
generics
programming
##10
iterators
##ities
should
make
mod
image
average
args
##cul
see
##bles
##om
##ject
pointer
20
n0
##ater
best
right
different
equal
##ected
effic
##resent
dele
##eight
##ens
disc
represent
##ict
export
##its
pl
##order
then
comput
classes
##type
create
##next
sol
field
left
append
want
rel
dfs
step
##thing
##queue
##edia
##very
##class
cour
er
would
##oday
stud
colle
outer
vert
max
##ipedia
wiki
wikipedia
variable
cast
hasnext
pap
##dle
det
cor
worst
##ark
fix
dep
##ized
paper
loop
today
seth
low
##af
mincapacity
setheight
middle
##ish
##kes
may
requir
previous
capacity
while
notation
instruct
gm
##inal
sv
works
post
student
every
nested
##bo
things
##array
methods
svg
##act
##ail
read
##ern
##ym
specific
children
##ving
##uch
project
recurs
singly
##ays
long
##ces
throw
##vel
##ink
result
position
##one
##check
bet
course
##value
following
cir
##ond
common
##ifi
local
err
car
find
than
into
address
pop
empty
true
##ually
##ry
act
lg
##ose
peek
start
inf
collection
war
##tra
##ord
bl
##ved
check
sl
##gin
##we
doub
kn
##onym
log
##io
term
##line
##fore
copy
##read
upper
##onymous
##of
ver
important
##own
adding
constants
##generic
cs3
good
val
##za
##ices
concept
et
level
##ason
init
takes
edu
efficient
its
thro
##uss
##ency
##abil
pract
initial
##ttle
depth
variables
doubly
throttle
newcapacity
##cular
gmu
descr
thr
grad
mach
math
##ution
white
##so
##au
needed
insertion
points
circular
prim
100
##el
back
begin
##even
##ors
##ful
##iaz
##ically
##estine
anonymous
pred
machine
piaz
amort
piazza
##exception
express
counteven
cs310
##anced
##ise
##unt
##cre
through
form
etc
called
abst
way
hash
discuss
##ides
abstract
wr
##stand
key
##ead
also
graphs
performance
adt
anytype
amortized
here
##rect
know
temp
br
##nected
ge
describ
af
##ctions
##pport
##board
ise
fields
high
lar
adv
warm
isempty
##cess
correct
compil
##ak
convers
table
partic
##ases
##log
lower
##itt
exception
later
resour
much
range
decl
##mpl
front
elt
equals
vertices
casting
error
very
primitive
iterable
ut
quick
##ull
##iss
prob
ide
bad
cha
down
ho
put
##ug
##ider
before
complete
predict
expression
stored
##usse
opt
sch
both
fr
path
##ian
understand
##ernal
##ared
short
##ative
##app
simple
##ify
implements
storage
running
whiteboard
after
resources
lang
extra
eas
##uc
applic
mark
##ges
activ
yes
t2
usually
without
practice
##ule
##ual
expl
##imit
##ns
##edo
cod
##alk
##ematic
ht
tot
alloc
##ran
delet
mathematic
lot
mult
per
##atch
##ization
summ
ac
##imes
modifi
##ween
most
##irect
util
2n
those
such
between
coding
##ga
doc
uns
rangecheck
non
prov
##itions
##ours
##lp
total
##ri
hand
sw
keep
computer
addition
positive
must
##ves
problems
##iple
##oduct
lear
bal
##ences
##fits
##orge
##member
proper
ev
sem
##side
off
height
pack
##cle
remember
fast
fact
h1
##aps
easy
cy
hours
sets
instead
basics
exporter
terms
summary
##ins
enqueue
mylist
myclass
##ne
process
##ester
flo
##cond
##ream
exe
ens
##ling
##be
detail
option
fal
op
##lying
##ta
byte
basic
requires
##ivers
##25
dequeue
inter
help
sm
##xim
consider
particip
allow
##come
contain
simpl
limit
ome
approxim
assign
move
##mples
client
##lf
##bs
##ages
##ability
rem
bu
##orial
below
outline
examples
adjac
underlying
delete
recursion
concepts
mathematical
omega
oldvalue
incre
##ness
gener
bread
expand
charact
##ways
##iter
ary
leaf
false
##ants
text
float
dur
t1
deg
wel
removing
references
highest
details
breadth
ban
2025
final
occ
univers
emp
nar
lif
##ron
##other
##man
second
##verse
fl
##ml
##copy
single
give
intr
show
##encil
pencil
something
university
##red
##vert
polle
typical
bounds
functions
many
solution
related
required
docs
package
ensure
welcome
##dep
##men
arraycopy
setdep
special
counteven2
setdepth
##ware
##ars
gr
fe
##olog
##not
##ger
orig
scen
sched
ag
##iated
inde
upd
bo
##ward
##tree
connected
linear
dem
always
compare
typically
means
loops
describes
hal
char
design
traversals
##ause
pass
state
num
cal
##hip
chang
narrow
aut
stop
perfect
##pendent
mason
##ds
##ening
exec
ph
##tend
original
independent
sa
another
george
html
reco
returns
uses
objects
searching
traverse
integers
definitions
grades
write
modifiers
semester
approximation
clients
11
##nested
##11
arch
itr
adestine
sequ
cond
staticnested
shr
oldcapacity
happ
##ier
inv
##ana
sur
##count
che
##pl
##asure
##ting
##ivid
##fic
note
character
##wn
##alu
##cend
conc
langu
scenar
cases
free
runt
##ied
implemented
recursive
applications
sequence
runtime
##ring
##iency
##boo
well
ds
repe
##ash
##lc
##up
them
week
look
small
gu
think
sep
convert
evalu
##ands
name
numb
##flow
empir
deb
somet
##pends
multiple
office
av
mat
mode
##wh
theta
cannot
##moved
needs
topics
https
approaches
definition
values
hashing
compiler
conversions
deletion
participation
during
language
scenario
sometimes
000
12
27
##led
##internal
##capacityinternal
bestgeneric
pollev
ensurecapacityinternal
nummoved
ra
they
sum
##tes
##ank
wid
##ara
##ley
##ensive
inform
##less
##llab
##rop
their
ref
ame
##ging
##ock
sorted
edges
vertex
efficiently
balanced
faster
50
59
ben
##ts
##ents
ent
sk
##ists
fa
say
track
support
mot
##her
##wise
##ons
real
reason
cover
prot
##ople
hu
own
##ss
##istic
trans
amount
##where
russe
##thod
h2
our
people
subclass
slides
large
textboo
information
russell
found
g2
g1
##aves
doing
expensive
uncheck
complexities
ordered
otherwise
sorting
looks
difference
based
fixed
instructions
students
readings
advanced
declared
activities
learning
optional
schedule
narrowing
archange
numbers
empirical
widening
unchecked
200
310
destine
kr
fits
##ationexception
struc
printarray
prevnode
inputarray
instanceof
modcount
##iterator
amethod
test
##ism
##ives
##cles
##ully
cr
catch
try
even
##ok
##ustr
##bor
##ector
pres
##aven
now
sure
turn
##len
bec
web
##ific
overflow
poss
require
shrink
model
gre
mar
##for
##uted
useful
maybe
debug
ant
n3
##ms
soft
working
initialization
idea
cycles
adjacent
because
30
40
ill
##ible
##element
##meter
1000
determ
sim
##ee
##ax
##port
stream
brit
calcul
oh
##eks
##und
supp
foc
hard
litt
##ering
##als
expect
take
super
##ift
##ular
eng
assu
place
unsu
raven
seek
aren
##oduction
demo
half
focus
ora
##ze
three
##icron
book
diffic
##ordered
better
##ified
little
tut
neigh
##vey
syllab
edge
tech
instruction
everything
beginning
property
difficult
maps
vector
##ading
outside
##bject
units
compile
anything
parameter
bounded
heaps
comments
grows
efficiency
conversion
understanding
limitations
banana
introduction
streams
british
unsupport
oracle
syllabus
fill
jo
om
beh
##perationexception
javase
sometype
unordered
method2
##ards
mygeneric
myds
myiterator
##usselc
##edoperationexception
krusselc
unsupportedoperationexception
talk
assoc
em
##ether
descend
##pm
direct
##ah
maint
fall
##gn
##imum
factor
maintain
fil
mater
##cious
##mpt
relations
red
tas
unt
vers
##ational
##ilar
command
steps
repeated
tutorial
relationship
##ining
once
##ird
preorder
define
represents
associated
15
32
la
##ale
##search
aslist
construct
illustr
##ited
##acks
dr
drop
far
##word
##nto
##adem
self
##cope
vari
argu
motiv
material
inher
##graph
assist
academ
bra
hint
##cing
##fully
sell
##clud
question
survey
suppress
ll
sign
##vent
extend
blank
due
walk
##onnected
##stor
##oup
except
advant
similar
rest
internal
shift
exact
conscious
explan
happen
inherit
ci
cap
##min
##math
##mend
isn
lines
specify
doesn
probabil
simplify
onto
pers
##de
added
depends
weiss
gets
leaves
enough
bytes
overview
programmer
defined
equality
projects
copying
discussed
describe
larger
activity
provides
assignment
updated
statements
changes
executed
software
assume
repeatedly
academic
inheritance
probabilistic
03
37
tation
𝑛𝑛
##obj
##wor
tost
inorder
##ison
javac
printmath
implemen
getstor
cs2
binarysearch
postorder
##edobject
omicron
printmathtree
getstoredobject
##erv
ca
dra
##inc
perm
##ience
##land
stand
##aring
product
degener
bre
##mark
##mmend
##war
##way
recommend
condition
hunt
reach
expans
content
bene
neighbor
dist
ok
##ged
##ux
##ets
explain
##add
##iend
##ibly
cle
ve
##to
##arr
along
subm
obs
##king
links
compared
specified
representation
solve
shortest
considered
reasonable
degenerate
22
##ww
ans
##velo
exam
##ided
##arly
##uled
overr
tell
group
##ton
##pr
##ber
##ats
individ
##most
##tern
##nings
interview
care
wa
##rees
##ulation
##inders
individual
could
ple
##hes
##ood
##ove
att
might
##ni
##gle
##rec
enc
impro
via
##name
##vis
##pa
reus
##imin
nos
param
##after
##track
hc
hon
www
##iting
clos
##ints
poly
notice
##metic
recap
ident
increment
rule
##sh
##umb
##ined
third
socr
synt
compon
backtrack
keyword
##irected
huge
2h
c1
fre
lacks
net
arith
adds
develo
treasure
implementations
removed
tracing
analyze
anywhere
upside
above
priorities
created
storing
api
disconnected
represented
probing
application
allocating
lots
helpful
reminders
freeing
smaller
raise
possibly
debugging
version
arguments
assistance
recommended
benefits
socrates
arithmetic
300
45
55
67
cf
l0
sin
##cest
classname
sever
printf
undirected
##uchelement
factorial
lifo
gradescope
sellable
suppresswar
cs211
reusability
nosuchelement
suppresswarnings
nosuchelementexception
##pect
general
ob
pat
##yle
##lex
##aces
##self
quad
##play
full
bar
sn
##ys
##hs
##ites
##itch
##ade
##ili
##aining
manag
lib
##ura
##edi
reg
unf
goo
hum
sib
##ffer
includ
ancest
pros
dec
cho
##ators
je
times
##ties
##fg
##oun
assum
repl
measure
improve
ways
##ann
comb
##ection
prof
##iendly
##ament
itself
##ott
ali
notations
##ipul
calls
therefore
creating
contro
declare
allowed
contains
separ
webp
carefully
components
several
13
25
gfg
##struct
##lect
##rar
##ari
princ
indic
dead
comment
subtree
dfsrec
2n2
adjacency
es
slow
##ane
##ately
account
har
##con
##og
##ever
##aw
##str
##ential
##ules
##ots
exist
##apt
manipul
valid
build
life
##arable
pur
vi
##oint
##uck
though
elimin
##ols
formal
frid
open
occur
avoid
honor
fund
hy
##nom
##last
##ell
##get
##wer
##stream
ann
canv
books
##ced
##vious
##ford
tog
##utions
forward
atte
complement
instant
##ilde
##term
constra
effort
equiv
##ances
clear
rand
wes
##ten
##imeter
tables
overlo
display
request
info
encaps
2k
divid
oop
##nes
##ov
##pre
##erning
##ines
##atio
##entry
objection
parenthes
##ission
cheat
matter
techni
files
polynom
google
##ffered
friday
polynomial
c2
cub
jd
kh
late
rules
##ipt
##by
##stack
style
##ouse
nearly
##cent
been
alread
conn
notes
within
comparable
referring
quite
pointers
sources
coming
midterm
inputs
science
representing
computational
maximum
instructor
instructors
reading
starting
logical
grade
formally
discussion
correctness
compiling
completely
predictions
friendly
allocate
modifier
properties
processing
allows
increase
occurs
changed
concerning
evaluate
evaluating
refers
protected
subclasses
textbook
textbooks
requirement
##porter
calculate
hardware
descendants
motivating
signed
extends
exceptions
explanation
standards
overruled
please
since
principle
accounting
eliminates
canvas
together
constraints
encapsulation
dividing
parentheses
already
14
21
3n
42
78
87
tilde
##70
##44
##input
##ntial
##asri
nodeins
##exporter
newdata
newentry
##interface
conf
operands
item2
item1
item3
getexporter
arr2
method1
method3
insertlast
program2
program4
result2
rangecheckfor
compareto
getsize
##work
tostore
smallerarr
jdk
##inputstream
nodeinsert
rangecheckforadd
less
met
##ality
##ility
prefer
dest
fit
fra
sal
##ler
##iction
person
fif
gl
nat
##ians
##ming
##ocks
rob
imm
norm
inc
cop
fundament
bro
##ric
##bur
##ored
neg
##aster
random
pow
scr
##ault
choo
##ertain
env
profess
aux
day
hier
view
##hor
##ls
##ional
extern
##box
execution
hierarch
wed
reh
rele
##ather
backward
particular
fred
expansion
identify
auxili
external
alex
bit
foo
tight
##ital
##oduc
often
covers
polic
del
algorithmic
prints
##pped
making
unl
follows
deleting
provided
swap
additional
simpler
degree
##ological
autom
happens
until
##alent
illustration
advantages
viol
auxiliary
mon
##hing
##ken
##ued
##29
##48
##reg
##rad
##licit
##ively
draw
fifo
lab
##gb
##ionally
##isc
##igning
##iron
##atically
goal
##ancing
termin
observ
cra
mer
pick
tall
win
##ho
##erve
ste
offs
##ute
board
develop
ir
##ying
##vant
still
##isk
exc
##aged
##rence
invol
engine
restr
environ
gain
mor
##ily
##ired
speed
consist
meas
home
concur
##urable
normal
environment
aff
fran
na
##cast
##ised
sept
enab
feat
recover
gc
mc
##ument
##ered
##att
tok
offer
##aced
##ching
##chas
##ortun
change
##ills
default
great
email
##oduced
mal
sav
##code
##ha
##day
##pos
##izz
##pers
nothing
ask
resp
tempor
learn
##ification
manager
wednes
di
dig
mis
pen
round
##ham
##ka
##ma
##orn
##ety
fore
allen
##essage
area
someone
explicit
##quency
trade
anyone
everyone
##ords
practical
exceptional
again
unfortun
attempt
equivalent
cubic
unlike
concurrent
ai
a1
able
b1
b3
m2
o2
opp
ser
sit
##head
##rib
##max
##nds
tools
##arithm
prove
proving
##ape
almost
chaining
##ivial
syn
expected
worse
sharing
leading
unless
however
pages
referred
pointing
##usted
programs
images
runs
pushing
defines
computing
computers
solving
collections
addressing
blocks
slide
logarithm
conceptually
grading
geeks
probability
allocated
perimeter
provide
balancing
considering
participate
limited
assignments
buffered
generally
expanding
seconds
introduced
update
cheating
covered
tests
determine
directly
constructor
variants
frequency
aliases
control
separate
deadline
slower
manipulating
validation
occurrence
overloading
automatically
violates
measurable
tokens
temporary
unfortunately
01
16
211
48
65
80
o1
o3
opends
##ole
##forge
##15
##46
##67
##ina
##inger
inobj
intvalue
node2
node1
datastruct
##adoc
bel
indexof
outobj
returnmax
javadoc
implementatio
getclass
dynamicarray
10b
10gb
acco
arraylists
mystack
##index
intobj
copyof
adts
multip
##ology
engr
mygenericins
hugecapacity
450
instantiated
rehash
geeksforge
opendsa
geeksforgeeks
bur
par
port
tar
##aries
##ased
art
##comp
consum
present
don
her
##ted
##ames
##osed
author
behav
break
connect
sr
##rap
##istr
##pec
##ived
tag
##cont
organ
##els
cent
hos
##time
##ium
##ump
##ores
exper
##sel
bey
##iable
unre
##ounds
infin
document
page
##he
##ratic
##son
##arks
col
##ision
##ille
##iform
leg
uniform
##ibility
plan
agg
situ
den
dire
gar
ign
ment
##sy
##ster
poor
seque
secre
expon
##ably
subst
##ordin
declar
##apping
cred
os
row
sne
##yc
##la
##use
##izing
##orted
road
##000
behavior
cause
certain
##gy
##iny
##itution
admin
dev
##ivity
##pping
##aby
underf
minimum
handle
bank
##force
advantage
human
negative
sequential
exponential
away
bott
ye
##hib
##rs
##ograph
##az
##uff
iss
whether
seen
returned
usage
##ques
least
inserted
doubles
traversing
performed
stores
programmers
consists
records
contents
parts
locate
parents
plates
solutions
results
finding
checking
initially
containing
increases
requirements
determining
reachable
closest
syntax
quadratic
sibling
ancestors
assuming
combining
preferred
choose
hierarchy
enables
features
logarithmic
src
beyond
declaration
02
18
23
43
5n
brow
cro
din
dup
oct
pc
squ
##na
##den
##gment
##uous
##28
##23
##orate
revis
deque
linkedlist
attend
##quis
##arded
play
##place
hosp
underflow
air
kind
##do
##uro
##ery
##icip
##asted
grand
mean
hope
##ounce
base
four
nan
##ps
##wood
##ination
stan
arran
##ference
subject
##ished
##actic
swim
power
emb
event
rang
tent
##over
##days
##pose
##br
##oring
intro
##ured
coordin
##lled
##izes
##ulate
word
adjust
diff
wrong
jeff
administr
cn
fac
pd
sect
##lings
##earch
##gest
##mer
##exp
##child
alg
ascend
succ
research
effect
##aky
hood
auto
##ledge
camp
wait
##pective
accompl
aggreg
hospital
bran
mil
wrap
##itable
##emy
##ung
lever
compar
contin
load
descript
##ifying
switch
occas
##ologies
anticip
##market
scratch
duplic
accomplish
est
fin
finger
got
made
rad
ram
sink
vir
##ru
##ries
##ef
##atter
thumb
##rary
states
arian
retre
##ulty
##user
##uses
##itting
transfer
patient
purpose
fragment
##radic
target
bottom
der
glo
icon
map
pay
sen
section
##uitive
##field
stra
rein
close
newly
##advant
proced
soon
disadvant
goals
manner
phone
avail
entire
skip
##ificant
join
redirect
##ediate
announce
digit
##selves
mention
credit
ce
cut
cout
dimit
med
names
sor
sam
ten
wm
yet
##ca
##ira
##iation
##air
##med
##erpt
##inks
##let
intuitive
##llars
prere
##sec
##ows
profic
user
domin
##ache
operator
shape
unexp
insign
compact
various
commun
growth
relative
format
knowledge
flight
repeat
faction
untr
laid
answ
obvious
librar
wesley
policy
excerpt
consistent
nanot
tentative
administrative
##children
prerequis
unexpected
1c
1s
4th
5th
aka
cats
done
dlc
ep
elect
gpa
iee
mus
n1
py
pet
rhs
rather
tiny
v2
v1
wider
wasted
##equ
##best
##bounds
thus
too
took
around
listed
##adis
online
addison
iteration
printer
printing
objectives
operators
implementing
systems
taken
inside
instances
quizz
anytime
grader
likely
topological
accessor
imply
edited
trivial
designing
moving
moves
performing
tends
twice
tailored
subtype
commands
counting
costs
locations
lost
averaged
followed
functionality
mainly
ides
shouldn
discarded
compute
wanted
relation
posted
circle
commonly
actually
actively
starts
warning
checked
slots
logic
forming
discussing
writing
highly
compilation
quickly
ideas
allocation
unspec
learnt
cycle
ops
containment
simplified
approximate
assigned
remarks
characters
duration
degrees
shows
fewer
halves
statement
narrower
save
sample
said
conditions
invari
converted
entry
skills
faulty
preserve
calculus
expectations
bookmark
behind
constructs
illustrate
farther
variety
motivation
exactly
explanations
expansions
submit
submission
exams
tells
syntactic
siblings
includes
ancestor
choice
choices
replaces
replaced
technique
techniques
copies
fundamentally
##boxing
released
observation
involved
engineering
restriction
greatly
saved
wednesdays
opposed
synonymous
##content
infinity
directions
secrets
substitution
sneaky
issues
dinner
stanford
ranges
pdf
sections
ascending
aggregate
branching
wrapper
comparison
occasionally
ariane
procedure
available
announcements
dimitri
proficiency
insignificant
libraries
prerequisites
ieee
quizzes
unspecified
05
04
06
29
2ℎ
52
64
77
85
967
cate
fav
gro
lhs
lisk
masri
pal
swe
ter
tim
won
xss
−1
##nodes
##trees
##end
##bit
##20
##41
##𝑛𝑛
##ino
##eds
stat
rev
##odeafter
intarray
intstr
node3
heart
usemy
iterate
iterating
printelement
javaoo
getpr
removen
usebest
haspre
arrlist
method7
method4
method8
method9
insertafter
##ormessage
myexception
mymarket
topmost
program1
program3
cs11
doublearray
parentindex
2010
step2
step1
step4
step3
##verywhere
errormessage
logn
##ofbounds
1002
cs310ers
charar
acyc
unsorted
op2
op1
bytecode
basic0
polleverywhere
1129
itr2
itr1
dsinterface
128
59pm
fair
2007
crit
addedge
036
372
tostring
223
quadradic
googleuser
147
1415
foreach
483
4508
unreference
##abytes
4370
autoboxing
gotchas
retreived
wmasri
untrusted
nanotime
1cn
dlcp
invariants
dimitriadis
295
775
854
9679
liskov
usemygeneric
printelements
getprice
removenodeafter
usebestgeneric
hasprevious
mymarketplace
cs112
chararray
acyclic
googleusercontent
cust
light
mess
nor
##iet
##sp
##itation
##ody
##ened
natur
success
bub
gen
nav
past
##ob
##lin
##ser
##ky
##ising
proport
##ests
##iff
##lds
##load
subs
##ops
categor
##rated
##amp
##ses
##go
##inct
revers
##ett
##oty
##otic
##iding
prop
##ief
##unch
compet
scre
##well
ga
jun
mac
##ny
##oy
##sing
##ping
##ones
poll
##ula
simp
black
##aking
fam
ham
wind
##gr
##bu
##bal
##orp
neuro
intern
come
##utt
##uling
##ightly
##ude
##itted
##ney
demon
aug
ear
hor
saf
ts
ur
##ned
##cy
##house
##li
##val
##ication
##outh
##uring
coll
sent
chap
##ool
##imize
she
unw
prec
encount
analyz
##cover
##aker
##parent
fundamental
ast
ba
miss
oth
smo
sand
##old
##lish
##lines
##ville
##ba
##back
##inder
##ature
cook
whole
##ader
##char
##esting
conceptual
network
##efined
custom
ach
house
jul
lu
rate
tur
wil
##has
##rist
##olic
##vo
##nted
##ony
##eded
rece
ing
##eting
##lly
ext
##chan
ones
symb
overhead
undo
mont
lock
##resp
##augh
ber
cam
cache
flow
gig
had
io
ms
medi
none
##ios
##ave
##point
##ball
stands
##ene
collab
##ises
##ids
soc
popped
##aving
operating
dynamically
removes
prep
searches
inserts
suitable
upon
ends
traversed
basically
##igned
gives
imag
mel
importance
##osition
modification
errors
populate
block
slightly
expressed
largest
##itten
explores
deletions
scheduling
updating
shrinks
descendant
directed
closer
managing
including
indicate
indicating
multiply
situations
browser
duplicates
naturally
proportional
simply
##parents
others
36
dm
dict
li
meg
mcc
n4
side
tor
##ipp
##13
##76
theor
##rant
infer
##etic
adapt
##essed
##ook
printparents
102
insertions
diss
depart
initialize
##logn
acqu
offic
charl
##bury
terminologies
experi
##288
dequeued
bach
cat
du
dar
mic
master
psy
rout
vol
##oon
##ding
##ake
##gg
##ws
##icul
##icks
##allen
interm
##lling
##ects
select
altern
deal
deep
##erson
##antic
unc
##ips
##com
spring
##enced
trust
##icted
interpre
##mann
guard
##oked
distrib
frank
demonstr
aud
blo
div
gn
god
liter
mill
pep
rh
sus
wal
##iest
##uer
##uate
##pri
##zz
##icle
ren
necess
##etch
##ecting
prohib
pol
cann
##atory
tab
prevent
ener
mechan
corresp
blue
market
accept
buck
##arant
##burg
belie
facil
virt
##secut
navig
achie
psych
correspond
aw
ever
fer
fur
fire
hist
ns
pie
pars
sat
sun
was
##ye
##ya
##ai
##aff
##ano
##acy
strong
alph
decre
treat
christ
##unction
union
enh
appoint
appropri
recon
court
evol
possess
neighb
respons
propag
screen
bes
cp
cart
eight
gt
jar
mad
march
pun
san
tro
wood
##yl
##ica
##alty
incomp
##ural
##urate
##ette
##etical
##idge
##ils
ord
orient
challen
##ifies
##imens
##ama
world
pretend
inspect
compan
##ially
accord
spread
parad
##gins
brief
cyber
guarant
bench
##worth
##annel
global
favor
bi
bio
gal
hol
ken
ly
land
mond
nb
nou
opport
sle
##ost
##oph
##iver
##lint
##light
##dy
##wr
##ero
##aten
##alid
##ras
##ros
##room
arbit
##etime
##utable
ang
forget
adm
##idden
proce
##gent
decomp
retain
##ifiable
sho
##grade
discover
impact
##itely
tele
appe
country
plu
detect
standard
attack
##she
esse
hyd
incorp
legal
##rupt
opportun
amb
cas
dia
dun
eth
ecl
jud
pm
pse
sil
##cock
##ral
##rix
##ey
##da
##gs
##path
##bed
##iness
thread
##oration
##itives
##itivity
##arian
never
##anner
##eners
##istics
exclud
##igm
##lication
##iled
##esters
send
webs
chat
channel
##uls
##iving
##lder
magn
lend
quiet
disp
manage
##logy
##rano
percent
feel
phot
prototy
huff
task
distinct
##print
thought
meaning
pyth
safe
##charge
pepper
pseud
bon
bow
ball
diction
dimens
ele
ease
hur
live
mur
mart
micron
pan
rub
went
were
##han
##rd
##gan
##gen
##mod
##form
thing
##reed
star
toy
arm
adequ
##oted
##ident
##ched
##chain
##ither
alle
##ires
shutt
unic
uncle
unne
enforce
##ialization
upload
spaces
##othy
scal
formula
##condition
phil
invalid
demograph
redd
argument
answer
attent
regular
development
##casting
organization
garb
revision
arrange
sense
reinforce
department
essential
eclip
born
lapt
mass
pot
tange
vary
water
xm
yay
##cs
##hh
##hood
##ration
##ox
##iers
##ez
##eme
##ecess
##ker
##ked
##vin
##eral
##atible
##ona
##onse
##ste
##stone
##ico
##ingu
##mpting
interf
##uts
##utations
forum
whate
clue
indust
alb
consecut
##irus
ash
makes
worry
words
composition
##enery
setup
##ously
##ains
loose
pears
manual
plane
posts
actual
predecess
resource
multi
keeps
password
guid
antiv
assumpt
versa
developer
library
decided
overload
nature
robin
robust
professor
professional
wednesday
playlist
fourth
eventual
bubble
family
internet
symbolic
medium
official
charlie
alternative
energy
virtual
according
spreadshe
guarantee
benchmark
whatever
industry
2nd
2pm
3pm
3rd
ble
bud
codes
cab
citation
days
e2
either
fits
fully
hall
hiding
having
jv
ju
ko
k2
k1
laf
lying
liable
message
mapping
nk
nx
nlp
od
pu
p1
rock
ratio
scope
tested
tern
ui
vt
v8
vice
west
##n1
##ome
##ien
##ius
##disc
##sa
##ship
##gu
##joint
##ini
##ntr
##leaf
##ita
##cton
really
reuse
##rom
##eter
forests
listeners
##ote
exists
##ads
##ades
##iles
publicly
become
linux
weeks
concre
chapt
usb
users
usability
noted
dom
dose
doable
dollars
##ached
somewhere
iterative
completing
completed
getting
shar
removal
precondition
searched
paid
paired
integrated
setting
referential
bigger
granted
abs
##ormat
accurate
##loy
disk
disaster
disjoint
spr
topic
visible
visibility
accessed
accessible
undefined
whenever
##key
traverses
priori
visits
assigning
assessed
tries
desired
moved
calling
lectures
minimize
privately
curricul
contested
contesting
outputs
meeting
location
##cript
loiter
manually
manages
imports
defining
definitely
justify
lets
letting
scanner
modifying
seeing
solved
solves
relate
courses
studying
detection
##ishing
previously
posting
ready
specification
specifications
longs
longer
longest
thrown
throws
resulting
doubling
known
##reader
verbs
verifiable
practically
graduate
primitives
begins
amortization
discussions
abstractions
written
higher
advice
warmup
correcting
compiles
probably
holds
puts
putting
options
scheme
extras
easier
mathematically
mathematicians
unsigned
hander
swapping
keeping
additionally
properly
semantic
semesters
packet
factors
ensures
##beans
detailed
interest
helps
allowable
remaining
reminder
generated
generates
floats
lifetime
scenes
scheduled
agreed
linearly
charged
perfectly
invoked
themselves
looking
smallest
gui
evaluated
empirically
matrix
modeling
entries
supported
supporting
protects
ourselves
catching
possible
grew
green
determined
calculations
expectation
filled
jobs
behaves
descending
maintains
maintained
tasks
drives
variant
bravo
suppressing
signature
extended
capt
perspective
causes
permits
permission
permitting
permutations
conditional
explained
submitted
observe
overridden
grouping
waiting
identities
humans
include
decision
assumes
assumed
improvement
combo
aliens
controlled
separates
indicates
deadlines
manipulations
validity
builds
avoids
attempting
efforts
clearer
requests
destination
immediate
immutable
copied
choosing
professionally
viewing
hierarchical
relevant
policies
delta
labels
terminology
observable
involves
restricted
gained
speeds
consistency
homework
affecting
nave
response
penalty
rounded
rounding
attempted
server
multiplication
portable
article
consumes
consumed
centers
experience
documentation
situation
ignore
ignoring
years
revisions
attendance
kinda
grandchildren
swimming
coordinate
coordinated
campus
continued
description
descriptions
anticipate
anticipated
derives
paying
disadvantage
disadvantages
sorry
intuitively
communication
relatively
answers
answering
timothy
statistics
fairness
critical
lightning
messages
categories
reversing
compete
windows
chapter
precision
encounter
analyzing
missing
customized
receive
collaborate
prepare
imagine
blockchain
dmv
dictate
theoretical
adaptability
acquire
experienced
bachmann
routing
intermediate
selected
deepest
interprets
distributions
demonstrates
literally
necessary
prohibited
mechanical
blueprint
believes
facilities
navigation
achieving
pieces
strongly
alpha
enhanced
appointment
appropriate
evolve
possession
responsibility
propagation
besides
incompatible
oriented
challenge
companies
paradigm
mondays
nouns
arbitrary
proceeds
decompose
plugins
incorporate
opportunities
excluding
websites
percentage
prototyping
huffman
meaningful
python
dictionaries
dimensions
adequate
shuttle
unicode
unneeded
demographics
reddit
attentive
garbage
eclipse
laptops
tangent
varying
interfaces
consecutive
pearson
predecessor
guidance
antivirus
assumptions
robustness
spreadsheet
concrete
chapters
curriculum
loitering
07
09
1n
17
19
1day
2i
24
2𝑘
31
38
3𝑛𝑛
53
61
60
63
6ms
648
7n
76
79
700
767
720
800
8n1
94
93
bor
band
da
dan
dri
gun
gall
gisc
henery
jgra
k0
luc
mu
mas
men
myn
nester
nlogn
ox
o4
qw
rid
roo
sens
w4
xms
xlint
ℎm
→s
→not
∴2
≥𝑛𝑛
t
gn
n
𝑂𝑂
𝑘𝑘
##cer
##cra
##height
##rie
##object
##imp
##deg
##down
##ketch
##gar
##gpt
##bb
##bre
##first
##56
##58
##544
##5288
##water
##21
##248
##246
##1g
##170
##129
##7e
##71
##0e
##06
##43
##458
##62
##63
##644
##623
##60e
##846
##85288
##313
##9313
##rece
##nder
##itor
##itter
##oud
##arment
##arley
regrade
##roll
intance
intialization
##ister
##isation
datainputstream
##emb
array1
clrs
newheight
##ubject
##ches
classcast
classpath
profs
indexout
outofbounds
addnode
##perimeter
##irm
##ams
##amm
stackover
valueof
##usion
printchildren
printleaf
printdeg
objectinputstream
##ereader
getare
getperimeter
lec
unp
unvis
unbox
unbu
##erformat
enque
##ander
##ocode
method5
method6
10n
referrece
code0
nontr
##cli
endl
##outs
childindex
overcharge
programcli
##00000
used3
doublevalue
doubleobject
genericstack
functon
gochas
inneriterator
booleanvalue
booleanhas
arg2
arg1
arg3
vscode
foot
subinterface
subtrees
##crib
bfsof
bfsdisc
justaf
##ancy
fileinputstream
##eighted
cormen
deparment
recursions
longvalue
carrano
findnode
infl
infix
logk
##standards
utas
downcasting
shortvalue
bytevalue
deletefirst
floatvalue
agrs
charvalue
concaten
recursively
##book
numberformat
avl
mat2
mat1
127
12pm
transitivity
##ificationexception
##msg
308
30am
4028
40129
100000000
superclass
superinterface
joh
fall20
filereader
15th
324
3241
academicstandards
𝑛𝑛or
𝑛𝑛nodes
cs262
permute
##landau
explainable
##arlytrees
netbeans
45pm
l05
l02
l01
l06
l03
1321
13644
esc
instantiation
3n2
3n3
##70e
destpos
##48623
concurrentmod
toolset
bufferedinputstream
bufferedreader
48h
807
808
##1570e
##4663
breakpoint
srcpos
5n2
##234663
linkedlistnode
##dollars
alg2
alg1
5things
647
xss1g
##41246
##ofboundsexception
retreived2
retreived1
junit
unweighted
gigabytes
megabytes
##769313
1024
gnarley
parsed
decrement
gtas
cyberdollars
chatgpt
peppering
pseudocode
xmx
codesketch
jvm
lafore
ternary
v88
shuttlecock
1n3
2𝑘𝑘
535
6171
768
79769313
700ms
9406
93landau
giscard
jgrasp
mynode
ℎmust
→subject
∴2h
today
gnarlytrees
n2
##56458
##544e
##248170
##43248170
##84643248170
##8528860e
intanceof
classcastexception
indexoutofboundsexception
outofboundsmsg
addnodeafter
stackoverflow
printleafnodes
printdegrees
getarea
unvisited
unboxed
unbuffered
enqueuer
nontrivial
booleanhasnext
bfsofgraph
bfsdisconnected
justafunction
concatenation
numberformatexception
4028234663
4012984643248170
fall2025
1364444
##486231570e
concurrentmodificationexception
##41246544e
79769313486231570e
940656458
40282346638528860e
40129846432481707e
94065645841246544e
bid
bul
bab
body
crow
cry
hom
kid
lat
mi
mort
sed
ul
##lan
##aim
##sen
##kins
##zer
##ato
##lets
stre
##mph
##ront
##eness
coo
##ubs
##iling
##amb
contrib
##berg
hyp
north
bol
bull
cand
fle
kil
ru
vo
vac
wo
wat
ze
##ners
##rit
##ris
##rate
##off
##ij
##ki
##gers
##gress
##mon
##fl
##win
##jo
##onal
stock
inn
##enn
##utes
##lla
##sey
##ada
##che
prom
##amed
##used
##iel
mag
haw
tri
##erman
##ashed
##hold
smooth
bill
batt
card
fab
hay
lay
nic
ps
ped
pra
pac
rot
south
wall
##aks
##akes
##kin
##uit
##mond
##pes
##ped
##pic
##bc
##fe
##iner
ther
##oura
##arm
reb
##roph
##ena
##urb
fort
whe
##ower
##owed
weight
##ulf
##mos
mah
travel
spo
##iously
##aked
box
law
##ography
revol
ath
bos
cu
coun
ded
fed
hen
hem
hang
mich
rain
sou
sab
veg
watch
##yer
##ters
##iro
##iate
##ipped
##lands
##ded
##gon
##fact
##inate
##ston
##sters
##ingly
##ala
##aling
##alth
##alog
##ram
sto
inh
##ense
##ller
##eman
exha
##iger
##cher
##iring
##ulated
##unk
mand
prem
##ablish
##aging
##ums
##ola
##ails
##oney
##akers
phys
##lessly
techn
snow
sales
broad
##attered
terr
reconstruct
##stein
ax
aer
bed
burn
bir
cit
cav
cath
cell
dam
dag
gh
ger
gab
jer
jac
kar
mut
mun
nap
night
pin
rich
sac
tun
vict
##hire
##ii
##lig
##lers
##lock
##di
##sc
##gate
##va
##erc
##inant
##aty
##atives
thor
##ora
##oral
##onic
##stra
##lection
##rey
##rep
tool
##any
##iser
##uth
ange
force
who
whit
##oting
##ado
##ilt
##ife
##aming
maj
tax
##illy
##illa
##ctional
dism
spl
spect
##kee
trib
mob
gover
##ags
scar
plate
ideal
##ugs
##wards
distingu
##shire
barb
merc
establish
music
##comes
blood
further
neighbour
hydro
aqu
bay
bus
bern
cd
cul
cult
clean
dat
ec
fan
fig
gent
gang
ib
jur
mars
pig
park
rod
rac
rig
rap
risk
slo
tit
tick
vent
wild
wol
##nie
##ique
##ipping
##lam
##aint
##van
##bi
##wing
##nts
##rel
##iced
##nding
##asc
inequ
near
##uel
##uting
ado
##ota
clar
exce
news
##uction
##iguous
##aded
##inter
##izable
##irt
asp
##ival
##ika
##ourn
##imm
unit
##illed
##illing
trad
##ials
qual
quart
suff
ros
##eps
##ained
gold
repr
recur
conte
##resh
##oms
circ
popular
##rance
bomb
invest
guide
sky
motor
anth
##under
milit
finish
micro
ay
ara
cou
civ
cran
dor
dod
dav
dip
ey
fu
fem
fib
gi
gir
hot
hoo
ic
jack
ky
kick
lor
mist
mast
mind
nut
pil
son
sme
sad
sco
ske
serv
tap
ven
vill
wre
##hi
##rid
##ria
##rick
##oe
##och
##ih
##ipe
##lor
##dr
##aine
##uce
##more
##po
##pet
##pass
##bing
##ban
##fa
##fall
##wed
##ja
##eric
##inn
##inated
##oned
##eding
##itude
##aled
stran
##istan
##eterm
cos
##lls
strict
##lyn
cla
##ila
##ently
hel
##the
conce
##orts
##irs
asym
##mont
##aste
##astic
sha
sher
##erful
##arts
abd
##clus
##claim
##tered
##ounded
rom
##comm
##eping
##encies
repet
subt
counter
##omy
collect
host
##ugg
optim
##apped
##ashing
##ups
reflex
##cently
cross
square
driver
ah
bat
bip
bang
cass
cant
cel
dal
dro
dow
fish
han
jan
ker
lou
mes
mit
mig
mount
redo
sex
tk
van
vib
zero
##ympt
##rating
##omet
##ias
##lon
##lia
##ec
##ae
##away
##gl
##uing
##umm
##ugh
##bon
##bly
##zy
##ji
##inations
##oning
##alist
tom
tow
rene
ine
neut
##eted
cock
##llo
anim
##ida
##sent
classified
chron
##ami
asympt
##aches
##antly
##ikes
ship
lev
pointed
gran
##uster
##tering
overl
overall
##udd
##0000
mol
##fts
tend
##ager
##agon
apolog
contra
among
##opath
##ension
plot
deter
school
##iana
movement
##hips
protoc
##born
##ahn
##anna
##arily
espec
##ogen
irres
naive
dij
continuous
history
2f
az
bh
bath
blow
cad
dll
dil
dream
east
gas
hed
hill
hano
kim
kahn
lic
len
lau
match
nth
national
ow
rj
rab
sant
sque
sau
tal
tub
tort
vit
vide
xml
##nce
##hr
##right
##rich
##riendly
##osis
##oke
##iance
##uation
##pro
##burn
##fish
##wick
##era
thick
##ntly
theory
##lett
##rell
##icated
##itz
##itors
##ali
tower
##arth
react
reverse
recently
##asm
inj
invent
##mps
##rog
##urt
##etics
cow
clim
##igan
##cho
##cha
orch
indices
##aph
##appe
bea
being
beck
becomes
##acking
popping
selection
outl
##izer
conv
##irk
chain
chances
linking
##ulating
##aya
##using
##ima
comparing
##anda
##ocr
hasn
quant
##cks
##artite
respective
roy
##ables
##ression
disapp
##udes
impl
positions
visiting
performs
whereas
##umin
differences
minors
twe
folder
##anger
contiguous
##irectional
locates
pushed
##icked
scattered
modify
##oman
plant
placed
study
corn
##ishes
##ailed
##ailing
locality
acts
checks
##linear
levels
predefined
forms
brute
geor
##logist
##logical
##itters
declaring
predicting
optimize
paths
pathological
easily
exploration
utilization
##ried
handled
offers
packets
##inson
##bell
optionally
simplifies
generate
generating
expands
banner
flu
boy
phen
recogn
languages
scenarios
##ashes
supports
reasons
##ssen
transl
cru
presence
determinant
behave
illustrates
brand
capital
reached
attached
closed
component
developers
unfriendly
esp
harder
cube
connection
broken
powerful
termination
merge
enabling
feature
consuming
tags
organize
infinite
colon
denoted
direction
arranges
arranged
duplicate
cele
dominant
dominates
critic
successor
bubbles
subsets
reversal
encountering
analyzed
uncertain
bucket
neighbors
orders
appears
scalability
playlists
bidirectional
cooper
contributed
wheel
traveling
exhausted
salesman
reconstructed
distinguished
inequality
nearby
repetitive
asymptotic
protocols
especially
irrespective
dijk
hanoi
26
28
33
400
5000
99
austr
bou
bag
cert
dub
dark
eu
ell
fat
fut
fel
fuck
gle
gard
hus
hind
jam
jump
ka
les
lad
lyn
lag
mir
n6
nit
nik
ol
por
pul
pant
tu
ton
vic
vig
voc
vel
woo
##now
##can
##hy
##hand
##tic
##totic
##iqu
##iating
##elle
##don
##dfs
##dale
##dog
##sed
##set
##pie
##bert
##band
##bfs
##binary
##bel
##bling
##bby
##fort
##fire
##576
##zo
##weight
##2e
##18
##02e
##eration
##inologies
##aton
##aters
##esh
##organ
##rew
##itate
##itated
##ioned
##ods
sty
touch
ree
reass
##asing
##anne
##ury
##isl
strat
advert
arraybinary
structs
som
##acked
##irl
treeterm
link1
dog
doct
##aching
value2
value3
##iah
##oured
##asts
explo
##ims
shel
##gram
une
pret
insp
compl
##ipper
103
1048
install
resizes
resizable
##ounding
##coming
overt
constit
bool
spir
undert
graph2
desp
mos
##umble
minim
consult
conserv
##crimin
push23
manif
##osh
scra
modern
##oma
n0​
appends
dfsgraph
corp
findelement
initializes
bru
bron
##aka
champ
holl
##ugging
perpet
occup
auth
##ocking
transform
webpr
##ifications
marg
1000logn
superlinear
##mpton
rede
c1​
factorially
webp1
webp3
webpdfs
webpbfs
harmon
##conom
hyper
c2​
##2902e
crack
hero
secret
1818
432902e
radio
strassen
sweet
categorizes
social
36288
##13to
polit
generatesubs
##craft
##atype
govern
datatype
asymtotic
reflexivity
bipartite
rj13to
bubblesort
dijkstra
996
arraybinarysearch
treeterminologies
1048576
push232
webpround
3628800
generatesubsets
ak
amp
bic
bure
bun
bush
bah
barr
bapt
cer
cin
cens
dy
dw
dut
did
dick
dumb
eco
eye
fet
fresh
gor
gon
gly
gil
gam
gill
gib
iron
jon
kat
king
lit
lap
lav
lun
lim
mack
mck
mong
nas
nag
pon
pic
pull
ry
ric
ran
rav
rud
sar
sag
tam
tang
vag
yu
zoo
##ci
##haw
##riend
##tc
##iat
##iac
##iment
##iary
##ew
##ees
##eur
##aid
##ua
##uity
##uated
##my
##mat
##mar
##bra
##bar
##bers
##backs
##fc
##fo
##wa
##wich
##erved
##ories
##sts
##ede
##lene
##rett
##inging
##ington
##ito
##ald
##alism
##rac
##rain
##rass
stim
story
stabil
rect
##asy
inject
inhib
##ania
##roy
##roc
##eto
colo
##isa
##mented
##celer
##asses
clo
cler
clin
##exual
press
##inted
proph
progress
industr
bell
depend
weak
hell
##ths
youn
conj
conse
congr
chem
chuck
##ulates
##acher
##iva
symp
##ppy
##imate
lew
##grad
##mmy
##lists
##ocation
curt
sett
##alled
grass
##arted
resur
resist
resid
##clos
##pher
##phone
##ardo
roman
##resses
##ressed
dish
trou
comme
contract
amaz
##cry
scot
plat
maxim
##isha
carn
bloo
blind
##wear
educ
brid
bright
homo
##ugged
friend
##atively
peri
##nell
buff
emphas
employ
flav
raj
transm
##lence
emer
laure
brain
breath
##berry
barn
liber
decor
##otted
harv
mete
immun
negot
##contin
legisl
osc
##bridge
subsid
##rants
john
adopt
investig
celebr
ack
ampl
bot
bust
bond
cata
cort
cater
coup
dent
dread
divers
daw
euro
furn
fant
fert
fasc
gy
gut
gest
gust
germ
hs
hes
hub
hart
hop
hatch
iv
ip
jose
kin
kra
lod
lac
lem
lam
liv
lik
lie
lip
lux
mul
mary
mang
moth
mother
mira
ny
nin
nick
ov
oce
pad
pent
pand
purs
pitt
pier
rat
rou
ray
rum
rick
river
sie
sick
tod
uk
ug
upt
utt
vin
vul
wag
yor
##ycl
##no
##hm
##hall
##hart
##hol
##rous
##rics
##rian
##ont
##tion
##iar
##iot
##iam
##iates
##lk
##dra
##greg
##vable
##ume
##uits
##bl
##bound
##body
##face
##front
##wan
##west
##watch
##inity
##inating
##ati
##oria
##orates
##sted
##state
##eder
##lem
##reh
##icing
##icient
##ician
##itis
##itating
##ales
##odies
stro
stub
storm
stren
tooth
toler
##oul
##arn
##ares
inqu
##acle
##rot
##rome
##rose
inters
##urch
##etically
##etta
cool
coinc
##isers
##atable
anch
##ema
##ems
forg
advent
##oto
##cel
exhib
pron
prod
##igo
##idity
##iders
##chant
##inth
##apy
##aper
##aping
##esty
soph
##pel
##pent
bee
sec
season
outs
##izations
alt
hend
heav
conqu
cher
##esses
##ifting
##ulpt
##ership
dock
##ayed
##aying
##iveness
##oop
##erton
##ouring
##asting
##una
##imon
##oids
shop
tact
unin
##iller
paul
instit
##rows
sug
sust
hair
resc
reson
resol
respect
nov
nom
nomin
##iley
memor
roll
##ressing
disl
dispos
spot
spark
##kel
##uded
imper
defend
assert
assemb
trick
##umes
consp
recip
mend
love
manu
##ought
##osa
##osph
sculpt
##icts
##ictions
plac
##boy
##yman
##iology
##aunt
brun
##aken
acceler
##rier
smart
buzz
narc
flor
grie
##ologist
bog
pharm
conduct
surv
surre
ramp
##lessness
reform
krist
cruc
##borough
##graphy
oblig
patri
regist
princip
conform
salv
craw
irre
morph
mcd
##umps
straight
communic
earth
extre
##aughter
liqu
godd
photograph
elev
budd
sharp
absor
ult
veget
mobil
civil
diplo
meteor
ale
aust
bm
bil
bast
bart
bib
blog
bird
cm
cash
cup
dj
dorm
dys
duck
damp
ess
econom
fing
fue
flic
fir
face
fond
father
fulf
gw
gren
gym
hod
hut
hast
him
hib
hors
harr
hung
hipp
hook
ice
ja
jen
journ
kam
kay
ling
lex
lig
lub
lands
luck
mp
mam
mim
mull
mamm
noo
nich
oly
overs
ott
pi
pas
pill
padd
pitch
porn
riv
ss
sut
sid
sile
sound
song
tan
tac
til
tant
tum
viv
wy
wash
xx
zh
##nic
##night
##nel
##cut
##cil
##cers
##cup
##hn
##har
##hem
##hus
##hard
##hop
##rus
##rial
##rical
##rates
##ridge
##oh
##tv
##iant
##lar
##lay
##lies
##long
##eu
##een
##aa
##ket
##kers
##gre
##gie
##vy
##uge
##upt
##uary
##mes
##mith
##mers
##pin
##pat
##pal
##pan
##pool
##bin
##bro
##bie
##bird
##bility
##ffs
##zing
##wall
##walk
##ju
##erving
##atri
thunder
##orated
##onia
##storm
##stown
##leton
##reat
##icles
##ingle
##itan
##itarian
##alia
##alities
##alized
##alists
##oded
##oding
##rael
ster
stere
stag
staff
##ouch
rent
reun
reim
reck
incon
##aned
##aning
##acc
##acious
##rol
##rov
##rock
intens
##urer
##urity
##isted
cob
##isf
##isco
islam
analog
##menting
##mental
##rays
whist
##otes
##otion
##cell
exch
##igs
##idal
##idly
##owing
##ador
##chem
##iler
##inton
prost
propos
##aped
##estone
solo
beg
beat
##enth
alco
health
conver
conven
concent
##orting
##aved
##essing
##ifer
##iful
##iffs
##amy
##ulations
asc
dol
##atics
##iki
##iking
##mob
##ourne
exped
shut
shad
shell
leon
##ptic
##mming
preced
compos
compli
##ipl
##ipher
##ouses
##alling
##cker
sud
sund
##arting
hamp
apprec
##phy
##arding
rose
##copic
myth
##abs
overse
##athy
##athan
##athers
##ressive
disag
disrupt
##iber
##iors
##encing
##uding
impr
assass
trig
trip
truck
desert
##lley
##lleg
##ago
##agan
consol
butt
repub
recre
recru
pel
##ushed
##ushing
contrad
commission
americ
##cred
loy
##osoph
##icking
##anship
moder
##enses
relie
cord
coron
depos
##ishment
##active
##ernand
##rying
##auc
##unts
wrest
##standing
temper
##issions
##iano
##atches
##atched
evange
bund
flat
flag
flash
grat
##ologists
surf
matt
##anking
reflect
entertain
transcend
##isms
crist
cris
##oking
supplement
supervis
joy
##aha
obsc
attract
##shot
##umbling
##ounced
##anned
##arians
##aneous
##ellig
##ova
brook
script
##lson
labor
##hole
steph
excav
franc
franch
naz
mcm
respond
synch
accomp
paraly
year
##uffed
brown
campa
##attering
medic
##airs
epid
gross
##obic
august
polar
punct
sanct
##rooms
shoot
diagn
dispens
philosoph
##cribed
influ
escal
kidn
hypoth
zeal
innov
##ourage
terror
dismiss
##keeper
gentle
circum
towns
orchest
bureau
congrat
commem
period
manufact
olymp
bin
bing
bod
bree
bug
ces
came
caf
cara
die
dim
dial
dwell
eb
fid
fest
fight
fract
fren
flex
firm
gur
gate
gast
game
gag
gaz
gamb
hr
hack
hav
hust
hitch
horn
hij
ig
illeg
jes
jess
jay
jord
ku
kan
kiss
las
lan
lut
lil
lia
laugh
lingu
loud
mex
mant
mour
mall
mix
madd
mouth
nation
nad
pp
pit
pod
pist
peg
pix
panc
pict
ron
ras
rust
rib
rag
raf
rail
russ
rational
ratt
sod
sas
sul
sight
sadd
tet
tex
tack
tus
tong
va
valent
veter
ww
wit
wet
wiz
ward
wire
wax
yam
##yth
##yard
##net
##nis
##nam
##nett
##cat
##case
##cies
##hl
##hal
##hot
##hill
##hel
##hetic
##rig
##rest
##rill
##rition
##riger
##ois
##oper
##oons
##tub
##top
##imo
##iative
##iety
##lift
##eer
##ech
##dp
##ao
##action
##ael
##sse
##sets
##gi
##gm
##gue
##gth
##grow
##gling
##gger
##vie
##umber
##uating
##uces
##umpt
##mas
##mate
##maker
##pol
##power
##bes
##fit
##fight
##fold
##friend
##zed
##zel
##wal
##jud
##joy
##eria
##ince
##atures
##esis
##orous
##orph
##orating
##onn
##onian
##stic
##stall
##edic
##edly
##icate
##ndon
##iters
##itory
##itte
##itual
##itudes
##alg
##alle
##alan
##mel
##rah
##rage
##raction
stu
stun
stead
tour
##arse
rend
rear
rever
reput
reject
rejo
##asia
inex
incl
##mping
##ani
##anian
##acing
##acies
##enna
intent
intim
arc
arist
##isting
##isters
##istry
##etam
cov
cold
coast
cott
coff
cogn
##isions
isol
israel
##llers
anarch
andre
##emon
##rayed
whis
strate
adher
clut
cloth
claim
exh
exter
##ective
priest
##idate
##adi
##cht
##chi
##chester
##lice
##lical
##ilities
orph
proc
prote
indis
indul
publish
sold
bent
bear
pont
sel
seam
alf
dece
delic
weird
##thy
convey
congress
##iration
##irts
treas
nud
nucle
cham
chim
chand
chop
##ulator
##ulous
door
##ante
##anted
##lding
synd
atl
##usions
##erto
##atorial
##ourse
maid
##imb
##iminal
withdra
tamp
##mmer
##mmod
uncon
pref
envis
insur
complic
compens
##egu
##ipes
traff
pain
paint
grav
##cked
hah
habit
abb
abol
##tery
##phones
accum
##cos
ende
elab
overth
disappe
discrimin
spin
spons
sports
##ulture
##ainable
visual
unders
##keeping
##uds
##udge
trim
trump
moment
##llen
##quent
tel
teen
##ague
##umn
##umed
##uman
replic
report
peace
##ushes
apost
contam
subd
mans
##osing
##oli
scrap
idi
##omin
##omic
##atern
##ensible
pla
erupt
correl
##inking
circul
##ifier
carc
carb
##some
##eling
backst
##orship
##unting
##creen
brut
brig
geograph
##issa
chair
schol
fright
frustr
summar
accent
evac
##bey
intercept
interact
interrupt
smith
##nesses
fluct
##verted
phon
sax
archit
##ashi
guer
##whel
refriger
##ocked
skin
faith
humb
transport
crus
##lena
superst
emig
launch
##works
pleas
attrib
##umbled
obt
obst
obstruct
patron
##ucker
##ella
config
confid
confront
glor
immig
rehe
steep
irrit
diver
accommod
parlia
herb
##heim
color
##uffy
embar
estim
virgin
electr
electro
electron
wonder
##obia
##ground
##build
horr
astron
extract
symbol
camer
catalog
volunt
histor
slee
sleep
silver
##ulsion
murder
odd
##ships
sprink
borrow
football
crypt
stret
vacc
triump
##holders
battle
revolution
counse
deduct
inhab
birth
gabrie
sacr
angel
business
cultiv
contempl
anthrop
##ogenic
authent
industrial
sympath
dishon
acknow
fertil
suggest
republic
aj
aar
age
aim
amm
acr
bb
bac
bis
bam
bert
beth
bark
bail
bry
bitch
boun
baby
bios
cc
cb
cig
capac
cush
cough
cri
cauc
dn
dv
dere
drow
dust
dab
derm
dang
dry
dimin
dura
dump
eg
era
eld
eph
erect
fy
ft
fou
fly
ful
gem
gray
gay
goth
gau
glen
gott
gather
gho
hd
hit
hil
hap
hun
hip
herm
hide
hars
hann
hills
honey
ira
jag
jos
jane
jaw
jama
jih
kw
kon
kent
kill
kath
led
lur
lis
lid
lith
lanc
lunch
mh
mr
ml
mcl
mush
muse
muff
ner
nig
nest
nie
nurs
niger
oo
ot
oz
ont
oak
oran
pes
pest
pir
pert
pere
pink
piss
pump
punch
ri
rar
ris
rut
rif
rip
race
rough
rash
ruth
sap
sard
sni
tb
tat
ted
tid
tay
tens
trop
tatt
ves
vas
vest
vand
verm
vick
vern
vio
vene
wer
wing
wis
wig
wick
witch
##yan
##yll
##yers
##nat
##nant
##nia
##norm
##cal
##car
##cus
##cient
##rh
##rod
##ril
##rator
##rough
##oa
##oes
##oll
##okes
##oise
##obs
##omen
##ti
##tz
##lot
##lest
##lio
##life
##ea
##eon
##eing
##east
##ders
##die
##dles
##dling
##aut
##aver
##aire
##aze
##si
##kh
##ku
##kind
##gence
##gies
##gets
##vest
##x00
##ui
##uv
##uish
##mill
##master
##mouth
##manship
##pack
##pace
##bow
##base
##far
##function
##zes
##wo
##wl
##wart
##wide
##woman
##just
##eries
##inas
##inist
##inis
##inent
##inos
##instein
##atin
thin
thir
therm
##orse
##orations
##onder
theat
##edy
##edd
##lend
##leigh
##lete
##ret
##real
##icide
##icides
##icians
##ndy
##nda
##nded
##iti
##itty
##itary
##itative
##itzer
##alt
##aler
##alous
##ione
##mean
##oda
##rained
stal
stur
station
stoo
stall
stone
steven
stalk
stup
stair
stamp
tox
topp
tomb
town
tough
recept
##aco
##roe
##rob
##ross
intellig
argent
##urd
##uration
##istically
##etary
##etting
##ettes
##uent
coh
##isan
##isons
ital
ana
##mentation
##emic
##eming
##emble
forb
##raying
whisk
adam
##oters
clare
exert
expend
exting
exclus
##ections
pri
##igner
##idation
##sea
##vere
##ilia
##ilder
##integ
##intend
orn
orb
orth
prope
prosec
prosecut
indo
##apes
##estation
bever
pomp
sevent
##gel
##geon
##izers
##ental
alas
alert
death
wee
hein
heath
youtub
confer
convent
##ortion
##urned
retro
retire
retrie
chi
chin
chest
chore
chip
chance
church
##amas
##amation
##ersh
doll
cance
##antry
syl
sym
##erty
##iker
##ieu
##yne
##une
mak
maur
##iman
##qual
shack
sham
shall
shame
share
shred
shaw
lee
tak
##ption
##grav
##grams
unse
unbe
prel
enfor
enchant
##iping
##ippers
##illo
##listed
tran
train
traum
pak
pale
##ocene
exagger
aller
##cca
instig
instinct
quot
##oused
grace
gramm
##cking
suc
suit
suffer
supre
##usts
##usters
haz
##tte
dough
reserv
##ilda
novel
apple
appra
appet
apprent
aber
aband
##ardy
rox
rosen
##col
##comb
##outing
overd
overre
overhe
overwhel
disg
discontin
spart
##ultural
##ibles
paras
impe
imperson
priorit
defe
assess
moz
moor
moon
##icals
##metric
##quently
##fted
teas
##uming
butch
commen
comfort
record
fox
foss
contact
contend
##igns
##ignment
commerc
##enger
kell
loath
maneu
##rene
sixt
##oses
##olk
##olis
##olved
##ancies
##idel
scor
score
scand
scient
scream
##omed
##ensen
discre
##icting
pled
plun
plag
plum
solid
relig
relax
verte
deton
corner
corrupt
##inals
postp
##activ
##onda
carr
carol
infra
infring
##orde
blur
blaz
##wel
knight
verd
##aux
##eled
brib
##boards
highlight
advis
advoc
##aki
downs
hold
##ugal
schoo
frig
##ulent
##rances
perme
perse
##rians
handic
evap
offend
cycl
exempl
interfer
interrog
remark
bump
##otherapy
flour
flaw
grim
ground
griff
fear
##gery
agree
boot
##wardly
numer
calif
phili
phosph
condem
condens
surr
surpr
cheer
##books
##asha
##anked
##ensively
##ropri
entit
enthus
sketch
fault
##onsider
##onscious
protest
##sses
##sson
transcript
crick
crunch
##oken
grey
marx
marty
marvel
ante
antib
antagon
##ports
laz
lake
drink
brah
brad
braz
persu
caus
dragon
breast
distr
distract
disturb
obsess
##berries
wave
waver
synthes
snap
##ediat
regener
prospect
##anny
alien
harb
##ogue
##awa
##ucks
hyster
##elling
confess
metab
glut
robert
brom
##burgh
scrib
delight
deliver
##holder
steam
morning
afford
franco
malays
penet
serge
belong
columb
legit
substit
substant
##ographic
##uffle
millen
financ
epist
petition
gene
##liness
subscrib
##grounds
horse
horiz
urban
precip
aston
astro
turk
socio
melan
##ooked
cataly
susp
renov
awa
ordin
##worthy
##writing
admir
judge
photos
##hhh
##hoods
##break
ultra
kilo
waterf
hawai
fabric
spokes
feder
souther
citiz
sacra
victor
thorough
##represent
major
##keepers
culmin
juris
tradition
arab
eyel
##commun
##ught
ineff
##opathic
deterior
beaut
disappro
disappoint
georg
phenomen
austral
vigil
##piece
colomb
young
oscill
ocean
pitts
strength
reciproc
extrem
gymn
lubric
stereoty
disagree
synchron
architect
parliament
embarrass
philipp
aest
aus
aph
aft
aunt
amen
aster
amph
auction
bs
bp
bj
bass
biz
bour
bind
bare
beng
border
bish
bak
bara
bats
bung
batter
bbc
ct
cv
cray
city
clement
cia
cere
cous
cum
caps
cron
cze
cale
cudd
dh
dd
ding
dion
dand
dill
dart
dress
dum
dens
dug
dred
dwar
ditch
daz
dirt
eis
emo
eun
emm
eag
eug
egy
eradic
eras
echo
fen
fay
fres
fail
falk
fier
fash
fara
fiance
fernand
gan
gif
gul
gree
glow
gord
gull
german
hat
hic
hing
hort
hour
hud
hans
hots
ion
imb
iran
ji
jin
jet
jap
jim
jail
jok
jacks
ki
km
kore
kab
kings
kare
kos
kau
kitt
kara
kirk
ls
lp
lon
lion
liz
leth
lust
lud
lich
lond
lank
lump
lamb
lenn
mt
mv
mm
mou
mage
mine
mike
mould
mud
mens
mish
mock
mons
mund
mitch
mission
misc
nr
np
nod
nour
nast
nab
nib
nash
nerv
oy
og
ooo
oph
pn
pv
pure
piv
pine
pall
plow
pens
puss
punt
pedo
pran
patch
pane
pediat
rp
ring
rode
ration
rack
roc
roth
rapp
rhe
rico
sd
slic
sik
sigh
scept
sail
sinc
sedi
sulf
tc
tt
tm
tin
tes
ting
tig
tul
tast
tart
tues
tib
torn
uh
umb
vl
vap
vik
vom
vault
vamp
voy
wi
wra
wint
wand
ware
wren
wield
wish
wink
wool
wander
woman
xv
xen
yo
yan
yard
yang
yield
yester
yah
zo
zion
zen
zig
##non
##nar
##nan
##nut
##nest
##nish
##cie
##cia
##cence
##card
##care
##hou
##how
##rations
##rals
##rument
##overs
##oles
##oys
##tor
##tle
##table
##town
##ixt
##iations
##iator
##iences
##iques
##lr
##lu
##lis
##lie
##lier
##lined
##law
##lished
##lifting
##ele
##ean
##eper
##eus
##eenth
##du
##dler
##ais
##aul
##aments
##aunch
##arance
##screen
##kn
##kill
##gic
##gal
##gus
##gun
##gart
##gated
##game
##gging
##girl
##via
##vio
##vak
##uk
##uper
##uates
##urance
##mic
##mad
##mates
##mother
##marks
##pit
##pur
##pot
##pow
##poon
##post
##bble
##bir
##blo
##bek
##bag
##bone
##bled
##bted
##bourne
##fy
##fw
##fra
##fig
##fast
##fty
##fare
##father
##zier
##wd
##with
##wling
##wash
##jah
##erun
##erick
##erves
##inform
thy
thra
thurs
thom
threat
##eses
##oric
##orig
##orable
##orative
##orrh
##nton
##oni
##onne
##sting
##stan
##start
##stop
##stick
##stead
##stones
##stroph
##lee
##lev
##lent
##rection
##rels
##rehe
##icy
##ican
##icial
##iciency
##icism
##icular
##nders
##ndered
##itic
##itas
##iture
##itus
##itious
##itates
##itism
##itals
##odyn
##rand
##rase
##raine
##racy
stap
stir
stif
stick
stitch
stipul
stroll
tourn
##aro
##arat
##arus
##aria
##ario
##arms
##arming
##armed
rey
reve
recl
reop
revel
reiter
reaff
reappe
reorgan
##asis
##asper
##asive
inver
inau
inade
inacc
incred
neb
neur
neck
negle
##anese
##aca
##acer
##acity
##acles
##roid
##rote
##robor
##rolled
##rogen
##enz
##ench
##enberg
intelle
arn
ark
arsen
##urers
##urally
##uries
##ista
##istent
##istence
##eta
##uez
coch
cobb
##isive
##iscover
##uter
##utation
##utive
ish
isa
island
##llor
anx
anat
anni
##emed
##emia
##emaker
forth
foreg
whoo
##vement
advers
##oter
##assed
##assing
club
clap
clam
clich
clock
clog
claw
clamp
excess
exerc
exclaim
prest
price
prison
produc
##ige
##igra
##uba
##uber
##idence
##idated
##idents
##aders
##ados
##adel
##adium
##chen
##chool
##vern
##lict
##lica
##lics
##ilation
##ilers
##ilated
##ilized
##ilian
##ilton
##inty
##into
proof
proclaim
indent
indones
##apers
##apore
##estion
soy
sob
sof
sooo
solicit
bew
beet
popp
pock
pool
poison
seab
seaf
##gee
alo
alter
##pert
defer
decent
deuts
wear
weap
weld
weigh
wealth
hey
hep
hear
##tha
##thal
##through
cong
conclud
convin
congreg
##irming
##irmed
chic
chan
chro
chant
chill
choc
chart
chick
chel
chalk
chrom
chimp
chlor
##ifice
##ateful
##imet
##ulu
##ulus
##achment
##achers
##ayers
##ivan
##ivable
##anth
##oom
atmos
##usc
##iko
tyr
##mology
##ighth
##unc
##unks
##unken
##archy
##ppet
mara
mail
maga
magg
##immer
worth
worship
##quer
##quin
##quet
shit
shab
shield
shak
shri
shock
shakes
ley
leh
leve
leop
tai
unh
unm
unle
unac
unve
unch
unfor
uncont
unjust
prejud
enqu
encl
enact
envelo
encomp
enlight
enrich
enlar
enjoy
insult
compr
comprom
compreh
##iped
##illes
##illion
##listic
tract
trave
trash
##ocratic
##ocracy
##inely
##version
allah
institution
instrument
quar
quint
bypass
##ousing
##irsty
grant
suck
##usting
hab
haird
harass
resh
resent
appla
abra
absent
abnorm
##clusion
##phin
##phere
ross
accident
willi
william
##coe
##ounted
##amen
myst
myster
elo
eliz
##abe
##abad
##abeth
overc
constitution
##loading
disput
disco
disreg
dispers
disgu
disclos
disinteg
disqual
spat
spra
spar
span
spoo
splint
splend
##ffe
paraph
parado
underm
##encer
##keys
implic
impression
deform
assault
tru
truth
mole
moist
mold
moham
goss
golds
##metry
crew
creep
##arez
##ients
##quez
##fting
team
privat
##agh
twent
twitter
commend
recess
reconsider
pend
pear
peas
peac
pelle
fold
apo
##angs
subc
subordin
partner
##engers
singapore
kel
kend
underst
underpin
##itively
meh
meat
meet
##opa
##opic
##opol
lov
lob
lomb
lovel
lobby
manch
six
##llows
##oss
##osity
##olith
##anca
##ancer
scam
scoo
scott
##ateral
##enson
discern
disconn
pluck
corr
corrobor
depr
depress
deploy
##ishable
##boat
##erns
##inky
##ondo
carp
carbon
carpent
thank
popul
infilt
blu
blan
blond
sled
slur
##week
knock
##soph
##eless
##fulness
wrist
brist
brill
britt
bridge
geomet
afgh
afric
##cession
download
hob
holo
holly
hobb
##ugu
##uggle
schm
fried
##uced
##ulence
##uality
##range
multic
perce
percept
persec
unsat
swed
swall
swamp
semin
##apsed
cyc
flood
exempt
##lington
##bec
##beat
interc
interven
smugg
remode
remind
buoy
lifes
intrig
grin
grind
feed
feather
##ologically
origin
aggrav
boyc
demar
demol
democr
calib
auton
sara
archae
surpass
chew
cheese
##plan
##plant
concert
freel
##rington
guit
guild
##while
rah
raff
##leys
refin
refres
refund
refurb
refresh
benz
enter
entrep
skate
faint
transition
crust
criminal
##oko
gregor
marl
antiqu
omn
emin
emot
filip
redes
dru
drive
drumm
##graphic
brack
##vention
##dell
##world
##working
caes
cave
perman
benef
##addy
veh
##product
waist
encycl
##vised
##paid
polymer
##umbles
freed
obl
patt
barg
##ysics
##iliar
##iliation
libert
liberal
regrett
prosper
jean
jeop
jewell
##ouncing
replace
controvers
##lected
##arium
##aney
harm
##ogy
purport
purchas
viet
annex
##fordshire
confisc
confeder
metal
fitz
fraud
salam
personal
glad
glam
immort
incub
incons
broth
brother
##rician
##burse
rehabil
##regular
labour
crafts
merch
##holds
irregular
affirm
##casts
mcg
##atters
##haz
##izzy
diet
misunder
misrepresent
penal
##heads
belg
burg
burgl
paralle
artist
centr
central
aggress
##system
devast
bankrupt
squad
embra
embell
##brid
##brush
este
radical
gloss
epith
sweats
terra
timber
norther
##space
proportion
##iffe
##going
##etti
propri
hamm
safegu
##liest
baff
##charged
turb
extr
##aught
societ
melt
melod
liver
dissem
dissol
bachel
catal
darwin
micros
interpret
audio
bloss
divor
rhyth
suspend
suspect
suspic
reneg
psycho
psychiat
firefight
satur
satisf
alphab
christian
reconc
cartoon
trott
lymph
##ostic
##wright
##writer
##writers
##gents
dialect
ethn
magnet
eleg
alleg
allev
philanth
budget
halluc
puzz
domest
absol
##cription
danie
oxid
##downs
##bbing
unpro
##cribe
johns
bullet
babys
crystall
homes
mixt
street
##onald
##ennial
triang
##monds
council
federal
soul
premier
aeros
ghana
jacob
victim
wholes
ecu
figur
titan
wolf
aspir
##immy
quarter
militar
femin
giul
pilgr
service
claud
helm
abduct
##clusive
mitig
##ecd
renew
neutral
chronic
##proof
##lette
outlaw
euph
mirr
##hyd
##dogs
explos
manifest
marginal
ponder
botan
europe
joseph
motherf
utter
imperial
narciss
pharmac
goddam
diplom
gwyn
hutch
hibern
landsc
silen
inconven
exchang
##mobile
imprison
franchise
accompan
whisper
extermin
hahah
endeav
carcin
rehears
triumph
acknowled
harsh
iraq
tattoo
venez
ornament
pakistan
succe
maneuver
enthusia
metabol
czech
egypt
##odynamic
inaug
inadequ
neglect
intellect
paradox
4x
aro
ais
aid
aure
amo
apt
aeg
airst
aven
award
aww
astr
aaa
bn
bc
bt
bode
bly
bant
bore
bik
bere
blist
brent
bount
bout
bain
bren
banc
burs
bact
buch
bau
balk
bisc
baz
bunch
baker
ced
cac
cess
cay
cus
cyn
cun
cull
cring
clen
cerv
cuck
courage
dre
dic
dex
dul
dance
dies
dign
dix
diaz
dak
dian
duc
dund
dah
dale
daff
danger
ee
ef
ez
ej
eve
ech
elic
ecc
eject
eater
etern
eps
egg
fs
fj
fist
fis
fata
fent
fand
fles
fag
fanc
fry
fuss
flog
fiss
fug
gs
gp
gad
gand
gio
gel
gian
gri
gins
garr
gaw
ginger
geral
hi
hm
hw
hin
hou
his
hex
hect
hig
hers
hert
hik
hmm
hoc
horm
hick
hark
hug
hilar
hunch
hinder
heter
hiro
hernand
ire
ich
ivan
jp
jod
jour
jab
jol
jak
jee
james
jude
jenn
josh
kl
kk
kes
kor
kod
ket
kap
kir
kun
kand
kard
kang
kern
kry
kins
kling
kitch
kaz
kinder
ln
lt
lv
lass
lack
lent
lill
lum
lans
lact
lone
lak
lug
lup
lax
loun
latter
living
lloy
litter
lumin
md
ming
mow
moo
mmm
mild
morm
mum
media
mitt
mug
mash
mistr
munch
mocking
nh
nd
ng
nv
nac
nur
nam
nach
nim
nix
nord
nause
nts
naw
nipp
nurt
nathan
oc
ost
ore
omb
obe
oreg
oli
oste
olig
pray
ply
pav
pess
pard
plo
peck
pum
peng
pond
pian
pup
plen
parr
prad
pizz
puff
pino
piet
puls
pimp
pemb
pipe
pension
pione
qa
rn
rc
rt
rs
rf
rw
ral
rul
rach
rus
rush
rans
rug
rank
rapt
ruff
ripp
rook
rival
ritual
sic
sig
sir
sate
sach
sire
sans
sark
sak
slog
scent
sony
sister
tv
tass
tia
till
tire
tink
tian
tier
tank
tuck
tiff
torp
tony
taste
um
ub
uz
ure
ump
uter
ulc
uber
urs
ubi
vh
ved
vod
vass
vex
vow
vie
vast
vener
vine
vind
vinc
ws
wic
wad
wir
wast
wran
wester
wank
wah
wob
waste
washing
wicked
xin
xia
ya
yp
yon
yar
yach
yum
yak
yee
yaw
yell
zimb
##yt
##yd
##ynt
##yder
##yards
##nation
##nies
##nier
##nels
##nuts
##named
##cro
##cot
##cam
##core
##cill
##cuss
##cases
##cience
##cade
##cott
##hist
##hore
##hog
##hov
##hatt
##hetics
##houses
##rp
##rin
##rik
##run
##rim
##rine
##rice
##rum
##rio
##rators
##rika
##oir
##olo
##obe
##oster
##olds
##ieth
##iour
##iard
##iop
##iments
##iators
##iotic
##iencies
##iantly
##lation
##lav
##late
##like
##lain
##lord
##lied
##lining
##lton
##lane
##ev
##eed
##ely
##eers
##elo
##eel
##ews
##dad
##dam
##dom
##dream
##diction
##aic
##aur
##aways
##arances
##sk
##sor
##sur
##spe
##sburg
##suit
##kal
##kies
##kets
##gas
##gical
##gments
##gency
##gically
##gled
##gged
##gler
##ggy
##giving
##vity
##vine
##vous
##valu
##vals
##uations
##uaries
##mal
##mac
##mus
##mart
##mund
##made
##pad
##pical
##pants
##bet
##bul
##bies
##bath
##blow
##bio
##bron
##bred
##bank
##bons
##bows
##block
##bags
##busters
##fu
##fin
##fed
##fing
##fly
##found
##fund
##fell
##fires
##fried
##zon
##zac
##zen
##zers
##zone
##wc
##wre
##wers
##weg
##wind
##wol
##wns
##je
##jay
##jee
##eror
##erce
##erie
##erable
##erian
##inf
##inqu
##inable
##inian
##inho
##inberg
##atra
##atan
##atta
##atism
##ativity
tho
thaw
thorn
##esy
##esc
##eson
##esian
##escent
##ori
##orus
##orrect
##orne
##oner
##once
##onent
##onna
##stal
##star
##stant
##step
##stock
##stered
##edict
##leen
##lections
##rek
##rets
##recht
##icity
##icent
##icious
##icans
##ndred
##ingham
##itant
##itations
##itage
##alis
##alam
##alers
##alay
##alie
##alistic
##ioning
##meas
##mens
##odor
##odle
##rack
##rade
sting
stem
stil
stab
stark
stern
stunt
stee
strad
stake
##ctic
tol
toile
toss
##oust
##arre
##arine
##arial
##around
reint
rept
reven
rebo
reiss
rebe
revert
reward
rebu
rewr
reclaim
rebell
reju
##asi
##asion
inad
inert
inco
inquis
ingest
inexp
insec
nev
neil
nett
##mper
##mpor
##mped
##mpson
##anim
##anol
##anza
##anism
##acon
##acular
##rove
##roke
##rolling
##roads
##rogate
##eno
##enas
##enance
##enne
##enham
##enburg
intra
intol
intend
ard
ariz
arth
arte
armen
##uru
##urious
##urities
##urbed
##isty
##iston
##istine
##istical
##istrib
##eties
##uela
coy
coe
coin
cole
coal
coach
coco
coven
cots
coax
##iso
##isse
##isible
##isfact
##uto
##utor
##utant
##utical
##utors
itiner
isab
##llie
##llivan
ank
anest
anom
anne
annot
anecd
anders
##embles
##ember
ford
fores
forest
forese
forfe
foresh
whitt
##vely
stress
strike
strugg
adr
adap
adren
adel
adri
adhes
##oton
##otent
##otics
##assy
##lys
clou
clas
click
clarks
##expl
exor
excre
exacer
newton
newsp
##ectors
##ectomy
##uctive
pry
prin
prime
prun
prud
proud
prince
##igen
##igans
##ido
##idd
##iday
##idences
##season
##ady
##adow
##adia
##adder
##chy
##chn
##chal
##chet
##change
##chman
##verb
##licity
##licted
##ilm
##iless
##iliated
##intosh
prol
proxim
prompt
promin
procra
prolong
##ithe
indign
indict
##apist
##apse
##aphor
##apolis
##estim
sov
sop
sole
sock
sooth
sovere
##peg
##pez
##peare
##people
##pelled
beast
belo
belle
beau
belf
beef
befriend
##acker
poet
pope
poop
polish
sea
seb
seat
seed
seag
seven
segment
segreg
lind
linco
outwe
outdo
outgrow
outrage
##ente
ald
alv
alm
alp
alon
alge
alam
alder
alab
alum
alger
alto
aldr
##xton
ons
##perform
dew
dear
degra
deco
deaf
decry
demean
deactiv
dehyd
hew
heaven
conve
##iry
##iral
##iries
##irling
##irting
##irms
retal
retard
retract
retail
retwe
retros
trem
tread
nun
chr
ches
chas
chis
chub
chie
chast
chile
chib
chry
chau
chief
chrome
##ava
##avs
##essa
##ifa
##iffer
##ifty
##ifts
##ifully
##aman
##amous
##amond
usur
usher
##uld
##ulk
##ulars
##ulators
##ulatory
##lements
notor
notting
dos
##achi
##ayer
##ivas
##ivia
##ivals
##anto
##anta
##antes
##atical
syd
syner
sympt
symph
##usive
##erta
##ikh
tyran
##mosa
##atories
##atorium
##iably
##ethe
frost
queen
queens
##agement
##unct
##archs
##ppets
expos
mao
male
##imed
##imming
dynam
wors
worm
worsh
shin
shan
shen
shot
shay
shun
shout
shah
lea
lean
lead
lege
leader
leban
tah
taj
tale
taunt
##pton
##gran
##grant
uni
una
unint
unus
unab
unpl
unatt
unequ
uncover
unaff
uninter
unbel
unrest
unexpl
##erfield
##erfully
pregn
preclud
preca
enge
engra
enlist
enorm
enroll
enclos
encry
insect
insight
insol
insuff
compass
compress
##mbling
##anded
##andra
##andro
##anders
##egal
##egan
##iph
##ipur
##ipation
##ipated
##ipsy
##illas
##illers
trav
tram
trap
trace
trail
pag
##oca
##ocated
##occup
##inee
allot
quil
quinn
##ousness
##alls
##rowing
grape
grands
grasp
sup
suz
sullivan
upro
uphe
hagg
##tto
resil
resign
resell
resemb
nove
appa
abort
abund
abras
abbre
aborig
##ksha
##cled
##closed
##cliffe
members
##orman
preview
##phal
role
rome
##tel
##teen
##teenth
accus
accred
##coin
##coat
##copes
endang
endors
endorse
elong
##abi
##abwe
##abouts
overha
##aths
##athon
##atham
##athetic
##athlon
constr
##loe
dise
disgra
diseng
disres
displ
disney
disemb
dissent
discred
disinf
spear
spell
spa
sport
spam
spoon
##nery
##ibal
##ibur
##ibilities
vision
##iority
undes
##udy
##uda
##udder
impat
impass
imperf
impart
impress
impair
imposs
defic
defra
defense
loos
edin
edit
edward
assy
assim
tres
trif
triple
tripp
desk
desper
mog
moss
##inda
##indle
gov
golf
crem
cream
##aret
teles
tender
privile
##aga
##agen
##umann
minor
minister
twink
twitch
bash
butter
repro
repay
replen
repair
repost
recount
recycl
recuper
pee
pew
peer
peach
pecul
font
food
foll
folk
apoc
apart
conting
contest
context
suburb
subpo
##igne
##ignon
commit
commod
committe
partition
partners
singular
kee
keen
keyn
grown
amy
amer
amic
amate
amuse
amalg
undergrad
midw
midfield
locom
equip
##oplan
##oths
manic
manus
maniac
##oughton
##rency
silic
letter
##oscope
##oscopic
##olia
##oline
##olph
##ixes
##ickers
scan
scur
scav
scall
scorp
idol
modest
##oming
bestse
deleg
##ensed
##ensions
discip
discount
discoura
discipl
##ictive
plain
plough
plumb
plural
plato
plaint
reluct
relinqu
##classified
erik
##dley
detach
corv
corinth
##arked
deport
deprec
##affer
poster
##boys
##activity
##erness
##uchs
##ifiers
carm
carroll
carria
intox
actu
warr
warrant
##orders
blas
bliss
blacks
blake
slam
##gina
doubt
##iox
copyright
##offs
verb
##owns
##zale
##abilities
##utionary
##soft
##elia
backpack
predom
wrink
tempt
brat
brides
brian
brisk
brien
highland
advance
##akin
##logically
##logists
##mpled
##mpling
##ulls
##issible
downplay
holy
hover
hoff
hollow
homos
hobby
##ugated
fring
fruit
fratern
##appropri
extrad
extrav
extrapol
##ucing
explor
perp
peripher
##atching
acid
acrob
unsur
##rily
##riers
handc
swift
bald
balm
evident
semic
##apses
cyt
##insky
##bee
fals
opi
opin
##tale
interchange
smother
##lfriend
##bson
remed
reminis
buy
emph
empt
empow
emplo
##rons
##versely
fled
flaming
flirt
##mlin
gris
grid
grud
grizz
fell
feud
fellow
##gered
agu
agon
indec
boat
bold
passion
passage
calc
cali
calm
calam
calder
calvin
autograph
perfection
pho
phe
phar
phill
saw
sale
saint
saud
recolle
archety
condo
shrie
surm
cheet
cheap
cheek
##places
##wned
guy
guad
guine
guards
##flower
matthe
raw
##arage
##rops
refine
refuge
amend
entang
skill
motors
protection
huck
humph
humming
hundred
transd
transp
transf
##thodox
krug
testimon
crime
##boro
##borne
presid
preserv
presby
presumpt
##leneck
greg
greens
mari
marin
marce
maria
marqu
marks
marian
margar
anton
antis
antid
illum
illumin
determin
##undy
##ifted
english
job
behead
behold
emil
emir
emblem
filmm
redund
rediscover
redistrib
tasman
laur
lakes
laws
driv
drunken
farm
selfish
bras
brace
restra
restruct
restau
cair
dram
drago
dramat
brewer
hunts
benefic
clever
vend
##veloped
##prints
##prising
wake
##hesis
atten
encir
encoura
##vision
##shed
freud
patter
baron
snoo
snaps
sniff
##ysical
##urai
##uras
region
regime
registr
unfair
unfold
decipher
jew
jewe
##ounces
profit
##otten
##otters
##lectric
##arius
##aneously
harper
harness
harbor
##conn
##ogyn
##strong
##entially
##ucky
fundra
##ello
anno
annual
annoy
##pret
confuc
confirm
metast
metaph
metaphor
destro
destruct
destroy
frame
glac
glaz
glimp
glitter
##mington
robb
robber
immers
incur
incident
incarn
##burst
neglig
powder
scrut
scrub
daydream
##lsen
##atherine
bitter
fool
foolish
police
delin
deliber
monet
monog
craz
stef
steel
steward
stealth
##utely
irr
irish
irrig
morb
mores
affili
affection
frances
franca
mcn
##attle
malt
malay
malign
malfunction
##posed
##position
##person
dioc
diamond
digest
misde
miscon
misinter
misogyn
forecast
oppress
serb
##olent
parl
paris
party
portra
portray
articul
consumer
herr
srin
center
expert
beyonce
##heart
column
##illet
planet
denom
garner
sneez
##laus
##lake
devot
devil
yellow
yemen
##ographer
croc
cros
croat
crock
##eryl
##woods
embed
embod
embro
embry
##overn
intros
succumb
camps
finn
##efe
deriv
straw
reinfor
reinvent
cec
cease
sorcer
sams
samar
##irable
##aires
epis
electric
pyram
pett
peter
petro
peters
favour
palmer
statistic
revital
revamp
custod
##liner
##otype
screens
gaze
blackm
familiar
hamilton
internation
international
##liers
##lique
sentiment
shepher
astroph
sandwich
luk
lumber
luke
month
montreal
##respons
berk
##balls
collabor
soci
prepar
dictators
toro
torrent
##ipps
acquaint
charlot
volt
intermedi
unconscious
##comfort
audition
divide
million
wald
##zzy
energ
awk
awak
satan
sunny
christoph
enhance
punish
sanit
sanction
##ylvan
biom
biograph
keny
kenned
lyric
##lights
shovel
appell
hydra
ambass
casual
ethnic
ethiop
##arianism
##ulsive
magnific
dispar
eleph
hurt
murm
martin
martine
massac
cabin
koh
##guin
absurd
sprint
##criptions
captain
dais
ridd
ridic
ridicul
##breaker
##itories
johann
kidd
mortg
##sense
##ilingual
candid
voice
woe
zeit
stockp
inno
magda
##holding
billion
battles
cardio
nickel
pedest
##picuous
##feld
thermo
##ourable
fortun
mahara
spont
athe
athlet
counsel
henri
hemorrh
michel
michael
sabot
exhaust
premiers
physio
technical
snowboard
broadcast
caval
catholic
cellul
jacobs
municip
napole
tunis
##iii
dismant
hydrox
marshall
rodrig
wolver
adoles
excelle
trades
tradem
contempt
contempor
bombard
skyrock
ayr
coupl
david
eyes
fuj
girlfriend
masturb
nutrition
smel
villain
##points
cosmo
##lynn
subtle
subtit
subtract
downt
fisher
louis
mesmer
mountain
mountaine
##glass
##ummy
inev
neutr
shipwre
levi
##opathy
dilig
hedge
kimber
license
laund
squeez
videot
boyfriend
husband
lady
lynch
vicar
advertise
complain
spiritual
mosqu
conservation
champions
holland
redeem
hypert
amphib
barric
cinem
gonz
glyph
mckin
##foot
stimul
storyte
rectang
resurrect
##pheres
troubles
amazon
platform
carniv
homoph
catastroph
fantas
lieut
todd
vulner
vulgar
york
##western
stubborn
prodig
outsour
heavy
sustain
conspir
surviv
biblio
flick
facebook
harris
iceland
##patrick
reimburse
whistle
##chemical
campaign
epidem
kidnap
gentleman
bureaucr
gastro
luther
mexico
witness
wizard
wiret
##topl
##etamine
orphan
chamber
abolition
scholars
obstet
##heimer
electroly
##building
astronom
sacrific
bisexual
cripp
caucas
dermat
ghost
jihad
##author
extinguish
weeke
youtube
tranqu
apprentices
overreact
plummet
vertebr
infrastruct
infringe
californ
cheerle
horizont
citizen
##communication
bishop
dazz
eugen
jackson
london
ophthal
pedoph
rheum
tibet
vlad
xenoph
##birds
##frame
annih
bewilder
decentral
weapon
##unciation
magaz
shakespeare
taiwan
williams
elizabeth
##olithic
afghan
guitar
encyclop
jeopard
vietnam
bachelor
philanthrop
pilgrim
motherfuck
airstr
kardash
pessim
torpedo
zimbabwe
rejuven
adrenal
exacerb
procrast
lincoln
outweigh
chrys
unbelie
abbrev
disrespect
homosexual
##ylvania
3x
5k
ao
ae
aa
au
aq
ain
ait
aur
ave
ace
aly
aub
ase
alic
ail
aort
aime
aam
aik
agra
acl
aco
action
agh
auss
acre
aga
aware
astor
agent
ahh
arom
azer
acry
alice
bf
b2
bav
bess
bie
bia
bage
bim
bcc
bould
bong
bick
bans
bays
bone
buss
bian
bolog
bds
bism
bully
baw
bots
bored
bows
bunk
bakers
bitters
bumble
bilingual
cg
cz
cq
cic
cen
core
corm
cud
cind
cres
cact
cuss
cuc
cumb
cuff
catherine
dc
dp
db
dray
dot
duct
dad
dap
dir
dess
date
dach
dus
dore
dild
dile
dud
dice
dong
deng
danc
duch
dink
dors
dull
dared
dual
dash
dpr
dizz
dorn
duff
dude
dave
dicks
dye
dyl
damm
diana
daunt
daughter
dante
danny
daddy
eo
ew
ein
ect
ero
eur
eut
eul
epp
eck
eust
ether
euch
eman
ears
eaves
epa
econ
easter
eros
elder
eager
einstein
esoph
euras
fn
fd
fm
fas
fow
fount
fare
fitt
fours
fins
fester
fling
fars
fift
ferv
fiend
fines
fiction
fisc
fatt
fitting
fetch
fires
fij
fenn
fbi
fidel
fixt
fuchs
flynn
gb
gin
gat
git
gou
gow
giz
gert
gator
gour
gart
gild
gary
gould
gior
glean
gare
gates
gise
gunt
gorge
gron
grop
gland
gille
gira
gutt
gulf
giro
gimm
gaunt
gyne
hg
hv
hp
het
hue
hass
hess
hence
hous
hath
hong
hens
hbo
hym
hone
hond
hose
hof
hiss
husse
haven
hadd
hott
hered
houth
hool
hudd
honda
ii
ik
iq
ist
ime
iod
ian
iow
imo
ike
ibs
iber
ips
ica
ivo
jn
jh
jf
jor
jing
jal
jas
jem
jig
jub
jill
joc
jard
jans
jays
jason
jug
jup
jura
jaz
jung
jones
jake
jaff
jinn
jugg
jigs
journe
jimmy
kt
kp
kj
kre
kro
kur
kub
kow
kav
kate
koo
kie
kia
keg
kip
kong
kush
kom
kits
kron
kier
kana
kash
kale
kyle
kane
kaw
kamp
kett
kios
kai
kurt
killer
kurd
lc
lh
lr
ld
lm
lj
ler
lime
lul
lant
lus
lions
lace
lance
lite
lop
lough
lark
lord
lull
lara
lah
ladd
lys
lann
lane
lily
lma
lords
linger
lung
lisa
lighth
mn
mb
mue
mata
mce
mch
mate
mere
mous
mile
mek
merm
mick
mits
musse
muc
mcle
mism
merv
mpa
mumb
mura
muck
maced
mrs
miff
mook
mama
money
mika
mourn
mudd
mtv
mgm
nc
nm
nj
nes
ned
nue
nass
nil
nort
nir
nay
nia
nine
nath
nice
nak
nbs
nats
nca
nino
niet
nutt
nba
nancy
nfl
naked
nih
nhl
nintend
ou
oat
ole
ove
och
oil
oun
oven
oss
ode
ober
osh
oeu
obey
pk
pf
pj
p2
pis
pate
parch
pound
pud
poth
pans
pug
pne
pester
pied
pts
pund
pals
pto
pats
pari
pots
pertain
pills
pony
pipp
pinter
pudd
patern
qi
qat
qing
rk
rv
rb
rin
rant
rik
rere
rour
rim
rall
rally
rings
rare
rins
rivers
rumb
ruck
rouse
rude
ricks
ridge
ronal
rasc
rih
riot
riley
rerun
sg
sx
sf
sj
sq
ses
sis
sot
sly
sow
sper
surn
sess
sore
sage
sill
sine
sous
sput
sally
sult
s00
sich
sind
site
serm
sext
sang
sides
sri
sana
sash
sector
soup
sizz
sung
sains
tn
ti
tp
tis
tray
tect
tint
tav
tiv
tie
tek
tide
tiss
tuc
tbs
tup
tons
tether
tux
tumb
tipt
tired
tung
tuls
tires
tiger
tipper
tiber
uc
ud
ux
uf
uw
umm
ucl
u00
uran
uhh
vc
vu
vm
vp
vf
v0
vor
vou
vet
vid
vil
viz
vive
vase
vign
vix
vanc
vivid
vale
ville
vaz
vaugh
vita
veto
vouch
wn
wc
wt
wv
wu
wex
wap
wack
wav
wess
wyn
wine
wart
wings
wich
wide
wom
wond
wwe
wise
wides
witt
wins
wands
wals
wats
wade
wisc
watt
wille
wimp
wife
winter
wipe
xy
xt
xi
xav
yi
yv
yas
yul
yun
yos
yol
yel
yug
yog
yoy
yoko
zed
zan
zur
zap
zach
zain
zag
zum
zamb
zimm
zoe
zucker
##yr
##yes
##ycle
##yah
##ythe
##nin
##nit
##nal
##nity
##nik
##nard
##neck
##nock
##nmost
##nished
##number
##cor
##cas
##cur
##cation
##cial
##cous
##cart
##cester
##cale
##caster
##cyc
##cery
##cano
##cuts
##course
##hit
##hen
##hub
##hers
##here
##hound
##hab
##hum
##hang
##haven
##hots
##hops
##rer
##rat
##rust
##round
##rite
##rically
##rative
##rup
##roup
##rison
##rina
##rgy
##ruff
##rero
##oz
##oot
##omo
##opp
##oqu
##opt
##oks
##oard
##opy
##oven
##ometer
##oints
##oby
##opers
##olyn
##oirs
##ozo
##ogram
##obey
##tin
##tar
##tch
##tim
##tics
##tail
##try
##tors
##tails
##iad
##iaries
##ienced
##iotherapy
##lion
##lass
##lap
##loo
##lus
##lace
##lated
##lag
##lism
##lah
##lords
##links
##lades
##lasses
##luent
##eh
##ei
##eb
##eco
##ecr
##eering
##eze
##eered
##ends
##eca
##ezz
##des
##dan
##due
##dens
##dock
##daughter
##aith
##agor
##aus
##aise
##alen
##aired
##aids
##agram
##ampton
##alence
##sers
##sight
##sling
##sier
##kit
##kie
##kim
##keg
##know
##kemon
##gem
##gant
##gill
##gener
##gary
##gard
##gles
##gings
##gone
##gio
##gons
##gway
##gulation
##gene
##gien
##gths
##vre
##vic
##vet
##vil
##vik
##voc
##vance
##vard
##vings
##vency
##vise
##xon
##xus
##uan
##uve
##uly
##uers
##uder
##uine
##uance
##uard
##uco
##uition
##uum
##upy
##uments
##uities
##uza
##umen
##uana
##uka
##uished
##uette
##uki
##uffs
##mir
##mere
##mud
##mish
##mons
##making
##makers
##ple
##par
##pen
##pment
##page
##pill
##part
##pable
##press
##pult
##pole
##psy
##paper
##payers
##bn
##bt
##bod
##bac
##bad
##bent
##bus
##berf
##bard
##beck
##bits
##bish
##bern
##bread
##bitt
##bull
##bran
##bana
##bands
##bler
##bras
##biology
##bago
##fur
##fth
##fam
##fus
##fun
##fol
##fred
##fiction
##fortun
##finder
##frey
##fathers
##folk
##film
##zor
##zig
##zant
##zym
##zhou
##zheimer
##wit
##wig
##worm
##wning
##wark
##wined
##wold
##wave
##washed
##waters
##wald
##jas
##jan
##jid
##jack
##jun
##job
##journ
##jamas
##qa
##erk
##erial
##eros
##erom
##erors
##erals
##inav
##inia
##inine
##inous
##inction
##atal
##atas
##atro
##atem
##ativ
##atore
##atine
##atile
##atious
##atized
##atting
##atility
##atibility
##atoon
##atography
thw
thre
thic
thur
thad
thie
thigh
thous
thong
thres
thail
thier
thund
threes
thump
##esa
##esia
##esha
##esburg
##esome
##orf
##orex
##orad
##orie
##orrow
##orient
##orum
##orns
##orney
##orously
##nty
##nth
##nte
##onge
##onies
##onics
##onents
##onism
##onstruct
##onium
##onomy
##sta
##stit
##sten
##station
##static
##store
##stage
##stated
##stically
##string
##stering
##stood
##staking
##sticks
##staff
##strom
##steps
##stairs
##stalg
theolog
##edient
##edness
##edience
##leon
##lear
##lell
##leased
##rea
##reb
##reated
##regn
##icon
##icion
##icist
##icem
##icia
##icating
##icates
##icidal
##ndi
##ingen
##ingdon
##itent
##itator
##itous
##itical
##itos
##itans
##itian
##itational
##itators
##itute
##itlyn
##itatively
##alo
##alm
##alf
##alon
##alment
##alil
##alach
##alus
##allist
##alom
##alone
##alta
##alds
##alties
##ionable
##meal
##mely
##memb
##odo
##oder
##odles
##odden
##oduce
##oduces
##rae
##raf
##raid
##rake
##ravel
##raged
##rasing
##ranted
sti
stut
stig
stow
stam
stay
stage
stile
stard
stain
stom
stars
stale
strap
stump
stuff
stiff
styl
staph
staunch
stadium
##ctr
##cturn
toh
toen
toul
tomo
toast
tosh
tobi
tommy
tolk
##oux
##ouver
##ouched
##oufl
##oubted
##arl
##aru
##arf
##arin
##arle
##arro
##aroo
##arder
##arns
##arcer
##arbon
##arati
reed
reid
reper
reth
reage
reich
reception
reese
reins
reinc
rework
rena
reload
recharge
render
reilly
rewatch
reagan
reaction
rekind
rememb
oft
##asant
##asley
##asms
##asaki
ina
ink
ingra
inoc
incess
inns
incest
incent
inclus
incrimin
inactiv
inappropri
nec
neh
neu
nep
neat
neon
neal
neill
neph
nether
neol
nets
neander
nemat
nepal
nelson
##mpts
##mploy
##anity
##anie
##analy
##anaugh
##anuel
##anagan
##anova
##acent
##acus
##acons
##aculate
##aclys
##roit
##road
##ropy
##roof
##robe
##rots
##rology
##eny
##enh
##enet
##enity
##enary
##enos
##enzo
intest
intang
intel
intense
ars
arb
arra
armp
aris
arse
arrow
arter
arts
arbor
arma
arson
arrog
##urst
##urus
##urous
##urated
##urved
##urian
##urbs
##uristic
##urately
##urgy
##urgical
##istak
##istering
##istered
##etor
##eton
##etal
##eters
##etus
##etts
##ueling
##uels
cox
coat
coex
cope
cote
coles
comet
covert
coward
coher
coss
covent
cohes
cocon
cowork
coler
coca
coerc
##isal
##isure
##isations
##isans
##isman
##isional
##isfa
##atant
##utan
##uters
##utory
##utics
##utting
ith
italy
isl
ism
isot
ischem
##ationary
##lli
##llip
##llable
##llors
##llah
ani
anj
anal
anoint
ansel
ancient
anorex
andy
ander
andro
andres
anderson
andrew
##mento
##mentary
##emason
##emann
##emaking
forc
fors
fork
forens
forsy
forerun
whor
whim
whos
whites
whimp
whirl
whims
whoop
##vez
##vements
strik
strick
ade
adul
adult
adorn
adrian
##otle
##otal
##otam
##otive
##otine
##otta
##otting
##cely
##cephal
##lyde
cling
clint
clay
clip
clust
clark
clair
cliff
cloud
clinton
exquis
exasper
exuber
exclusion
exoner
exoplan
exxon
newman
newfound
##uctions
prong
prick
pruss
prism
##iga
##igree
##igley
##igible
##ube
##uble
##idy
##idt
##idi
##idu
##idas
##idad
##idav
##idious
##idating
##idian
##see
##send
##sely
##sevel
##oway
##owner
##owitz
##adin
##adan
##adish
##adian
##adowed
##chat
##chie
##chase
##chard
##chmen
##chison
##chair
##chief
##chez
##chlor
##verns
##verbs
##lich
##lican
##licting
##licited
##liction
##licopt
##ilion
##ilis
##ilate
##ilant
##ilty
##ilateral
ort
orbit
orwell
orthodox
prog
prox
proct
prose
procl
proven
progn
prolet
progen
proverb
indist
indem
indig
indie
india
indian
indirect
indiana
##apable
##appy
##apolog
##esta
##eston
##estown
##estyle
##estimate
publ
somb
solem
##pell
bef
bees
bend
beam
beach
beeth
beards
begg
beij
poc
poo
poe
pom
pose
poland
pomer
pokemon
sev
sew
sein
seal
seas
sean
seem
seiz
seep
secular
sewer
secession
seattle
##geist
##geons
##geois
outc
outd
outf
outta
outflow
outland
outfield
outpost
outperform
outnumber
##izens
##izio
##izoph
##ented
##ention
##entious
alc
als
alan
alth
aless
alib
align
alley
alarm
alright
alumin
alarming
alkal
alzheimer
##xtap
onco
adder
demp
dean
deput
decept
decr
deline
dependent
deja
decomm
degrad
deuter
wea
weir
weath
weather
wendy
hea
heb
hez
heat
hemp
heir
heine
heck
hears
helen
hehe
heli
hebre
hearth
heirl
hegem
helicopt
##thest
youth
conco
connot
conference
congest
congo
convo
congen
conclus
consent
connell
##urning
##irer
##irls
##irted
retra
tren
trek
treason
tremend
nus
nuff
chor
chal
chen
chow
chad
chir
chate
chia
chun
chard
chong
cheng
chol
chak
chats
chatt
china
chatter
chips
chains
chris
chival
chloe
##avin
##avis
##avail
##ifers
##ifter
##ifix
##ifact
##atee
##imeters
##amin
##amon
##amine
##amoto
##amorph
usa
uss
usm
usern
##ulary
##ulative
##ulah
noth
##ersome
##ershire
asi
asm
asper
asia
aspect
ashe
doh
doo
dop
dob
dope
doyle
doming
dogg
cany
cana
canon
cancer
canada
canoe
cancell
##achlan
##ivoc
##ivated
##ivities
##ivision
##anti
##antation
##antile
##antics
##ooo
##oose
##lda
syring
syria
atone
atlet
atkins
atroc
##gore
##gora
someth
somebody
##usa
##usal
##ertaint
##iku
##iked
tyler
##iece
##iao
##iage
##iago
##ething
quebec
whats
headqu
##oury
##ourt
##ourg
##asters
##astics
##yness
##unching
##ppa
##ppings
expose
expatri
mae
maas
mais
maver
maul
maine
maker
##imer
##imal
##imedia
##imately
##imony
getty
dynast
withers
worthing
##qui
##quence
##quins
##quets
##question
shi
shat
shed
shre
shing
shem
shith
shore
shim
shill
shep
shek
shag
shang
shana
shank
shuff
shiver
shirt
shrew
shudder
leo
leic
leap
leary
leak
leah
leather
league
lebron
leisure
tao
taboo
tarant
taked
##ptide
##grave
##grass
##grading
##graded
##mma
##mmed
##mmies
needle
ung
unst
uned
unis
unass
unread
unso
uneven
unins
unman
united
unreg
uncomp
unhe
unob
unload
uncondition
unimp
unamb
unoff
unique
uncomm
unnat
unkn
unblock
unanim
uncomfort
unauthor
unknow
unravel
unapolog
unquestion
##erfe
prey
prent
prett
precept
precon
prehist
preoccup
##ighton
enum
engin
enemy
enjo
enrol
enzym
encephal
insin
insom
insens
insane
compart
compla
compost
compatri
comprehe
##mbs
##mbat
##mbie
##ando
##andre
##anding
##andan
##andering
##eger
##egger
##ipulation
##ipotent
##illary
##illery
##illusion
howard
howell
tramp
traject
traged
traitor
paw
pact
pamp
pair
paink
pauls
pagan
pamph
##ocy
##ocur
##ocity
##ocate
##ocial
##ocious
##ocating
##ocative
##alya
##alyp
methyl
##inees
##ineph
##ineering
##aceous
curs
curve
curios
alli
allig
referee
referend
##cco
##ccess
##siss
##iality
##ialized
quin
quir
quay
quicks
quarant
quiver
byr
bystand
bylaw
byproduct
byzant
bigot
##ousal
##allow
anybody
grab
grave
grapp
graff
graft
gravey
gracious
graham
suv
sura
supr
sugar
suarez
##arte
##arton
##ustible
##ustroph
typho
ups
upset
uphol
uplift
hag
hain
hare
hara
haul
haunt
habs
haze
##tton
douche
resett
resched
resume
resusc
nok
nox
nob
noon
noble
noah
nostr
nozz
nolan
nobody
nostalg
nocturn
appar
apples
appli
appreh
apprehe
appalach
abc
abu
abre
abate
abom
abhor
abrupt
##ilee
##ileen
##ilever
##ksand
##kshire
##cling
##clair
##clero
##cloud
##ceptions
memorial
member
membran
##phi
##phen
##phia
##pherson
##phrase
##ardi
rog
rolf
roger
rosh
roma
roche
roller
rooney
##tech
##tebr
##teacher
adjud
adjourn
##mberg
accr
accol
accla
willing
##coon
##coms
##cogn
##coma
casey
##epress
myr
mys
mystic
endow
endomet
endocr
endanger
##outed
els
elk
elm
elastic
##aba
##abulary
overta
overton
overwork
overdo
overpow
overhang
##athed
##athom
constell
boomer
##los
##loor
##lomer
##lovak
disen
disass
disav
disab
disorder
disown
dismember
displace
disob
dischar
disloy
disarm
disinter
disband
disheart
disobey
disorient
disillusion
speck
speedo
speaker
speech
spy
spit
spac
spur
spray
splic
spill
spine
spain
spite
spong
sparing
spaw
spino
spiel
sparse
spani
spencer
sporad
sponge
##ractor
##ractive
##ractors
##ultz
##ultures
##ffen
##fficient
##ibo
##ibs
##ibu
##ibble
##ibus
##iberal
##ainment
##nington
parach
paragraph
unde
unden
undet
undis
undoubted
##pendence
##uders
impul
impedi
implicit
impregn
posit
visitor
deft
defence
deflect
loom
looph
editor
edmond
eddie
edmund
assad
assail
assured
trit
trill
trous
trough
trink
truss
desire
desol
despa
deserved
designer
desecr
funni
funnel
mov
mom
moll
moly
mose
moore
moff
moons
moody
molly
mosa
mosc
mommy
movie
worker
workload
gol
gog
gop
gob
goat
goode
gosh
constantin
##itement
##metrical
##lleys
##ermal
cree
crev
creme
creation
##aren
##arean
##iently
##quel
##quential
##fta
teh
tear
temple
teach
teamm
teacher
##agu
##agic
##agers
##agus
##agues
##agne
##agog
##aghan
##agonal
minn
mini
mina
minnes
mineral
ministry
conson
consort
consens
conscript
consumm
conspicuous
twin
twel
basing
basket
butth
button
butler
butters
butcher
comf
comed
repar
repud
repos
reported
reposition
repris
repaint
repatri
recie
requis
pec
pean
fol
footh
foster
curry
apric
april
##ango
##anged
contag
subl
subj
subse
subun
substr
subcont
subgr
subsystem
##irection
commiss
##enging
singh
singer
county
countert
counterfe
kev
keb
kean
keith
keel
kelly
kevin
keefe
amr
ami
amit
amar
amid
amir
amule
amaze
immen
immeas
undergo
undercut
underestim
middles
mee
mew
mell
mead
meant
meek
mezz
meij
runner
storefront
locks
##pylene
##oping
##opia
##opian
##opular
##opsy
##opotam
##othel
##othian
lol
lover
lolo
loft
loaf
loving
loss
lobb
lopez
lollip
mann
manning
manne
manoe
mankind
manhatt
orgasm
##renched
##reneur
##rencies
lineback
siam
justin
lett
##osia
##oske
##oscopy
##oscience
##oslav
##oslovak
##olf
##olin
##olar
##olas
##olta
##olitan
##ixed
scant
scour
scound
scare
scree
sciss
scumb
scots
scorn
scutt
scaff
scroll
##ursed
##ursion
##ursions
##ansas
idios
modi
##cules
##omi
##omes
##omon
##omal
##omatic
##omous
##omics
righte
##enshire
discord
discrep
##itsu
plut
plank
plund
plaster
plastic
computation
solar
solvent
relaunch
relativ
courty
courtes
courts
eric
erit
ergon
erdog
ernest
wouldn
studio
college
castle
castro
detri
detox
detaine
detroit
cors
corb
corks
corne
corps
corros
corrid
deple
depra
deplo
lowe
##ishi
mayor
gmail
workshe
postmod
posthum
everybody
##bok
##bolic
##actively
reader
##erned
longhor
##veland
##inkley
betray
betty
##onduct
##ondale
errone
carl
cars
caric
carot
carly
carib
carbo
carson
cargo
carpet
thanks
pops
##ryl
actor
lgbt
infat
infre
infur
infect
inflow
infield
infirm
infidel
wars
warren
##tran
##traction
##trans
bled
bless
blight
bloc
blame
blink
blunt
blizz
bluff
blair
blitz
sla
slut
slap
slav
slim
slight
slip
slings
slug
slash
slump
slaugh
slipper
slaughter
doubled
kne
knit
knack
knuck
knox
##onyms
logan
##iosis
##reading
##owners
goodby
valu
valle
valley
##zakh
eto
etat
etch
practition
grady
machin
##elt
##ela
##elan
##elong
##elier
backp
beginner
##fuls
predis
##isecond
former
wayne
hasht
writ
wright
writer
herein
templ
brod
brie
brim
brick
bride
bruce
gear
geek
geys
geoph
geez
geoff
geopol
afrika
aficion
highs
larry
larva
##akh
##aku
##logic
##logne
##ittor
##ittle
##ittal
##ittance
utah
##issy
##isson
##issive
##issance
badd
chavez
hog
hobo
hoax
holder
hogan
putin
##uges
##ugation
schu
schum
schwe
schematic
schwar
schae
schizoph
fri
frick
frisk
pathogen
shortfall
##appa
##appings
##apprec
extraord
##nsylvania
##rank
##ranged
##ranean
lott
multid
multif
perl
perv
peril
perth
perry
pervert
percuss
summer
summers
acet
acety
acquis
acoust
##gae
##gara
unsc
unsett
nonpro
nonvio
nonchal
provision
province
totalitarian
##river
##rible
##rium
handsh
handker
handsome
handgun
swing
swan
swoo
swag
swans
sword
swank
swords
##ipley
##oductions
bals
balcon
baloch
baltim
evan
evans
semif
##apsing
cyl
cyan
cymb
cybor
cytopl
cybern
##insic
##nee
##nez
##neous
##neys
##nelly
floor
floss
floyd
##conduct
ensla
##bean
##bearing
##bender
##bella
falc
falcon
opa
interl
interde
interesting
interlock
interpol
intervention
interconn
smur
smack
smir
remar
remain
remaster
remote
remorse
buh
buffer
buyer
generation
##iterate
banks
occupy
empath
empire
empower
emperor
lifegu
##otherapist
fla
flas
flue
flut
flot
flip
flound
flame
flab
flank
flatter
flaunt
intric
showc
##redict
grr
grub
grate
fee
fein
feas
fever
febr
##ologues
##notes
##gering
##geries
agar
agency
agric
indebted
indefin
bok
bob
boll
bobs
bogg
bobb
bobc
boston
bobby
bohem
demoral
halle
charge
charism
charming
passers
caled
caliph
autoc
autos
autumn
##dspe
phy
phu
php
phant
phara
pherom
sao
sai
saus
sarah
recomb
arche
archive
conde
condomin
shroud
##ierre
invo
surpl
surfact
surrog
surgeon
chev
chef
##ivided
##wny
concub
concord
concuss
welles
repent
##upulous
guj
guest
guess
gumb
guill
guang
guatem
##flowers
debun
avat
avoc
avalan
matr
mats
matte
rais
raul
raine
raft
raza
##anka
widow
##arak
##aragu
##roportion
##ropolis
benign
bennett
benedict
enthr
ski
skim
skitt
skys
skyl
skirm
fae
faq
mott
motion
motif
##onsin
##onson
##onshire
protector
protagon
hua
hump
hugh
##ssus
##isticated
transist
transph
transact
transpl
transparent
transgress
transplant
founder
foundation
kris
crut
crim
crush
criter
crimin
crumb
crude
cruel
evening
##oka
##oku
##oker
##okov
president
prescrib
preschool
turner
webster
greet
marse
marie
marath
marque
marlow
margin
mario
maroon
marria
martha
##forth
anto
anti
antar
antig
antith
antim
antenna
antiox
simon
simult
##axis
britain
britann
ohio
##unded
suppl
supposed
focuss
hardy
supers
superman
superfic
superher
supersed
superintend
engle
engage
england
engulf
engross
unsuccess
bookse
joe
jov
joint
joke
joao
association
emanc
emiss
emily
emeral
emotion
director
##ahu
##ahan
##ahaw
film
##mptive
reds
redra
redef
redneck
commander
lamp
laver
laud
lawn
drug
drift
drunk
farn
farc
farmer
academy
bram
brant
brave
brady
bradley
questionna
significant
walker
capit
capric
persist
##erville
caut
caul
caution
cavern
caffe
drain
draper
drake
##inced
brew
breed
##marked
hunter
huntington
benefact
distort
distaste
oklah
clearing
cleveland
vehe
submer
obser
overrun
##prit
carey
caret
careg
waik
waff
couldn
##hesia
attic
attach
attache
attorney
encro
encourage
improper
improvis
honest
polynes
recapt
##sho
##shing
##shit
##show
##shop
##shots
##shell
##shirt
synth
freight
frett
freak
freeman
freemason
netfl
##cestershire
obit
obso
obama
oblique
pattern
patrick
patrol
##ylene
barre
barra
barth
barks
barcl
barry
barns
barca
barcel
barbec
snor
snub
snag
snark
snugg
snyder
##yson
##ilians
libra
##uracy
regard
regiment
unfav
goose
humili
humane
decad
decap
decib
deconstruct
jell
jeffer
jeann
jelly
jealous
jewel
jehov
##annon
##anners
##annah
profound
separat
##rard
##ariat
esper
eski
harle
harry
harvey
harps
##coni
##ogg
##oglo
##ogens
##ogene
##strings
##entials
existential
building
puritan
##olson
hypers
hybrid
hygien
##elled
##ellar
anna
annie
annab
annivers
announ
bookshel
##cede
##tenstein
##ovy
##ovo
##ovs
cuba
khan
##cents
##centric
connor
connois
confine
confident
metz
metall
meticul
metcal
metamorph
destabil
destiny
frag
frant
framing
salt
sala
glou
glas
glass
glitch
gladi
nato
##ianship
robes
robinson
immedi
incumb
inciner
incorrect
incarcer
copper
broch
broker
##ricks
##ricular
##burger
negro
powell
profession
dayton
viewer
##horse
relent
freder
freddy
alexander
bitcoin
##oducing
policym
deli
dela
delir
unlaw
monk
monit
monot
monarch
monaster
monument
monster
monograph
monica
monkey
monoch
##gba
##iscus
##iscipl
goaltend
crab
craig
merced
mersey
merkel
winder
winner
##hoe
##hoot
stew
stein
steve
steak
stewart
irrad
irrep
irrespons
excited
involunt
engineer
gains
gaines
moroc
morgan
morris
morrison
affidav
france
franken
nair
mcne
mcdon
mcfar
##attie
savage
##hampton
respir
dias
divert
diarr
misd
miser
misle
misman
misinform
misfortun
mississ
penn
pena
penins
penitent
pennsylvania
##hammer
foreign
foreclos
oppos
opponent
serious
serpent
##ribe
##oleum
belt
belated
belarus
burke
burton
burden
burrit
burdens
parish
ports
porter
portland
portugal
portfol
artic
artem
artich
artific
artisan
artifact
donate
donald
herz
herod
herbal
##amesh
authority
authoritarian
behaviour
breakthrough
organisation
centre
century
centimet
centaur
##iums
##orescence
unreason
unrecogn
##hey
##hea
##held
##sonic
colour
colone
denver
denmark
denny
denomin
garcia
ignor
osce
ospre
##laid
device
devol
devalu
devote
deviant
humanity
bottleneck
##ographical
##azy
##azar
browns
croiss
dinosa
octav
squint
squir
squab
squish
player
playwright
airline
airport
airfield
aircraft
airlift
grandpa
grandma
grandmother
grandfather
baseball
stanley
swims
embark
embezz
##bright
introvert
jefferson
administration
cnn
facade
facility
succinct
autobio
campbell
milksha
estrad
finland
fingerprint
rams
ramon
thumbn
derail
derby
glob
paycheck
payload
payroll
senor
senate
senator
senegal
reinstate
reinhard
reinvest
ceo
celine
cemeter
cecil
cutler
medall
medica
soror
sorrow
tenn
tene
##camp
##cake
##iracy
##iracial
##letal
domino
community
communique
epit
epile
electroc
musl
musket
pye
petr
pete
petra
peterson
groo
gros
groom
grocer
paler
palme
palest
sweat
sweep
sweethe
terry
territ
##ending
##enders
fairy
critiqu
lights
messi
norway
norweg
natural
genoc
genital
genetic
navy
##liners
##opsies
##otypes
competition
gaut
gaul
gaff
gauss
june
junior
macy
macros
macroe
##oya
simpson
blackhaw
famil
hammo
hammer
hamburg
hammers
##grid
##balance
neurosc
neurosur
neurotrans
demonstra
earn
earl
earnest
horns
tsun
urch
urgent
urugu
##cycle
##lihood
collar
collier
colloqu
sentine
shea
sheer
shear
sheep
unwind
unwitting
unwilling
precurs
precise
precinct
bailey
smoke
smokes
sandal
##baij
customer
housew
julian
juliet
turt
turnt
turbo
turkey
wilder
wilson
wilkins
wilhel
##hasa
receivers
receipt
ingen
ingred
montana
##aughters
berg
berry
berger
berlin
cambr
camera
cambod
camoufl
msn
##eney
society
prepared
melbourne
dmit
liam
lique
megaw
mccon
mccall
mccorm
mccain
mccull
mccarth
mcclell
torch
##ippy
infert
dissu
dissat
dissert
dissoc
officer
experiment
cataclys
duo
duke
duran
microw
mickey
microph
volta
volcano
##icksburg
intermitt
dealer
dealers
uncertaint
guardian
franklin
audience
auditor
divest
division
gnaw
miller
millimet
millisecond
rhin
rhodes
rhym
suscept
walter
##iesta
##zzi
renown
cannon
cannab
cannib
tabl
energet
buckingham
virtu
psychos
psychopath
awesome
ferra
fervent
fergus
furlong
firecra
firewall
piece
parson
saturn
satir
satisfact
wasn
##year
christie
reconn
reconfig
propagand
carter
madrid
madonna
punj
sanchez
##ylon
##ylie
##ylaxis
incompet
company
companions
biote
biof
galax
galactic
galvan
holt
kenny
kenya
landf
monday
nbc
nouve
##written
##rased
anglo
angles
admitted
proceed
teleph
teleport
telegraph
telepath
television
appease
##shevik
ambig
ambul
ambros
casc
diab
dunk
duncan
ethere
judgment
silhou
website
dispatch
disproportion
management
photo
pythagor
bonne
bowie
baller
balloon
hurric
hurried
murray
murphy
martini
panor
ruby
rubber
werewol
##hani
starb
army
armstrong
##idental
allegor
alleged
unnecess
philip
philadel
masse
potter
potato
watercol
waterproof
##oxide
alban
album
alberta
ashley
buddy
cabb
juan
juke
juven
juxtap
kohl
odys
puppet
western
##ienne
##guard
##guire
##etera
domic
borg
borough
borne
bandw
daniel
lucy
lucas
muham
masc
mascul
masquer
menstr
oxy
room
roomm
rooft
roosevel
##breaking
##embled
##ammy
##ammers
unpopular
unpredict
footpath
inflamm
johans
escap
biden
bulk
bulg
bulb
crowd
crowds
homer
miy
miami
hypoc
hypnot
hypocr
northeast
boliv
bolshevik
bulldo
candle
candidate
candlest
flee
fleet
kilomet
rupe
rupt
volley
voicem
vacation
women
waters
watert
watersh
##ritic
##ritis
##ijuana
##flies
innoc
promot
promisc
magistr
hawth
hawke
billy
billboard
battal
cardi
nicaragu
pacif
pacific
southeast
walling
wallace
##uitous
##feed
therap
therape
rebra
##rophy
fortn
wheat
traveler
lawrence
lawyer
athen
athlete
boss
cuis
cumm
cumber
councill
federation
henry
hemat
hemis
michigan
michelle
rainfor
souven
souza
stopp
inhum
inhuman
premature
physical
technology
snowf
axi
axel
aerona
aerodynamic
birds
cathed
gerard
jerry
jersey
karl
nightcl
nightmar
richard
richards
tunnel
victoria
whoever
majesty
spectro
spectros
spectacular
tribes
tribut
tribun
barbar
barbers
merciless
hydrocar
hydrochlor
bayon
bernie
bernard
culture
datas
eccentric
fanatic
figure
ibm
jury
jurgen
marsh
marsha
marshm
piggy
parker
parkinson
sloven
slovak
ticket
wolfs
##ascar
clarke
exceed
excels
newslett
aspira
quarterf
sufficient
reprim
circuit
skyd
motorb
motorcyc
anthony
militia
military
microsoft
ayurved
dodge
davis
fuk
fiber
giant
girl
hotel
kyrgy
kickstart
mistaken
nutr
pilot
scold
scoff
skept
skeptic
tapest
venge
village
wreck
##ridged
##ochond
##poons
##innon
strange
stranger
strangle
##etermined
cosmet
claire
claustroph
helmet
shaft
sheriff
romney
romantic
counterint
collector
ahmed
ahmad
batman
banglades
canter
canton
celest
celib
drool
fisherman
kerr
kerry
loudspe
mitochond
sexual
vanqu
vibr
##ometry
##ometric
##jiang
tomato
tomorrow
renee
inept
cockro
animal
overloo
contracept
##ogenous
azte
hillary
licens
lenin
laura
lauder
owen
owner
santa
sauce
talib
tuber
video
videog
##arthur
injust
cornwall
georget
##bellum
fluor
cruz
espn
colonial
austria
australia
boulev
certific
eucl
ellipt
fatig
future
glee
hindu
jamie
kazakh
lesb
olive
panty
tonight
##belt
##organized
stylist
reassess
stratosph
stratigra
somers
doctr
doctor
unearth
unemploy
inspir
inspector
constitu
spirit
scramb
corporation
bronch
champion
margaret
redevelo
##conomic
secretary
politic
governor
government
amput
baptist
baptism
ceramic
ceremon
dystop
dwind
dutch
didn
ecosystem
eyeb
eyewit
gonzale
glyco
glycer
gilbert
gamer
gilles
gibson
jonathan
katie
kingdom
lavish
limb
mongol
nasa
ryan
ricci
ranch
ravi
sarcast
tamar
vague
yuk
##iatric
clerk
clergy
consecr
lewis
grasshop
resurf
romania
troublem
scotts
scotland
bloom
blooms
blinds
blindfold
homogene
employer
employee
flavor
lauren
brainstorm
harvard
##continental
oscar
johnny
cataract
catapult
caterpill
couple
dawson
furnish
fantast
gyps
gustav
lemon
livest
marys
maryland
miracul
ninet
oceans
penteco
pandora
sieg
ukrain
ukraine
uganda
vincent
wagner
##iotics
##rehensible
strenuous
toothp
anchor
pronounce
sophie
sophom
secure
altru
henderson
hendricks
##imonious
uninhab
institute
rescind
nomad
dislod
defendant
assembl
assembly
florida
bogota
pharmace
crucifix
patriot
patriarch
registrar
principal
salvador
irrevoc
mcdonald
earthqu
photographer
buddh
buddha
aleksand
austin
dyslex
dysfunction
essay
fingert
fingern
fulfil
fulfill
hodg
himalay
horses
harrison
hungary
journal
landsl
mimic
muller
mammal
oversh
soundtrack
tanz
tacit
tumult
xxx
##gregor
##miths
##patient
##brook
##broken
thunderstorm
##reatment
steril
stafford
reimag
##isfied
##cellular
solomon
alcoho
alcohol
ascertain
dolph
expedition
shadow
leonard
sudden
sunday
assassin
butterf
recruit
contradict
commissioner
american
coroner
wrestle
temperament
flatten
joyce
brooklyn
stephen
francisc
francisco
nazare
mcmur
paralymp
shooter
philosopher
zealand
gentlemen
circumc
circumst
bureaucra
manufacturer
binoc
bingham
cesar
cafe
cafes
diego
dialog
festival
gamec
gaga
hijack
jesse
jesus
jessica
jordan
kuwa
kanye
mourinho
pistach
pancre
pictures
rasp
ragnar
russia
rattles
sask
sulph
valentine
veterin
veteran
##grown
##umption
stunning
steadfast
rearrange
inexper
aristocr
cotton
isolation
strateg
exhilar
procure
protege
indisput
indiscrimin
publisher
soldier
deceit
nucleot
atlanta
maiden
withdraw
prefect
painstaking
abbott
overthrow
sponsors
undersc
reporter
plaus
chairman
saxoph
confidential
steeple
colorado
virginia
cameron
cameroon
cryptocur
battlefield
inhabit
gabriel
acknowledge
aaron
bryan
babylon
cigare
ephes
hitler
hannah
jagu
kentucky
lithu
museum
nestle
nigeria
ozil
ontario
orang
perez
sapph
taylor
tropic
##natal
thermodynamic
theatre
stalin
stupid
toxic
argentina
cohen
anaest
forbid
prosecution
prosecutor
indoctr
pompe
alaska
chirop
choreograph
chipm
chancellor
churchill
sylv
maurit
supremac
hazard
aberde
abandon
overwhelming
disgust
spartan
impecc
mozart
commence
kellogg
##reneurs
scandinav
discreet
discretion
plagiar
vertebra
postpone
carolina
persever
handicra
griffin
griffith
surround
surprising
protestant
crunchy
anteced
brazil
distrust
district
wavelen
francois
malaysia
columbia
millenn
epistem
genealog
astonishing
astrolog
turkmen
suspense
photosynt
ultras
hawaii
citizens
jurisdiction
arabia
georgia
colombia
pittsburgh
aphrod
amphithe
bizarre
bourgeois
bengal
bungal
ctr
cousin
calend
dionys
emma
eagle
fayette
fresco
fiancee
fernandez
greece
gordon
germany
hortic
hudson
imbal
japan
joker
kiw
korea
karen
kauf
lethar
lanka
lennon
mitchell
miscarr
ogil
pineapp
prank
pediatric
racket
rapport
sincer
sincere
sulfur
tesla
tuesday
tornado
vapor
yesterday
##luence
thursday
thomas
tournament
invertebr
##enzie
arnold
arsenal
cochran
isaac
anatom
forego
cliche
cliches
prisoner
producer
##intyre
indonesia
pocket
deutsch
conglomer
convincing
chicago
chromos
chocol
chelsea
chimpan
mailbox
maggie
leopold
unhapp
unmistak
unaccount
enlighten
enlarge
hairdress
abraham
absentee
overcrow
moistur
twenty
subconscious
carpenter
sledge
africa
hollywood
multicultural
sweden
democrat
##planes
refreshing
enterpr
entrepreneur
entrepreneurs
skateboard
crustace
redesign
caesar
vehicle
##productive
obliv
inconsist
merchand
##hazard
misunderstand
belgium
centrif
embellish
epithel
sweatsh
societe
liverpool
rhythm
renegot
psychoanaly
saturday
unprof
johnson
ecuador
hahahah
venezuela
czechoslovak
intellectual
buchan
cunning
dexter
daffod
echel
eccles
flesh
fagg
gandhi
gerald
houston
hispan
heterogene
hirosh
hernandez
ireland
ivanov
journey
kangaroo
krypton
kindergart
lloyd
nurse
nixon
oregon
oliver
pengu
rachel
ransom
satell
tiffany
uzbek
ulcer
ubiqu
washington
##runner
##speed
##valued
thompson
toilet
reintr
inadvert
inexplic
intoler
arizona
arthur
artefact
coefficient
foresee
exorc
newspaper
princess
sebast
algebra
alabama
retrospect
chieft
nottingham
sydney
tyrann
queensland
shotgun
legend
lebanon
tajik
universe
unintent
unequivoc
encrypt
insufficient
compassion
upheav
apparent
roleplay
disgrace
disinfect
spearhead
edinburgh
editorial
trespass
peculiar
subpoena
committee
america
amateur
amalgam
manuscript
scallop
plaintiff
carriage
warrior
blasph
predominant
bridesma
extravag
perplex
unsurprising
semiconduct
cytok
opinion
phoen
cheetah
matthew
transduc
presbyter
antisem
antidepress
restaurant
annoying
confucian
scrutin
misdemean
misinterpret
srinivas
crocod
crosso
embroider
##overnmental
